<unk>	0
<s>	0
</s>	0
[BR]	0
<0x00>	0
<0x01>	0
<0x02>	0
<0x03>	0
<0x04>	0
<0x05>	0
<0x06>	0
<0x07>	0
<0x08>	0
<0x09>	0
<0x0A>	0
<0x0B>	0
<0x0C>	0
<0x0D>	0
<0x0E>	0
<0x0F>	0
<0x10>	0
<0x11>	0
<0x12>	0
<0x13>	0
<0x14>	0
<0x15>	0
<0x16>	0
<0x17>	0
<0x18>	0
<0x19>	0
<0x1A>	0
<0x1B>	0
<0x1C>	0
<0x1D>	0
<0x1E>	0
<0x1F>	0
<0x20>	0
<0x21>	0
<0x22>	0
<0x23>	0
<0x24>	0
<0x25>	0
<0x26>	0
<0x27>	0
<0x28>	0
<0x29>	0
<0x2A>	0
<0x2B>	0
<0x2C>	0
<0x2D>	0
<0x2E>	0
<0x2F>	0
<0x30>	0
<0x31>	0
<0x32>	0
<0x33>	0
<0x34>	0
<0x35>	0
<0x36>	0
<0x37>	0
<0x38>	0
<0x39>	0
<0x3A>	0
<0x3B>	0
<0x3C>	0
<0x3D>	0
<0x3E>	0
<0x3F>	0
<0x40>	0
<0x41>	0
<0x42>	0
<0x43>	0
<0x44>	0
<0x45>	0
<0x46>	0
<0x47>	0
<0x48>	0
<0x49>	0
<0x4A>	0
<0x4B>	0
<0x4C>	0
<0x4D>	0
<0x4E>	0
<0x4F>	0
<0x50>	0
<0x51>	0
<0x52>	0
<0x53>	0
<0x54>	0
<0x55>	0
<0x56>	0
<0x57>	0
<0x58>	0
<0x59>	0
<0x5A>	0
<0x5B>	0
<0x5C>	0
<0x5D>	0
<0x5E>	0
<0x5F>	0
<0x60>	0
<0x61>	0
<0x62>	0
<0x63>	0
<0x64>	0
<0x65>	0
<0x66>	0
<0x67>	0
<0x68>	0
<0x69>	0
<0x6A>	0
<0x6B>	0
<0x6C>	0
<0x6D>	0
<0x6E>	0
<0x6F>	0
<0x70>	0
<0x71>	0
<0x72>	0
<0x73>	0
<0x74>	0
<0x75>	0
<0x76>	0
<0x77>	0
<0x78>	0
<0x79>	0
<0x7A>	0
<0x7B>	0
<0x7C>	0
<0x7D>	0
<0x7E>	0
<0x7F>	0
<0x80>	0
<0x81>	0
<0x82>	0
<0x83>	0
<0x84>	0
<0x85>	0
<0x86>	0
<0x87>	0
<0x88>	0
<0x89>	0
<0x8A>	0
<0x8B>	0
<0x8C>	0
<0x8D>	0
<0x8E>	0
<0x8F>	0
<0x90>	0
<0x91>	0
<0x92>	0
<0x93>	0
<0x94>	0
<0x95>	0
<0x96>	0
<0x97>	0
<0x98>	0
<0x99>	0
<0x9A>	0
<0x9B>	0
<0x9C>	0
<0x9D>	0
<0x9E>	0
<0x9F>	0
<0xA0>	0
<0xA1>	0
<0xA2>	0
<0xA3>	0
<0xA4>	0
<0xA5>	0
<0xA6>	0
<0xA7>	0
<0xA8>	0
<0xA9>	0
<0xAA>	0
<0xAB>	0
<0xAC>	0
<0xAD>	0
<0xAE>	0
<0xAF>	0
<0xB0>	0
<0xB1>	0
<0xB2>	0
<0xB3>	0
<0xB4>	0
<0xB5>	0
<0xB6>	0
<0xB7>	0
<0xB8>	0
<0xB9>	0
<0xBA>	0
<0xBB>	0
<0xBC>	0
<0xBD>	0
<0xBE>	0
<0xBF>	0
<0xC0>	0
<0xC1>	0
<0xC2>	0
<0xC3>	0
<0xC4>	0
<0xC5>	0
<0xC6>	0
<0xC7>	0
<0xC8>	0
<0xC9>	0
<0xCA>	0
<0xCB>	0
<0xCC>	0
<0xCD>	0
<0xCE>	0
<0xCF>	0
<0xD0>	0
<0xD1>	0
<0xD2>	0
<0xD3>	0
<0xD4>	0
<0xD5>	0
<0xD6>	0
<0xD7>	0
<0xD8>	0
<0xD9>	0
<0xDA>	0
<0xDB>	0
<0xDC>	0
<0xDD>	0
<0xDE>	0
<0xDF>	0
<0xE0>	0
<0xE1>	0
<0xE2>	0
<0xE3>	0
<0xE4>	0
<0xE5>	0
<0xE6>	0
<0xE7>	0
<0xE8>	0
<0xE9>	0
<0xEA>	0
<0xEB>	0
<0xEC>	0
<0xED>	0
<0xEE>	0
<0xEF>	0
<0xF0>	0
<0xF1>	0
<0xF2>	0
<0xF3>	0
<0xF4>	0
<0xF5>	0
<0xF6>	0
<0xF7>	0
<0xF8>	0
<0xF9>	0
<0xFA>	0
<0xFB>	0
<0xFC>	0
<0xFD>	0
<0xFE>	0
<0xFF>	0
()	-0
一个	-1
中国	-2
▁在	-3
),	-4
可以	-5
政府	-6
香港	-7
成为	-8
美国	-9
使用	-10
大学	-11
国家	-12
开始	-13
台湾	-14
日本	-15
▁这	-16
主要	-17
世界	-18
地区	-19
公司	-20
第一	-21
没有	-22
以及	-23
包括	-24
认为	-25
由于	-26
进行	-27
)。	-28
他们	-29
部分	-30
研究	-31
其中	-32
其他	-33
因为	-34
因此	-35
当时	-36
发展	-37
的一	-38
""	-39
人民	-40
称为	-41
不同	-42
之后	-43
位于	-44
中的	-45
系统	-46
主义	-47
社会	-48
同时	-49
之一	-50
可能	-51
作为	-52
第二	-53
」,	-54
自己	-55
▁他	-56
国际	-57
经济	-58
中华	-59
文化	-60
英国	-61
委员	-62
▁而	-63
世纪	-64
▁但	-65
时期	-66
历史	-67
政治	-68
影响	-69
通过	-70
代表	-71
中央	-72
人口	-73
获得	-74
出现	-75
许多	-76
大的	-77
时间	-78
年代	-79
工作	-80
▁此	-81
成立	-82
中心	-83
他的	-84
年的	-85
一些	-86
上的	-87
运动	-88
」。	-89
这个	-90
(),	-91
重要	-92
是一	-93
..	-94
学院	-95
后来	-96
所有	-97
问题	-98
电影	-99
组织	-100
)、	-101
电视	-102
已经	-103
人的	-104
发现	-105
教育	-106
之间	-107
》,	-108
城市	-109
最后	-110
也是	-111
设计	-112
战争	-113
共和	-114
学校	-115
表示	-116
正式	-117
方面	-118
发生	-119
计划	-120
这些	-121
一般	-122
根据	-123
建筑	-124
就是	-125
例如	-126
公里	-127
关系	-128
提供	-129
法国	-130
》、	-131
期间	-132
的人	-133
音乐	-134
行政	-135
德国	-136
民国	-137
▁由于	-138
虽然	-139
活动	-140
委员会	-141
建立	-142
学家	-143
两个	-144
作品	-145
支持	-146
全国	-147
北京	-148
管理	-149
为了	-150
所以	-151
对于	-152
学生	-153
共和国	-154
地方	-155
▁《	-156
语言	-157
上海	-158
技术	-159
》、《	-160
到了	-161
自由	-162
需要	-163
服务	-164
担任	-165
欧洲	-166
是在	-167
决定	-168
产生	-169
国民	-170
游戏	-171
通常	-172
铁路	-173
工程	-174
名为	-175
并且	-176
总统	-177
进入	-178
拥有	-179
目前	-180
方式	-181
存在	-182
形成	-183
分别	-184
会议	-185
的是	-186
▁另	-187
事件	-188
组成	-189
联合	-190
的大	-191
提出	-192
独立	-193
不过	-194
第三	-195
最高	-196
受到	-197
成功	-198
帝国	-199
要求	-200
只有	-201
属于	-202
情况	-203
面积	-204
时代	-205
(,	-206
生产	-207
生活	-208
著名	-209
最终	-210
▁其	-211
大陆	-212
具有	-213
传统	-214
然而	-215
的一个	-216
特别	-217
都是	-218
工业	-219
还有	-220
理论	-221
也有	-222
革命	-223
除了	-224
民族	-225
参加	-226
现在	-227
科学	-228
利亚	-229
完成	-230
但是	-231
来的	-232
民主	-233
得到	-234
举行	-235
现代	-236
了一	-237
宣布	-238
控制	-239
方法	-240
罗马	-241
并不	-242
出版	-243
一直	-244
如果	-245
加入	-246
非常	-247
导致	-248
造成	-249
甚至	-250
增加	-251
同年	-252
航空	-253
系列	-254
来自	-255
无法	-256
参与	-257
▁有	-258
艺术	-259
开发	-260
这种	-261
大量	-262
成员	-263
罗斯	-264
▁该	-265
任何	-266
军事	-267
二十	-268
分为	-269
结果	-270
中华民国	-271
▁当	-272
很多	-273
▁大	-274
采用	-275
台北	-276
超过	-277
用于	-278
结束	-279
标准	-280
性的	-281
自然	-282
接受	-283
领导	-284
比赛	-285
多数	-286
印度	-287
:「	-288
保护	-289
过程	-290
冠军	-291
主席	-292
是一个	-293
基本	-294
自己的	-295
统治	-296
()。	-297
一种	-298
负责	-299
动物	-300
平方	-301
》。	-302
机场	-303
我们	-304
反对	-305
苏联	-306
结构	-307
单位	-308
尼亚	-309
人民共和国	-310
这一	-311
选举	-312
电子	-313
中共	-314
文学	-315
发行	-316
制作	-317
必须	-318
不能	-319
形式	-320
交通	-321
计算	-322
人类	-323
直接	-324
继续	-325
完全	-326
处理	-327
机构	-328
取得	-329
集团	-330
军队	-331
发表	-332
共产	-333
为主	-334
使得	-335
实际	-336
经过	-337
政策	-338
之前	-339
主教	-340
中华人民共和国	-341
新的	-342
市场	-343
内的	-344
当地	-345
后的	-346
合作	-347
有一	-348
节目	-349
不是	-350
相当	-351
下的	-352
▁此外	-353
相关	-354
内容	-355
联盟	-356
不同的	-357
有关	-358
作用	-359
生物	-360
基础	-361
中学	-362
定的	-363
于是	-364
球队	-365
车站	-366
利用	-367
。」	-368
——	-369
小说	-370
新闻	-371
制度	-372
个人	-373
行为	-374
部队	-375
时候	-376
▁然而	-377
宗教	-378
能够	-379
它们	-380
基督	-381
或者	-382
区域	-383
朝鲜	-384
重新	-385
逐渐	-386
是由	-387
▁其中	-388
定义	-389
的地	-390
各种	-391
环境	-392
而且	-393
平均	-394
斯特	-395
公园	-396
国王	-397
改为	-398
人员	-399
反应	-400
企业	-401
▁从	-402
范围	-403
显示	-404
直到	-405
建设	-406
前往	-407
▁另外	-408
比较	-409
故事	-410
版本	-411
部份	-412
大利	-413
附近	-414
规模	-415
银行	-416
东北	-417
商业	-418
海军	-419
推出	-420
将军	-421
关于	-422
首次	-423
空间	-424
不少	-425
▁虽然	-426
▁以	-427
法律	-428
设立	-429
早期	-430
部的	-431
纪念	-432
能力	-433
▁根据	-434
父亲	-435
名称	-436
公路	-437
被称为	-438
并在	-439
制造	-440
位置	-441
仍然	-442
功能	-443
万人	-444
记载	-445
皇帝	-446
国的	-447
曾经	-448
一样	-449
达到	-450
一次	-451
十二	-452
实验	-453
专辑	-454
希腊	-455
足球	-456
有限	-457
体的	-458
原因	-459
学者	-460
唯一	-461
指挥	-462
类似	-463
....	-464
选择	-465
物理	-466
行动	-467
之间的	-468
居民	-469
包含	-470
思想	-471
最早	-472
格兰	-473
角色	-474
这样	-475
出生	-476
表现	-477
年间	-478
」、	-479
、、	-480
统一	-481
改革	-482
西班	-483
共产党	-484
自治	-485
攻击	-486
西班牙	-487
学习	-488
植物	-489
三个	-490
立法	-491
全球	-492
一起	-493
共同	-494
是一种	-495
设有	-496
联赛	-497
俄罗斯	-498
第一次	-499
重要的	-500
相同	-501
严重	-502
以来	-503
产品	-504
的主	-505
》(	-506
澳门	-507
广东	-508
规定	-509
中文	-510
整个	-511
亚洲	-512
发动	-513
执行	-514
蒙古	-515
希望	-516
中国大陆	-517
人们	-518
毕业	-519
公元	-520
太阳	-521
人物	-522
广州	-523
南京	-524
韩国	-525
议会	-526
▁它	-527
出的	-528
项目	-529
细胞	-530
再次	-531
联邦	-532
资料	-533
数据	-534
多的	-535
战斗	-536
变化	-537
最大的	-538
改变	-539
以后	-540
▁不过	-541
应用	-542
年至	-543
化学	-544
经常	-545
英文	-546
飞机	-547
子的	-548
有的	-549
「」	-550
,《	-551
▁这些	-552
区的	-553
加上	-554
相对	-555
美元	-556
教授	-557
则是	-558
创作	-559
元素	-560
的主要	-561
三年	-562
速度	-563
▁(	-564
媒体	-565
▁因此	-566
一年	-567
日军	-568
分布	-569
函数	-570
第四	-571
举办	-572
大会	-573
大部分	-574
西亚	-575
东南	-576
贸易	-577
地球	-578
最大	-579
安全	-580
引起	-581
指出	-582
官方	-583
教会	-584
至今	-585
小时	-586
共有	-587
▁同年	-588
约翰	-589
土地	-590
▁自	-591
▁但是	-592
以上	-593
列车	-594
随后	-595
不断	-596
距离	-597
第一个	-598
他在	-599
十分	-600
不会	-601
他们的	-602
调查	-603
概念	-604
离开	-605
▁当时	-606
英语	-607
大战	-608
爆发	-609
西方	-610
电脑	-611
人士	-612
女性	-613
公共	-614
几乎	-615
佛教	-616
阿尔	-617
最佳	-618
阿拉	-619
者的	-620
描述	-621
之外	-622
名字	-623
尽管	-624
物质	-625
等人	-626
全部	-627
年在	-628
连接	-629
名的	-630
另一	-631
开放	-632
体育	-633
纪录	-634
斯坦	-635
▁中国	-636
条件	-637
」、「	-638
继承	-639
的新	-640
恢复	-641
著名的	-642
广泛	-643
方向	-644
不久	-645
各地	-646
公开	-647
还是	-648
儿子	-649
这是	-650
风格	-651
每年	-652
太平	-653
领域	-654
▁后来	-655
意大利	-656
占领	-657
解放	-658
国内	-659
网络	-660
地位	-661
同样	-662
批评	-663
广播	-664
都有	-665
左右	-666
数学	-667
然后	-668
报告	-669
()、	-670
死亡	-671
殖民	-672
分子	-673
医院	-674
合并	-675
流行	-676
以下	-677
外交	-678
的影响	-679
资源	-680
王朝	-681
目标	-682
犹太	-683
的高	-684
协会	-685
建议	-686
家庭	-687
先后	-688
分析	-689
▁与	-690
任务	-691
持续	-692
状态	-693
用来	-694
西北	-695
▁目前	-696
金属	-697
透过	-698
量的	-699
事务	-700
巴士	-701
兴建	-702
农业	-703
并于	-704
精神	-705
解释	-706
西南	-707
司令	-708
▁同时	-709
现象	-710
来说	-711
进攻	-712
球员	-713
是中国	-714
年后	-715
▁这个	-716
国民党	-717
最初	-718
型的	-719
取代	-720
大约	-721
多次	-722
解决	-723
面的	-724
纽约	-725
居住	-726
战役	-727
东京	-728
长的	-729
文字	-730
证明	-731
的特	-732
视为	-733
议员	-734
动画	-735
产业	-736
限制	-737
连续	-738
用的	-739
主持	-740
演出	-741
▁例如	-742
法院	-743
飞行	-744
长期	-745
简称	-746
地区的	-747
▁一	-748
是指	-749
家族	-750
少数	-751
母亲	-752
第二次	-753
加拿	-754
信息	-755
汽车	-756
时的	-757
清朝	-758
不可	-759
保持	-760
和平	-761
权力	-762
境内	-763
天主教	-764
只是	-765
作战	-766
减少	-767
去世	-768
▁后	-769
科技	-770
程度	-771
投资	-772
出了	-773
一带	-774
▁南	-775
专业	-776
阶段	-777
它的	-778
博物	-779
路线	-780
高速	-781
宪法	-782
歌曲	-783
的时候	-784
击败	-785
一世	-786
图书	-787
发布	-788
政权	-789
一步	-790
情况下	-791
应该	-792
▁本	-793
实现	-794
作家	-795
并没有	-796
中山	-797
化的	-798
帮助	-799
平方公里	-800
部长	-801
成的	-802
街道	-803
原本	-804
克斯	-805
普通	-806
主张	-807
拒绝	-808
常见	-809
在此	-810
▁至	-811
多个	-812
等等	-813
▁新	-814
二世	-815
总理	-816
好的	-817
,「	-818
因而	-819
数量	-820
无线	-821
双方	-822
集中	-823
氧化	-824
当中	-825
原子	-826
轨道	-827
总督	-828
荷兰	-829
起来	-830
团体	-831
▁现	-832
又称	-833
字母	-834
伦敦	-835
或是	-836
有限公司	-837
古代	-838
被认为	-839
过去	-840
越南	-841
《》	-842
条约	-843
杂志	-844
经营	-845
说法	-846
演唱	-847
建造	-848
尤其	-849
成了	-850
▁西	-851
▁据	-852
年起	-853
国务	-854
程序	-855
基地	-856
价值	-857
三十	-858
每个	-859
使用的	-860
初期	-861
旅游	-862
加拿大	-863
记录	-864
▁李	-865
都会	-866
她的	-867
力的	-868
人在	-869
设施	-870
▁为	-871
承认	-872
遭到	-873
国会	-874
两种	-875
是否	-876
规划	-877
大多数	-878
随著	-879
历史上	-880
元年	-881
维持	-882
的意	-883
第十	-884
模式	-885
增长	-886
气候	-887
设置	-888
官员	-889
天文	-890
北部	-891
展开	-892
葡萄	-893
普遍	-894
国立	-895
博物馆	-896
▁如果	-897
协议	-898
半岛	-899
另外	-900
哲学	-901
▁他们	-902
陆军	-903
随着	-904
马来	-905
第五	-906
部门	-907
准备	-908
目的	-909
分类	-910
书记	-911
质量	-912
亦有	-913
的研究	-914
内部	-915
某些	-916
主任	-917
实行	-918
进一步	-919
的发展	-920
▁因为	-921
当选	-922
演员	-923
训练	-924
决赛	-925
及其	-926
著作	-927
▁前	-928
如此	-929
职业	-930
回到	-931
结合	-932
四年	-933
天津	-934
机会	-935
知识	-936
核心	-937
博士	-938
▁「	-939
接近	-940
民间	-941
基督教	-942
事实	-943
是以	-944
首都	-945
明显	-946
了一个	-947
南部	-948
尔斯	-949
力量	-950
▁东	-951
威廉	-952
来源	-953
不再	-954
行星	-955
儿童	-956
当时的	-957
基于	-958
只能	-959
确定	-960
任命	-961
运输	-962
收入	-963
保留	-964
贝尔	-965
有些	-966
协助	-967
的小	-968
设备	-969
道路	-970
王国	-971
讨论	-972
破坏	-973
福建	-974
巴黎	-975
拉斯	-976
青年	-977
材料	-978
排名	-979
注意	-980
身份	-981
两人	-982
势力	-983
▁之后	-984
知道	-985
武器	-986
群岛	-987
英格兰	-988
漫画	-989
高的	-990
埃及	-991
一位	-992
以外	-993
文件	-994
机关	-995
所在	-996
河南	-997
实施	-998
有效	-999
湖南	-1000
的一种	-1001
广场	-1002
出任	-1003
山东	-1004
争议	-1005
本身	-1006
教堂	-1007
乐团	-1008
年度	-1009
成绩	-1010
色的	-1011
个月	-1012
简单	-1013
联合国	-1014
交易	-1015
其它	-1016
不得	-1017
市区	-1018
以前	-1019
信仰	-1020
亿元	-1021
会在	-1022
波兰	-1023
拍摄	-1024
伊斯	-1025
▁明	-1026
胜利	-1027
会的	-1028
比如	-1029
君主	-1030
综合	-1031
等地	-1032
重点	-1033
电视台	-1034
治疗	-1035
方案	-1036
▁阿	-1037
统计	-1038
性质	-1039
▁为了	-1040
数字	-1041
年前	-1042
一定	-1043
到达	-1044
支援	-1045
移民	-1046
学术	-1047
图书馆	-1048
观点	-1049
地下	-1050
宣传	-1051
稳定	-1052
里的	-1053
失败	-1054
提高	-1055
实际上	-1056
大楼	-1057
民众	-1058
年来	-1059
的重要	-1060
分钟	-1061
将其	-1062
的前	-1063
表演	-1064
但在	-1065
命名	-1066
斯的	-1067
四川	-1068
马克	-1069
有时	-1070
唱片	-1071
复杂	-1072
年开始	-1073
用户	-1074
同意	-1075
五年	-1076
军的	-1077
线的	-1078
行政区	-1079
▁美国	-1080
世界大战	-1081
表达	-1082
基金	-1083
▁中	-1084
大型	-1085
容易	-1086
毛泽	-1087
九龙	-1088
美洲	-1089
文章	-1090
冲突	-1091
热带	-1092
▁香港	-1093
批准	-1094
程式	-1095
如下	-1096
允许	-1097
欢迎	-1098
毛泽东	-1099
▁北	-1100
▁由	-1101
东西	-1102
兄弟	-1103
而是	-1104
卫星	-1105
的方式	-1106
大臣	-1107
▁是	-1108
得以	-1109
阿拉伯	-1110
并非	-1111
比亚	-1112
加坡	-1113
国务院	-1114
南北	-1115
拉丁	-1116
女儿	-1117
天皇	-1118
按照	-1119
课程	-1120
迅速	-1121
网站	-1122
医学	-1123
避免	-1124
意义	-1125
办公	-1126
重建	-1127
▁,	-1128
传说	-1129
过程中	-1130
电台	-1131
特殊	-1132
▁全	-1133
出来	-1134
命令	-1135
拉克	-1136
」(	-1137
处于	-1138
年轻	-1139
赛事	-1140
二年	-1141
失去	-1142
软件	-1143
频道	-1144
创造	-1145
▁三	-1146
发射	-1147
歌手	-1148
观察	-1149
考虑	-1150
南方	-1151
色列	-1152
阶级	-1153
的地方	-1154
战后	-1155
台北市	-1156
直至	-1157
在中国	-1158
翻译	-1159
而言	-1160
权利	-1161
业务	-1162
的国家	-1163
方言	-1164
成为了	-1165
之下	-1166
停止	-1167
学位	-1168
变成	-1169
日在	-1170
工具	-1171
未能	-1172
人数	-1173
一度	-1174
事业	-1175
自动	-1176
▁这种	-1177
中共中央	-1178
一名	-1179
▁她	-1180
访问	-1181
丰富	-1182
妻子	-1183
符号	-1184
西部	-1185
领土	-1186
临时	-1187
结婚	-1188
▁除了	-1189
校长	-1190
操作	-1191
召开	-1192
平原	-1193
不足	-1194
之中	-1195
......	-1196
浙江	-1197
有所	-1198
在这	-1199
小学	-1200
竞争	-1201
什么	-1202
水平	-1203
的原	-1204
生于	-1205
也可以	-1206
球场	-1207
因素	-1208
试图	-1209
从而	-1210
生命	-1211
温度	-1212
贵族	-1213
▁于	-1214
广告	-1215
公布	-1216
财政	-1217
▁尽管	-1218
奥运	-1219
心理	-1220
市的	-1221
赛季	-1222
放弃	-1223
可能是	-1224
能量	-1225
国家的	-1226
信号	-1227
规则	-1228
销售	-1229
市民	-1230
教学	-1231
十六	-1232
针对	-1233
也会	-1234
病毒	-1235
宇宙	-1236
政党	-1237
奥斯	-1238
往往	-1239
地铁	-1240
快速	-1241
州的	-1242
移动	-1243
赢得	-1244
舰队	-1245
返回	-1246
创立	-1247
合物	-1248
建成	-1249
禁止	-1250
重庆	-1251
比例	-1252
多种	-1253
▁对	-1254
体系	-1255
高等	-1256
高度	-1257
公尺	-1258
日的	-1259
世界上	-1260
社会主义	-1261
空军	-1262
非洲	-1263
记者	-1264
公民	-1265
再度	-1266
不满	-1267
投票	-1268
所谓	-1269
相似	-1270
国民政府	-1271
警察	-1272
外国	-1273
机械	-1274
强调	-1275
中有	-1276
创办	-1277
▁马	-1278
才能	-1279
模型	-1280
运行	-1281
▁如	-1282
里斯	-1283
计算机	-1284
标志	-1285
评论	-1286
积极	-1287
主角	-1288
议院	-1289
象征	-1290
▁他的	-1291
同盟	-1292
地的	-1293
也就是	-1294
其后	-1295
制的	-1296
文物	-1297
号线	-1298
更加	-1299
下辖	-1300
采取	-1301
引擎	-1302
伊斯兰	-1303
高级	-1304
新加坡	-1305
时期的	-1306
书院	-1307
即使	-1308
管辖	-1309
公元前	-1310
正在	-1311
皇家	-1312
出口	-1313
汉语	-1314
贡献	-1315
北方	-1316
地理	-1317
基因	-1318
金融	-1319
投入	-1320
在美国	-1321
今天	-1322
主要的	-1323
从事	-1324
提升	-1325
生的	-1326
十年	-1327
▁。	-1328
三角	-1329
几个	-1330
东部	-1331
真正	-1332
▁对于	-1333
吸引	-1334
小的	-1335
为一	-1336
意识	-1337
组合	-1338
取消	-1339
引发	-1340
华人	-1341
对象	-1342
进行了	-1343
地利	-1344
太子	-1345
后期	-1346
动力	-1347
较为	-1348
斯科	-1349
江苏	-1350
经验	-1351
▁清	-1352
并未	-1353
蛋白	-1354
曾在	-1355
的中	-1356
塞尔	-1357
董事	-1358
也在	-1359
看到	-1360
四个	-1361
同一	-1362
河流	-1363
所有的	-1364
大多	-1365
数的	-1366
中国共产党	-1367
乾隆	-1368
传播	-1369
娱乐	-1370
路易	-1371
源于	-1372
逻辑	-1373
发明	-1374
海外	-1375
交流	-1376
经典	-1377
以色列	-1378
学科	-1379
星期	-1380
东方	-1381
的问题	-1382
类型	-1383
观众	-1384
年底	-1385
食物	-1386
总部	-1387
奥地利	-1388
也被	-1389
邀请	-1390
▁高	-1391
威尔	-1392
▁张	-1393
司马	-1394
有人	-1395
领袖	-1396
强烈	-1397
导演	-1398
相信	-1399
家的	-1400
压力	-1401
表面	-1402
首先	-1403
年被	-1404
播放	-1405
▁一般	-1406
主题	-1407
调整	-1408
学的	-1409
如何	-1410
第六	-1411
日报	-1412
天下	-1413
▁除	-1414
缺乏	-1415
众多	-1416
专门	-1417
主要是	-1418
死后	-1419
全面	-1420
集合	-1421
乔治	-1422
爱尔	-1423
长江	-1424
▁此后	-1425
经历	-1426
完整	-1427
国防	-1428
联系	-1429
推动	-1430
人和	-1431
逝世	-1432
消息	-1433
政府的	-1434
未来	-1435
女子	-1436
拉夫	-1437
身体	-1438
亨利	-1439
构成	-1440
海岸	-1441
编辑	-1442
文明	-1443
被迫	-1444
世界杯	-1445
申请	-1446
说明	-1447
少年	-1448
需求	-1449
入侵	-1450
威胁	-1451
战略	-1452
教师	-1453
不仅	-1454
那么	-1455
特征	-1456
解放军	-1457
差异	-1458
在于	-1459
抗日	-1460
伯特	-1461
那些	-1462
疾病	-1463
▁二	-1464
网路	-1465
州市	-1466
资讯	-1467
星系	-1468
俱乐	-1469
背景	-1470
(,),	-1471
山脉	-1472
观测	-1473
对手	-1474
语的	-1475
被认为是	-1476
十八	-1477
恒星	-1478
武装	-1479
的第一	-1480
朋友	-1481
的一部分	-1482
▁唐	-1483
作者	-1484
内阁	-1485
超级	-1486
海拔	-1487
相互	-1488
▁日本	-1489
终于	-1490
德里	-1491
葡萄牙	-1492
太空	-1493
隧道	-1494
获得了	-1495
▁陈	-1496
▁王	-1497
为止	-1498
男性	-1499
带来	-1500
台南	-1501
很快	-1502
民主党	-1503
系统的	-1504
将会	-1505
爱尔兰	-1506
平台	-1507
降低	-1508
夺得	-1509
改善	-1510
特别是	-1511
状况	-1512
气温	-1513
都市	-1514
▁天	-1515
率领	-1516
玩家	-1517
扩大	-1518
维亚	-1519
最为	-1520
车辆	-1521
在香港	-1522
神经	-1523
史上	-1524
称作	-1525
农民	-1526
特的	-1527
尔的	-1528
耶稣	-1529
最多	-1530
资本	-1531
毫米	-1532
起义	-1533
测试	-1534
柏林	-1535
修改	-1536
接触	-1537
一词	-1538
依据	-1539
河北	-1540
更多	-1541
森林	-1542
形象	-1543
中国的	-1544
小组	-1545
依然	-1546
式的	-1547
也不	-1548
士兵	-1549
空气	-1550
先生	-1551
皇后	-1552
汉字	-1553
发起	-1554
安排	-1555
关注	-1556
有一个	-1557
健康	-1558
这样的	-1559
十字	-1560
委会	-1561
斯基	-1562
效果	-1563
间的	-1564
例子	-1565
▁若	-1566
意志	-1567
自行	-1568
夫人	-1569
太平洋	-1570
错误	-1571
和其他	-1572
对外	-1573
参考	-1574
瑞典	-1575
食品	-1576
十一	-1577
的时间	-1578
估计	-1579
▁因	-1580
至少	-1581
知名	-1582
秘书	-1583
配合	-1584
价格	-1585
高雄	-1586
酒店	-1587
公司的	-1588
殖民地	-1589
命名为	-1590
各国	-1591
圣经	-1592
▁原	-1593
改编	-1594
面对	-1595
乘客	-1596
职务	-1597
年时	-1598
亚历	-1599
▁最后	-1600
感到	-1601
深圳	-1602
影片	-1603
澳洲	-1604
"")	-1605
加强	-1606
▁现在	-1607
分裂	-1608
孩子	-1609
通车	-1610
证据	-1611
下来	-1612
投降	-1613
▁台湾	-1614
的三	-1615
公主	-1616
电话	-1617
:)	-1618
了解	-1619
长官	-1620
到的	-1621
主义的	-1622
下降	-1623
部落	-1624
卡尔	-1625
度的	-1626
购买	-1627
海洋	-1628
上帝	-1629
俱乐部	-1630
优势	-1631
以为	-1632
美军	-1633
正常	-1634
文献	-1635
戏剧	-1636
▁其他	-1637
的关系	-1638
岁的	-1639
英雄	-1640
称呼	-1641
康熙	-1642
日至	-1643
队的	-1644
其实	-1645
▁最	-1646
法的	-1647
遗址	-1648
对应	-1649
大学的	-1650
▁金	-1651
仪式	-1652
红色	-1653
公众	-1654
陆续	-1655
给予	-1656
长沙	-1657
喜欢	-1658
而不	-1659
装甲	-1660
保守	-1661
利益	-1662
卫生	-1663
大规模	-1664
之为	-1665
损失	-1666
时任	-1667
俄国	-1668
▁两	-1669
演唱会	-1670
签订	-1671
研究所	-1672
三世	-1673
当年	-1674
就会	-1675
下令	-1676
中部	-1677
特色	-1678
量子	-1679
符合	-1680
表明	-1681
法兰	-1682
资格	-1683
列为	-1684
运作	-1685
货币	-1686
发出	-1687
报道	-1688
亚历山	-1689
出生于	-1690
生涯	-1691
一方面	-1692
山区	-1693
马来西亚	-1694
方程	-1695
测量	-1696
认识	-1697
药物	-1698
的历史	-1699
师范	-1700
月台	-1701
原则	-1702
上述	-1703
一条	-1704
出现在	-1705
变得	-1706
百万	-1707
其余	-1708
""""	-1709
的作品	-1710
▁刘	-1711
颜色	-1712
播出	-1713
坚持	-1714
尼斯	-1715
大厦	-1716
相比	-1717
执政	-1718
城区	-1719
达成	-1720
收购	-1721
周期	-1722
古典	-1723
巴西	-1724
难以	-1725
各个	-1726
社区	-1727
工厂	-1728
物种	-1729
是因为	-1730
组成的	-1731
武汉	-1732
行的	-1733
建于	-1734
另一个	-1735
科学家	-1736
工人	-1737
打击	-1738
营运	-1739
▁近	-1740
定为	-1741
撤销	-1742
并将	-1743
很大	-1744
明确	-1745
院长	-1746
是香港	-1747
前的	-1748
危机	-1749
一切	-1750
高速公路	-1751
▁汉	-1752
作出	-1753
日起	-1754
成本	-1755
产生的	-1756
亿美元	-1757
品牌	-1758
劳动	-1759
留下	-1760
七年	-1761
涉及	-1762
常见的	-1763
困难	-1764
▁可	-1765
西藏	-1766
带领	-1767
考试	-1768
之子	-1769
高中	-1770
是为	-1771
评价	-1772
朝廷	-1773
石油	-1774
种族	-1775
派的	-1776
粒子	-1777
重视	-1778
姆斯	-1779
抵达	-1780
▁一些	-1781
长度	-1782
最后一	-1783
互相	-1784
消费	-1785
住民	-1786
此时	-1787
保存	-1788
电视剧	-1789
感染	-1790
那里	-1791
秘密	-1792
夏季	-1793
国军	-1794
的外	-1795
并入	-1796
可以在	-1797
重大	-1798
引入	-1799
同性	-1800
保罗	-1801
两次	-1802
意见	-1803
尔德	-1804
资产	-1805
一同	-1806
固定	-1807
澳大	-1808
进步	-1809
论文	-1810
安装	-1811
方便	-1812
最低	-1813
尤其是	-1814
年初	-1815
扩展	-1816
更为	-1817
▁到	-1818
一致	-1819
大小	-1820
机器	-1821
交换	-1822
列表	-1823
而在	-1824
可能会	-1825
十九	-1826
中国人民	-1827
编号	-1828
对抗	-1829
理解	-1830
公爵	-1831
主义者	-1832
建立了	-1833
的政治	-1834
满足	-1835
签署	-1836
授予	-1837
含有	-1838
找到	-1839
首相	-1840
轰炸	-1841
线路	-1842
被视为	-1843
来到	-1844
当局	-1845
介绍	-1846
神话	-1847
输入	-1848
的方法	-1849
自身	-1850
频率	-1851
的情况下	-1852
光绪	-1853
在其	-1854
密度	-1855
通讯	-1856
学会	-1857
白色	-1858
▁元	-1859
犹太人	-1860
会员	-1861
六年	-1862
萨克	-1863
之战	-1864
的话	-1865
▁其后	-1866
启用	-1867
客运	-1868
机的	-1869
台中	-1870
出现了	-1871
出席	-1872
天然	-1873
纳粹	-1874
▁他在	-1875
湖北	-1876
声明	-1877
十五	-1878
▁而在	-1879
顾问	-1880
理想	-1881
兴趣	-1882
▁安	-1883
现实	-1884
的事	-1885
制定	-1886
后者	-1887
动作	-1888
事实上	-1889
越来	-1890
人口为	-1891
记忆	-1892
▁许多	-1893
一段	-1894
态度	-1895
延伸	-1896
促进	-1897
保险	-1898
名义	-1899
出身	-1900
平方米	-1901
种类	-1902
▁曾	-1903
声音	-1904
越来越	-1905
辐射	-1906
主权	-1907
专家	-1908
亲自	-1909
司法	-1910
努力	-1911
▁第二	-1912
十三	-1913
遗产	-1914
"",	-1915
并以	-1916
》()	-1917
而被	-1918
的工作	-1919
亦是	-1920
发达	-1921
大众	-1922
医疗	-1923
只要	-1924
的海	-1925
写作	-1926
希特	-1927
两岸	-1928
内战	-1929
运用	-1930
分离	-1931
坦克	-1932
就读	-1933
报导	-1934
正确	-1935
候选	-1936
本土	-1937
股份	-1938
第二次世界大战	-1939
道德	-1940
明朝	-1941
波斯	-1942
合成	-1943
上升	-1944
国际机场	-1945
扮演	-1946
编码	-1947
生态	-1948
▁的	-1949
父母	-1950
严格	-1951
规范	-1952
改名为	-1953
地点	-1954
混合	-1955
大量的	-1956
周围	-1957
覆盖	-1958
▁同	-1959
提到	-1960
已有	-1961
男子	-1962
码头	-1963
结束后	-1964
下午	-1965
西洋	-1966
的首	-1967
▁黄	-1968
冬季	-1969
山西	-1970
实验室	-1971
澳大利亚	-1972
私人	-1973
复兴	-1974
立即	-1975
今日	-1976
软体	-1977
上有	-1978
婚姻	-1979
苏格兰	-1980
责任	-1981
尝试	-1982
整体	-1983
手段	-1984
真实	-1985
第七	-1986
退出	-1987
无论	-1988
法案	-1989
化合物	-1990
而非	-1991
大幅	-1992
释放	-1993
可以指	-1994
月初	-1995
商品	-1996
花园	-1997
方的	-1998
海峡	-1999
周边	-2000
现今	-2001
离子	-2002
推广	-2003
岁时	-2004
代的	-2005
领导人	-2006
校园	-2007
分别为	-2008
武帝	-2009
▁随后	-2010
校区	-2011
源自	-2012
);	-2013
请求	-2014
的后	-2015
约为	-2016
万元	-2017
舞台	-2018
云南	-2019
土耳	-2020
谈判	-2021
可见	-2022
自杀	-2023
最早的	-2024
试验	-2025
彼得	-2026
罗马帝国	-2027
住宅	-2028
反映	-2029
租界	-2030
措施	-2031
资金	-2032
传教	-2033
而成	-2034
江西	-2035
十四	-2036
本地	-2037
驾驶	-2038
的一些	-2039
即位	-2040
岛屿	-2041
废除	-2042
意思	-2043
受欢迎	-2044
瑞士	-2045
更名为	-2046
多年	-2047
地面	-2048
吸收	-2049
各自	-2050
土耳其	-2051
装置	-2052
外的	-2053
市长	-2054
▁不	-2055
假设	-2056
办事	-2057
得知	-2058
突然	-2059
转移	-2060
习惯	-2061
爵士	-2062
装备	-2063
场的	-2064
陕西	-2065
这次	-2066
常常	-2067
原始	-2068
在大	-2069
关键	-2070
的支持	-2071
道的	-2072
以上的	-2073
修建	-2074
免费	-2075
代理	-2076
空中	-2077
亚历山大	-2078
培养	-2079
墨西	-2080
倾向	-2081
证实	-2082
处理器	-2083
不到	-2084
分别是	-2085
▁所以	-2086
这里	-2087
而不是	-2088
对此	-2089
次年	-2090
称之为	-2091
扩张	-2092
中间	-2093
随即	-2094
防御	-2095
大桥	-2096
克兰	-2097
▁宋	-2098
中期	-2099
成就	-2100
春秋	-2101
▁每	-2102
四大	-2103
带有	-2104
▁主要	-2105
特定	-2106
转换	-2107
周年	-2108
黄金	-2109
作曲	-2110
▁一个	-2111
开设	-2112
中正	-2113
参谋	-2114
哈尔	-2115
日后	-2116
▁这一	-2117
与其	-2118
乐队	-2119
本人	-2120
创建	-2121
的水	-2122
适合	-2123
名单	-2124
▁民国	-2125
派遣	-2126
则为	-2127
人民政府	-2128
用途	-2129
尚未	-2130
检查	-2131
用作	-2132
荣誉	-2133
斯拉夫	-2134
维奇	-2135
写的	-2136
▁于是	-2137
挑战	-2138
年到	-2139
日本的	-2140
书中	-2141
分配	-2142
加以	-2143
三国	-2144
单曲	-2145
义大利	-2146
提名	-2147
淡水	-2148
亲王	-2149
具体	-2150
斗争	-2151
的基础	-2152
效应	-2153
普鲁	-2154
在台湾	-2155
▁巴	-2156
从此	-2157
形态	-2158
:,	-2159
区别	-2160
▁小	-2161
广西	-2162
声称	-2163
球会	-2164
教宗	-2165
军团	-2166
修正	-2167
星的	-2168
一家	-2169
教练	-2170
绝对	-2171
布鲁	-2172
总面积	-2173
供应	-2174
区内	-2175
长达	-2176
的地区	-2177
苹果	-2178
与其他	-2179
墨西哥	-2180
将领	-2181
年龄	-2182
旅客	-2183
考古	-2184
发现了	-2185
力学	-2186
地震	-2187
的原因	-2188
演奏	-2189
广东省	-2190
改造	-2191
▁作为	-2192
注册	-2193
接收	-2194
伊朗	-2195
港口	-2196
流传	-2197
优秀	-2198
边界	-2199
港元	-2200
百科	-2201
变为	-2202
截至	-2203
原住民	-2204
展示	-2205
气体	-2206
两国	-2207
▁正	-2208
收录	-2209
千米	-2210
档案	-2211
矛盾	-2212
中原	-2213
长子	-2214
平面	-2215
代码	-2216
妇女	-2217
有许多	-2218
两者	-2219
得到了	-2220
▁又	-2221
授权	-2222
斯林	-2223
▁和	-2224
办公室	-2225
爆炸	-2226
方面的	-2227
推行	-2228
太后	-2229
杀死	-2230
的两	-2231
▁海	-2232
的地位	-2233
报纸	-2234
是不	-2235
一座	-2236
电力	-2237
年由	-2238
体制	-2239
叫做	-2240
性别	-2241
美术	-2242
自治区	-2243
抗议	-2244
球季	-2245
队伍	-2246
的经济	-2247
呈现	-2248
玻璃	-2249
袭击	-2250
发电	-2251
的情况	-2252
通道	-2253
平衡	-2254
定理	-2255
西安	-2256
名词	-2257
此后	-2258
突破	-2259
文艺	-2260
指导	-2261
循环	-2262
会有	-2263
理事	-2264
北京市	-2265
江南	-2266
军官	-2267
大致	-2268
运营	-2269
余人	-2270
几何	-2271
火箭	-2272
党的	-2273
成都	-2274
玛丽	-2275
污染	-2276
传统的	-2277
物体	-2278
必要	-2279
米尔	-2280
附近的	-2281
团队	-2282
三大	-2283
奴隶	-2284
为中国	-2285
▁到了	-2286
恐怖	-2287
犯罪	-2288
分支	-2289
形状	-2290
保证	-2291
建筑物	-2292
点的	-2293
近代	-2294
家人	-2295
查理	-2296
粤语	-2297
美国的	-2298
消失	-2299
向量	-2300
抵抗	-2301
宣称	-2302
战国	-2303
掌握	-2304
火山	-2305
位的	-2306
港铁	-2307
奥林	-2308
包围	-2309
运动员	-2310
都在	-2311
脱离	-2312
号的	-2313
尚书	-2314
▁第一	-2315
防止	-2316
▁以下	-2317
早在	-2318
提供了	-2319
锦标	-2320
红军	-2321
等于	-2322
维基	-2323
邻近	-2324
登陆	-2325
沿海	-2326
的有	-2327
现时	-2328
骑士	-2329
德的	-2330
身为	-2331
▁直到	-2332
▁这是	-2333
德华	-2334
鼓励	-2335
▁罗	-2336
寻找	-2337
波罗	-2338
列入	-2339
尔特	-2340
中最	-2341
铁道	-2342
硕士	-2343
入口	-2344
▁"	-2345
维护	-2346
使用者	-2347
相同的	-2348
▁上	-2349
角度	-2350
律师	-2351
典礼	-2352
危险	-2353
性能	-2354
情报	-2355
华盛	-2356
高达	-2357
摄影	-2358
改称	-2359
发动机	-2360
根本	-2361
出发	-2362
落成	-2363
时代的	-2364
成长	-2365
指示	-2366
▁下	-2367
在一	-2368
风险	-2369
很少	-2370
华盛顿	-2371
独立的	-2372
代表大会	-2373
法官	-2374
德意志	-2375
架构	-2376
意味	-2377
意为	-2378
巨大	-2379
牙利	-2380
会上	-2381
匈牙利	-2382
决议	-2383
城镇	-2384
定律	-2385
相反	-2386
在日本	-2387
确认	-2388
以南	-2389
更是	-2390
长安	-2391
新界	-2392
机制	-2393
说是	-2394
并无	-2395
解散	-2396
得名	-2397
参赛	-2398
人工	-2399
相关的	-2400
内地	-2401
▁古	-2402
克里	-2403
的日	-2404
商场	-2405
症状	-2406
女王	-2407
饰演	-2408
教育部	-2409
大道	-2410
奖项	-2411
类的	-2412
旗下	-2413
民进	-2414
驱逐	-2415
安徽	-2416
患者	-2417
是个	-2418
▁有些	-2419
了许多	-2420
医生	-2421
人大	-2422
条例	-2423
运算	-2424
房屋	-2425
怀疑	-2426
诗人	-2427
」()	-2428
机车	-2429
相继	-2430
二人	-2431
成分	-2432
原理	-2433
全世界	-2434
在一起	-2435
镇压	-2436
令人	-2437
区分	-2438
监督	-2439
的故事	-2440
彻底	-2441
诸侯	-2442
拿破	-2443
定居	-2444
德川	-2445
种植	-2446
杰克	-2447
商人	-2448
争取	-2449
哥伦	-2450
征服	-2451
青岛	-2452
马克思	-2453
▁周	-2454
旅行	-2455
天体	-2456
发音	-2457
比利	-2458
财产	-2459
的设计	-2460
的形式	-2461
洛阳	-2462
为其	-2463
逮捕	-2464
阻止	-2465
希特勒	-2466
保障	-2467
大使	-2468
律宾	-2469
黑色	-2470
的最	-2471
之处	-2472
拿破仑	-2473
维尔	-2474
合法	-2475
足够	-2476
中被	-2477
设定	-2478
菲律宾	-2479
为人	-2480
歌剧	-2481
生成	-2482
芬兰	-2483
成立的	-2484
▁林	-2485
年和	-2486
日治	-2487
麦克	-2488
主力	-2489
辖区	-2490
东亚	-2491
以北	-2492
展览	-2493
曹操	-2494
有著	-2495
印刷	-2496
会被	-2497
平等	-2498
出来的	-2499
陷入	-2500
书籍	-2501
为首	-2502
总人口	-2503
德军	-2504
丹麦	-2505
月的	-2506
办事处	-2507
布尔	-2508
通用	-2509
的电	-2510
▁位于	-2511
原名	-2512
绿色	-2513
▁五	-2514
相当于	-2515
推进	-2516
质疑	-2517
放在	-2518
基金会	-2519
告诉	-2520
莫斯科	-2521
立场	-2522
的结果	-2523
在位	-2524
理由	-2525
则有	-2526
步兵	-2527
打算	-2528
穆斯林	-2529
形容	-2530
候选人	-2531
期的	-2532
唐朝	-2533
成熟	-2534
经济学	-2535
生长	-2536
依照	-2537
月至	-2538
经由	-2539
兼任	-2540
的名字	-2541
晚上	-2542
权的	-2543
古老	-2544
多人	-2545
所属	-2546
八年	-2547
地带	-2548
一级	-2549
的不	-2550
序列	-2551
情形	-2552
族群	-2553
选手	-2554
约有	-2555
认同	-2556
分成	-2557
在中	-2558
就有	-2559
满洲	-2560
更多的	-2561
现场	-2562
伊拉克	-2563
中国国民党	-2564
是从	-2565
西斯	-2566
杭州	-2567
普鲁士	-2568
▁此时	-2569
战士	-2570
传媒	-2571
国语	-2572
预计	-2573
以此	-2574
微软	-2575
显著	-2576
骑兵	-2577
也没有	-2578
捷运	-2579
游行	-2580
次于	-2581
游客	-2582
的总	-2583
小型	-2584
经理	-2585
兵力	-2586
第八	-2587
纷纷	-2588
人认为	-2589
留在	-2590
所在地	-2591
理工	-2592
给了	-2593
里亚	-2594
信徒	-2595
加州	-2596
下了	-2597
早期的	-2598
建国	-2599
民进党	-2600
航线	-2601
战场	-2602
回归	-2603
退休	-2604
发挥	-2605
行政院	-2606
策略	-2607
领地	-2608
颁奖	-2609
灭亡	-2610
的概念	-2611
城的	-2612
积分	-2613
奥林匹	-2614
是美国	-2615
之地	-2616
提及	-2617
辞职	-2618
最高的	-2619
王位	-2620
受伤	-2621
英军	-2622
分之一	-2623
科学院	-2624
器的	-2625
唯一的	-2626
由此	-2627
障碍	-2628
克的	-2629
形成了	-2630
是日本	-2631
代替	-2632
附属	-2633
百姓	-2634
一系列	-2635
会长	-2636
员工	-2637
色彩	-2638
样的	-2639
值得	-2640
称号	-2641
边境	-2642
占地	-2643
关闭	-2644
新疆	-2645
▁经过	-2646
职位	-2647
包括了	-2648
逐步	-2649
两年	-2650
▁并	-2651
提出了	-2652
丈夫	-2653
发展的	-2654
合约	-2655
人为	-2656
均为	-2657
(,)	-2658
刺激	-2659
照片	-2660
选为	-2661
管理局	-2662
布拉	-2663
产生了	-2664
巨大的	-2665
法庭	-2666
物理学	-2667
伊斯兰教	-2668
层的	-2669
公式	-2670
等级	-2671
销量	-2672
又名	-2673
对方	-2674
组建	-2675
实力	-2676
联军	-2677
的反	-2678
蛋白质	-2679
回应	-2680
挪威	-2681
泰国	-2682
▁英国	-2683
他是	-2684
企图	-2685
五个	-2686
批判	-2687
曾任	-2688
派出	-2689
言论	-2690
台湾的	-2691
无线电视	-2692
北美	-2693
单一	-2694
嘉义	-2695
同时也	-2696
市中心	-2697
群众	-2698
录音	-2699
▁苏	-2700
九年	-2701
攻占	-2702
极为	-2703
排列	-2704
立方	-2705
出售	-2706
联网	-2707
五十	-2708
▁随着	-2709
▁卡	-2710
县的	-2711
活跃	-2712
大革命	-2713
张专辑	-2714
就可以	-2715
很大的	-2716
使其	-2717
图像	-2718
都被	-2719
诺贝尔	-2720
模拟	-2721
▁长	-2722
敌人	-2723
详细	-2724
是一位	-2725
子女	-2726
资助	-2727
法语	-2728
前后	-2729
俗称	-2730
的意思	-2731
克莱	-2732
输出	-2733
▁四	-2734
介石	-2735
世纪的	-2736
组织的	-2737
隶属	-2738
斯顿	-2739
激烈	-2740
战争中	-2741
▁中华人民共和国	-2742
任期	-2743
感觉	-2744
粮食	-2745
占据	-2746
孙中山	-2747
打破	-2748
福州	-2749
三种	-2750
普查	-2751
杀害	-2752
运动会	-2753
▁杨	-2754
在该	-2755
十大	-2756
回忆	-2757
但由于	-2758
为大	-2759
我的	-2760
马尔	-2761
指定	-2762
主演	-2763
已被	-2764
艺人	-2765
发售	-2766
形的	-2767
推翻	-2768
年他	-2769
物的	-2770
运河	-2771
▁白	-2772
▁秦	-2773
南非	-2774
道教	-2775
撤退	-2776
融合	-2777
通信	-2778
世纪初	-2779
燃料	-2780
成立了	-2781
更新	-2782
清华	-2783
,,	-2784
则在	-2785
金山	-2786
充满	-2787
有着	-2788
出版社	-2789
特区	-2790
东南亚	-2791
国旗	-2792
蒋介石	-2793
算法	-2794
每天	-2795
两位	-2796
暴力	-2797
设计的	-2798
兴起	-2799
演化	-2800
军区	-2801
办法	-2802
影像	-2803
风景	-2804
同性恋	-2805
参选	-2806
老师	-2807
王子	-2808
缩写	-2809
举行的	-2810
家中	-2811
于此	-2812
厘米	-2813
相应	-2814
装饰	-2815
斯塔	-2816
航天	-2817
大奖	-2818
已知	-2819
个镇	-2820
发现的	-2821
第一位	-2822
大气	-2823
现在的	-2824
颁布	-2825
加工	-2826
对称	-2827
并不是	-2828
幕府	-2829
闽南	-2830
也因此	-2831
上了	-2832
原来	-2833
总司令	-2834
的学生	-2835
观念	-2836
格式	-2837
航空公司	-2838
多项	-2839
▁至于	-2840
运动的	-2841
它们的	-2842
天后	-2843
雅典	-2844
咖啡	-2845
▁不久	-2846
愿意	-2847
的电影	-2848
仍有	-2849
密切	-2850
布斯	-2851
对其	-2852
少女	-2853
开展	-2854
詹姆斯	-2855
和华	-2856
顺利	-2857
大师	-2858
援助	-2859
场所	-2860
形成的	-2861
收费	-2862
▁另一方面	-2863
奥运会	-2864
▁通常	-2865
主动	-2866
大赛	-2867
开通	-2868
仅有	-2869
约瑟	-2870
而来	-2871
构造	-2872
改进	-2873
最重要的	-2874
士尼	-2875
流域	-2876
客户	-2877
封为	-2878
少数民族	-2879
上市	-2880
面临	-2881
的位置	-2882
的同	-2883
吉尔	-2884
屠杀	-2885
岛上	-2886
特性	-2887
觉得	-2888
大批	-2889
任职	-2890
维多	-2891
明治	-2892
一部分	-2893
副主席	-2894
:),	-2895
庆祝	-2896
效率	-2897
但他	-2898
依赖	-2899
米兰	-2900
作业	-2901
地质	-2902
欧盟	-2903
审判	-2904
年与	-2905
族的	-2906
迁至	-2907
年号	-2908
香港的	-2909
遗传	-2910
阳县	-2911
食用	-2912
加盟	-2913
引进	-2914
退役	-2915
并与	-2916
大部份	-2917
桃园	-2918
文化的	-2919
矩阵	-2920
神圣	-2921
上海市	-2922
为基础	-2923
上下	-2924
不要	-2925
巡回	-2926
指令	-2927
自称	-2928
较大	-2929
地图	-2930
淘汰	-2931
用以	-2932
迪士尼	-2933
仅次于	-2934
成立于	-2935
印尼	-2936
学士	-2937
自我	-2938
弟弟	-2939
单独	-2940
工艺	-2941
公顷	-2942
始终	-2943
水量	-2944
观光	-2945
线性	-2946
不但	-2947
的部分	-2948
摇滚	-2949
改名	-2950
的内容	-2951
行业	-2952
主导	-2953
协定	-2954
就在	-2955
警方	-2956
日常	-2957
转向	-2958
人权	-2959
反而	-2960
未有	-2961
波音	-2962
人民币	-2963
洛杉	-2964
能源	-2965
舞蹈	-2966
锦标赛	-2967
▁吴	-2968
地形	-2969
干线	-2970
德语	-2971
的分	-2972
阅读	-2973
京都	-2974
奥林匹克	-2975
延续	-2976
成果	-2977
清楚	-2978
适应	-2979
出现的	-2980
提出的	-2981
勋章	-2982
渐渐	-2983
地处	-2984
水库	-2985
流动	-2986
先进	-2987
工程师	-2988
立法会	-2989
一百	-2990
做出	-2991
过的	-2992
▁随著	-2993
世纪末	-2994
是有	-2995
洛杉矶	-2996
分之	-2997
互联网	-2998
参加了	-2999
后来的	-3000
使用了	-3001
马拉	-3002
农村	-3003
数目	-3004
基本上	-3005
安德	-3006
当地的	-3007
费用	-3008
探测	-3009
加速	-3010
北洋	-3011
生存	-3012
绘画	-3013
主办	-3014
增强	-3015
特点	-3016
较低	-3017
旋转	-3018
普及	-3019
借由	-3020
机动	-3021
人才	-3022
案件	-3023
完工	-3024
首位	-3025
产量	-3026
消灭	-3027
突厥	-3028
聚集	-3029
··	-3030
十月	-3031
叛乱	-3032
都可以	-3033
福音	-3034
走向	-3035
造成的	-3036
暂时	-3037
餐厅	-3038
▁文	-3039
乐器	-3040
描写	-3041
任意	-3042
简化	-3043
之后的	-3044
缅甸	-3045
大选	-3046
主场	-3047
简单的	-3048
变换	-3049
琉球	-3050
似乎	-3051
接著	-3052
座的一个	-3053
回国	-3054
直径	-3055
边的	-3056
恩来	-3057
兵团	-3058
四世	-3059
闻名	-3060
匈奴	-3061
指数	-3062
在他	-3063
西里	-3064
▁亚	-3065
公安	-3066
细菌	-3067
教徒	-3068
剧情	-3069
超越	-3070
最多的	-3071
手术	-3072
沈阳	-3073
词汇	-3074
攻打	-3075
风暴	-3076
▁圣	-3077
▁截至	-3078
研发	-3079
维多利亚	-3080
主流	-3081
四十	-3082
平民	-3083
书写	-3084
伯爵	-3085
不得不	-3086
维也	-3087
西兰	-3088
违反	-3089
收藏	-3090
传输	-3091
气象	-3092
数十	-3093
大公	-3094
山县	-3095
读者	-3096
身上	-3097
死于	-3098
身分	-3099
在北京	-3100
游击	-3101
预算	-3102
启动	-3103
其为	-3104
排行	-3105
首个	-3106
▁伊	-3107
参见	-3108
开幕	-3109
深入	-3110
类似的	-3111
弗里	-3112
画家	-3113
台风	-3114
遭受	-3115
理念	-3116
拆除	-3117
划分	-3118
山的	-3119
干部	-3120
鸟类	-3121
来自于	-3122
政变	-3123
提议	-3124
接替	-3125
收集	-3126
担心	-3127
上映	-3128
持有	-3129
在内的	-3130
的城市	-3131
化石	-3132
原先	-3133
界的	-3134
即是	-3135
小平	-3136
洛克	-3137
比赛中	-3138
市政府	-3139
爱德华	-3140
创新	-3141
都不	-3142
国道	-3143
全长	-3144
黄河	-3145
升级	-3146
支付	-3147
的中国	-3148
准确	-3149
牠们	-3150
哥伦比亚	-3151
扩建	-3152
▁第	-3153
发生在	-3154
之意	-3155
传入	-3156
的第	-3157
审查	-3158
宣言	-3159
德尔	-3160
较少	-3161
天气	-3162
混乱	-3163
的女	-3164
途中	-3165
具备	-3166
史称	-3167
永久	-3168
毕业后	-3169
江苏省	-3170
意外	-3171
斯大	-3172
最近	-3173
交给	-3174
集体	-3175
万美元	-3176
维也纳	-3177
一场	-3178
像是	-3179
卡拉	-3180
慕容	-3181
院校	-3182
总裁	-3183
克林	-3184
委任	-3185
男女	-3186
预测	-3187
新竹	-3188
日正式	-3189
演讲	-3190
邮政	-3191
颁发	-3192
一人	-3193
多为	-3194
技巧	-3195
追溯	-3196
▁我	-3197
月底	-3198
▁但在	-3199
年中	-3200
抗战	-3201
根廷	-3202
沿用	-3203
▁在此	-3204
的儿子	-3205
顺序	-3206
飞弹	-3207
紧急	-3208
译为	-3209
统治者	-3210
的音乐	-3211
有了	-3212
战斗机	-3213
有两	-3214
教区	-3215
专利	-3216
米亚	-3217
高原	-3218
克拉	-3219
推荐	-3220
为台湾	-3221
等的	-3222
监察	-3223
江户	-3224
病逝	-3225
确保	-3226
基督徒	-3227
大卫	-3228
还在	-3229
其他的	-3230
相连	-3231
马斯	-3232
乌克兰	-3233
划归	-3234
便是	-3235
低于	-3236
处的	-3237
也可	-3238
北平	-3239
▁多	-3240
做法	-3241
压缩	-3242
任内	-3243
王室	-3244
诞生	-3245
局长	-3246
开办	-3247
跟随	-3248
追求	-3249
▁通过	-3250
的生活	-3251
(;	-3252
许可	-3253
进行的	-3254
他为	-3255
县级	-3256
龙江	-3257
▁现代	-3258
之上	-3259
「」,	-3260
十七	-3261
来看	-3262
一部	-3263
致力	-3264
诗歌	-3265
车队	-3266
埃尔	-3267
▁哈	-3268
▁朱	-3269
德拉	-3270
国家级	-3271
目的是	-3272
无限	-3273
个乡	-3274
入选	-3275
学名	-3276
海上	-3277
阿里	-3278
性和	-3279
斯克	-3280
天文台	-3281
高于	-3282
打败	-3283
事变	-3284
可分为	-3285
选出	-3286
一职	-3287
以东	-3288
沿岸	-3289
系的	-3290
达尔	-3291
《》,	-3292
协调	-3293
此外	-3294
天堂	-3295
月球	-3296
纳入	-3297
研究院	-3298
、《	-3299
航班	-3300
萨尔	-3301
毕业于	-3302
里面	-3303
政治局	-3304
较高	-3305
强的	-3306
某种	-3307
任命为	-3308
天的	-3309
汉族	-3310
省的	-3311
仅仅	-3312
内有	-3313
增加了	-3314
的行为	-3315
市政	-3316
服役	-3317
沙田	-3318
加入了	-3319
夺取	-3320
撰写	-3321
他与	-3322
客家	-3323
精确	-3324
代数	-3325
体积	-3326
岛的	-3327
▁水	-3328
之称	-3329
大家	-3330
是为了	-3331
社会的	-3332
宣告	-3333
是对	-3334
确立	-3335
联络	-3336
摧毁	-3337
苏州	-3338
丘陵	-3339
▁除此	-3340
商店	-3341
通往	-3342
全体	-3343
辅助	-3344
实践	-3345
时报	-3346
蒋中正	-3347
人所	-3348
元帅	-3349
品种	-3350
英国的	-3351
其中包括	-3352
是最	-3353
纤维	-3354
及其他	-3355
祖先	-3356
重的	-3357
基隆	-3358
继位	-3359
极端	-3360
短暂	-3361
的说法	-3362
大夫	-3363
钢琴	-3364
连任	-3365
安东	-3366
强度	-3367
阿尔巴	-3368
领导的	-3369
城堡	-3370
邓小平	-3371
后世	-3372
祖父	-3373
重量	-3374
广义	-3375
蓝色	-3376
智慧	-3377
争论	-3378
▁最终	-3379
政务	-3380
数码	-3381
有机	-3382
下一	-3383
替代	-3384
▁第三	-3385
图案	-3386
大大	-3387
▁在这	-3388
成立后	-3389
出土	-3390
示威	-3391
▁奥	-3392
。)	-3393
成人	-3394
华北	-3395
重复	-3396
从未	-3397
剧本	-3398
出版的	-3399
人称	-3400
即为	-3401
」;	-3402
二战	-3403
判断	-3404
反抗	-3405
军人	-3406
彼此	-3407
福利	-3408
高校	-3409
周恩来	-3410
的社会	-3411
边缘	-3412
创始	-3413
定了	-3414
现有	-3415
有可能	-3416
当作	-3417
整合	-3418
发言	-3419
寻求	-3420
延长	-3421
现存	-3422
数位	-3423
▁而且	-3424
行政长官	-3425
崇拜	-3426
幻想	-3427
的对	-3428
的战	-3429
喜爱	-3430
竞选	-3431
国家队	-3432
已于	-3433
想法	-3434
永远	-3435
周刊	-3436
情绪	-3437
改建	-3438
克尔	-3439
为中心	-3440
拼音	-3441
电车	-3442
起源	-3443
登记	-3444
的正	-3445
监狱	-3446
理查	-3447
影响力	-3448
县城	-3449
是位于	-3450
想要	-3451
群体	-3452
强大的	-3453
数值	-3454
人口普查	-3455
之名	-3456
不变	-3457
心脏	-3458
早年	-3459
明星	-3460
问题的	-3461
世界各地	-3462
补充	-3463
警告	-3464
这项	-3465
魔法	-3466
产物	-3467
山地	-3468
盆地	-3469
中华民国政府	-3470
设于	-3471
队长	-3472
天文学家	-3473
若干	-3474
过于	-3475
它是	-3476
的神	-3477
认为是	-3478
以便	-3479
军在	-3480
▁关于	-3481
巴尔	-3482
南海	-3483
手中	-3484
无人	-3485
非法	-3486
发生了	-3487
在内	-3488
比利时	-3489
阿根廷	-3490
抗日战争	-3491
文物保护	-3492
文的	-3493
电路	-3494
直辖	-3495
每日	-3496
严重的	-3497
储存	-3498
和的	-3499
认可	-3500
首府	-3501
之时	-3502
也曾	-3503
了他	-3504
看法	-3505
在一个	-3506
享有	-3507
管制	-3508
之内	-3509
分解	-3510
专区	-3511
交界	-3512
医学院	-3513
阿尔巴尼亚	-3514
以至	-3515
尼克	-3516
两大	-3517
事故	-3518
充分	-3519
喜剧	-3520
在西	-3521
耶和华	-3522
布莱	-3523
成功的	-3524
北海	-3525
是台湾	-3526
之际	-3527
公署	-3528
定期	-3529
祭祀	-3530
▁石	-3531
事后	-3532
所需	-3533
引用	-3534
了他的	-3535
美丽	-3536
饮食	-3537
数学家	-3538
二次	-3539
总值	-3540
帝国的	-3541
遇到	-3542
存在的	-3543
的作用	-3544
日语	-3545
艺术家	-3546
或称	-3547
中海	-3548
并由	-3549
本来	-3550
爱情	-3551
题材	-3552
呼吸	-3553
年平均	-3554
所谓的	-3555
评估	-3556
依靠	-3557
修复	-3558
即将	-3559
选区	-3560
一生	-3561
为此	-3562
本科	-3563
车厢	-3564
迫使	-3565
燃烧	-3566
克罗	-3567
判决	-3568
结论	-3569
冲击	-3570
出于	-3571
接任	-3572
▁现时	-3573
三人	-3574
第九	-3575
黄色	-3576
携带	-3577
望远	-3578
信任	-3579
多样	-3580
市镇	-3581
战败	-3582
物品	-3583
党员	-3584
整理	-3585
城墙	-3586
争夺	-3587
加拉	-3588
以西	-3589
电磁	-3590
起初	-3591
可以用	-3592
加利	-3593
和大	-3594
团结	-3595
单元	-3596
夫妇	-3597
如同	-3598
▁永	-3599
更换	-3600
死刑	-3601
证券	-3602
交响	-3603
雷达	-3604
射击	-3605
靠近	-3606
侵略	-3607
▁将	-3608
潜艇	-3609
船只	-3610
行驶	-3611
场地	-3612
台湾省	-3613
的所有	-3614
率军	-3615
翌年	-3616
为由	-3617
沟通	-3618
公斤	-3619
的定义	-3620
人体	-3621
制成	-3622
上面	-3623
指责	-3624
成年	-3625
勒斯	-3626
合唱	-3627
议题	-3628
利的	-3629
印象	-3630
港岛	-3631
的光	-3632
公会	-3633
通知	-3634
雍正	-3635
季后	-3636
苏丹	-3637
收视	-3638
决策	-3639
甘肃	-3640
三次	-3641
悠久	-3642
斯大林	-3643
的角色	-3644
范围内	-3645
▁相	-3646
特兰	-3647
枢纽	-3648
繁荣	-3649
做为	-3650
届全国	-3651
登上	-3652
的代表	-3653
古迹	-3654
全市	-3655
爱国	-3656
精灵	-3657
望远镜	-3658
修订	-3659
宁波	-3660
效力	-3661
出兵	-3662
两侧	-3663
日期	-3664
景点	-3665
理学	-3666
中国人民解放军	-3667
网页	-3668
有线	-3669
总督府	-3670
秘书长	-3671
曲线	-3672
的第二	-3673
后被	-3674
的长	-3675
("")	-3676
本质	-3677
一支	-3678
吉林	-3679
香港政府	-3680
教科	-3681
沙漠	-3682
▁国际	-3683
的名称	-3684
过渡	-3685
同志	-3686
均有	-3687
导弹	-3688
条目	-3689
肯定	-3690
首领	-3691
开始在	-3692
文物保护单位	-3693
剧院	-3694
厦门	-3695
孔子	-3696
曾于	-3697
全书	-3698
国共	-3699
的人口	-3700
的基本	-3701
▁史	-3702
▁武	-3703
进而	-3704
传递	-3705
放射	-3706
最有	-3707
座的一个星系	-3708
▁法国	-3709
奥斯曼	-3710
较大的	-3711
升为	-3712
化为	-3713
晶体	-3714
万吨	-3715
分区	-3716
姓氏	-3717
赞助	-3718
通行	-3719
▁总	-3720
伤亡	-3721
刺史	-3722
品质	-3723
▁学校	-3724
了一些	-3725
场合	-3726
配音	-3727
语音	-3728
通常是	-3729
黑龙江	-3730
明的	-3731
下游	-3732
汉人	-3733
誉为	-3734
识别	-3735
数百	-3736
整数	-3737
隶属于	-3738
共产主义	-3739
列宁	-3740
多元	-3741
种子	-3742
景观	-3743
极大	-3744
改良	-3745
撒冷	-3746
票房	-3747
辽宁	-3748
特里	-3749
商务	-3750
始于	-3751
时常	-3752
住在	-3753
写道	-3754
提倡	-3755
撞击	-3756
耶路	-3757
当代	-3758
遭遇	-3759
之乱	-3760
共计	-3761
会议员	-3762
常务	-3763
年才	-3764
协商	-3765
名人	-3766
上午	-3767
八月	-3768
歌词	-3769
浏览	-3770
耶路撒冷	-3771
七月	-3772
即可	-3773
手机	-3774
(""	-3775
服装	-3776
社团	-3777
私立	-3778
但因	-3779
剧场	-3780
真正的	-3781
地上	-3782
大于	-3783
有很多	-3784
某个	-3785
转变	-3786
建立的	-3787
法令	-3788
竞赛	-3789
经费	-3790
元首	-3791
字符	-3792
末期	-3793
第一次世界大战	-3794
凤凰	-3795
坐标	-3796
号为	-3797
路段	-3798
引力	-3799
校友	-3800
采访	-3801
的能力	-3802
继任	-3803
总会	-3804
的开	-3805
开始了	-3806
另有	-3807
太宗	-3808
免疫	-3809
在当时	-3810
乌斯	-3811
内蒙古	-3812
传教士	-3813
在新	-3814
送到	-3815
防守	-3816
石器	-3817
股东	-3818
为主的	-3819
哲学家	-3820
但却	-3821
维埃	-3822
义务	-3823
金曲	-3824
典型的	-3825
博士学位	-3826
的上	-3827
▁胡	-3828
并被	-3829
古希腊	-3830
在上海	-3831
千人	-3832
大帝	-3833
▁使用	-3834
权威	-3835
▁乾隆	-3836
伤害	-3837
率为	-3838
路军	-3839
还要	-3840
独特的	-3841
革命军	-3842
人与	-3843
又有	-3844
园区	-3845
步枪	-3846
视觉	-3847
语中	-3848
室内	-3849
人文	-3850
强制	-3851
一项	-3852
本书	-3853
▁郑	-3854
曼联	-3855
▁孙	-3856
劳工	-3857
感情	-3858
描绘	-3859
公社	-3860
弟子	-3861
秩序	-3862
院士	-3863
终止	-3864
的成员	-3865
发表了	-3866
▁就	-3867
各类	-3868
贵州	-3869
此同时	-3870
萨斯	-3871
的不同	-3872
道光	-3873
出自	-3874
头衔	-3875
火星	-3876
指的是	-3877
差别	-3878
历代	-3879
合理	-3880
让他	-3881
省级	-3882
看见	-3883
世界的	-3884
美国总统	-3885
北伐	-3886
新建	-3887
完整的	-3888
及后	-3889
太祖	-3890
个国家	-3891
中将	-3892
衍生	-3893
迁移	-3894
董事长	-3895
以往	-3896
手法	-3897
难民	-3898
主管	-3899
志愿	-3900
途径	-3901
会议上	-3902
定义为	-3903
常用	-3904
日益	-3905
来往	-3906
格尔	-3907
法兰克	-3908
支流	-3909
面向	-3910
场比赛	-3911
河南省	-3912
尼尔	-3913
普通话	-3914
这两个	-3915
特别行政区	-3916
史记	-3917
有三	-3918
▁还有	-3919
日治时期	-3920
城县	-3921
温泉	-3922
膨胀	-3923
取得了	-3924
维基百科	-3925
迁往	-3926
无线电	-3927
传奇	-3928
昭和	-3929
球迷	-3930
他们在	-3931
居住在	-3932
电流	-3933
被捕	-3934
乐坛	-3935
则以	-3936
占有	-3937
市内	-3938
个体	-3939
建筑师	-3940
南越	-3941
版的	-3942
▁我们	-3943
大西洋	-3944
垂直	-3945
慈善	-3946
慕尼	-3947
羽毛	-3948
进口	-3949
心理学	-3950
是中华人民共和国	-3951
图形	-3952
棒球	-3953
电池	-3954
很难	-3955
情节	-3956
确实	-3957
格拉	-3958
东海	-3959
月起	-3960
历史学家	-3961
狮子	-3962
五月	-3963
哈利	-3964
分布于	-3965
仍在	-3966
地产	-3967
季风	-3968
的公	-3969
共和党	-3970
在这里	-3971
的传统	-3972
部电影	-3973
诸葛	-3974
不多	-3975
检察	-3976
完善	-3977
带来的	-3978
类型的	-3979
农历	-3980
考察	-3981
银河	-3982
发生的	-3983
方程式	-3984
不知	-3985
前身	-3986
加哥	-3987
弗朗	-3988
的语言	-3989
分布在	-3990
并且在	-3991
突出	-3992
的理论	-3993
行政区划	-3994
▁无	-3995
不受	-3996
战术	-3997
繁殖	-3998
圆形	-3999
往来	-4000
指控	-4001
线上	-4002
体现	-4003
校舍	-4004
维斯	-4005
飞行员	-4006
摩尔	-4007
民党	-4008
回答	-4009
语法	-4010
起了	-4011
黑暗	-4012
芝加哥	-4013
正面	-4014
频繁	-4015
事情	-4016
特定的	-4017
画面	-4018
尼西亚	-4019
站的	-4020
参议院	-4021
▁被	-4022
否则	-4023
移居	-4024
主要有	-4025
大力	-4026
朝的	-4027
论坛	-4028
▁艾	-4029
官职	-4030
定位	-4031
性格	-4032
正是	-4033
清代	-4034
十二年	-4035
资本主义	-4036
一点	-4037
他对	-4038
同时也是	-4039
助理	-4040
安县	-4041
美的	-4042
纺织	-4043
族自治	-4044
他被	-4045
大军	-4046
两名	-4047
军委	-4048
承诺	-4049
享年	-4050
环绕	-4051
转为	-4052
彰化	-4053
行走	-4054
读书	-4055
文化大革命	-4056
受到了	-4057
生素	-4058
罗德	-4059
哈尔滨	-4060
水扁	-4061
战车	-4062
良好	-4063
完成了	-4064
没有任何	-4065
五世	-4066
射线	-4067
添加	-4068
吉尼亚	-4069
奥尔	-4070
宿舍	-4071
讨伐	-4072
金刚	-4073
湖南省	-4074
一书	-4075
书法	-4076
篮球	-4077
营业	-4078
▁赵	-4079
晚期	-4080
限于	-4081
卫队	-4082
屯门	-4083
月份	-4084
的机会	-4085
鸦片	-4086
▁所有	-4087
历任	-4088
同学	-4089
新教	-4090
牺牲	-4091
原来的	-4092
其中一个	-4093
写成	-4094
容量	-4095
希尔	-4096
水的	-4097
可以通过	-4098
前进	-4099
股权	-4100
灭绝	-4101
包含了	-4102
她们	-4103
趋势	-4104
驱动	-4105
佛罗	-4106
当天	-4107
族人	-4108
再加上	-4109
容纳	-4110
级的	-4111
的中心	-4112
▁布	-4113
以其	-4114
你们	-4115
其顿	-4116
的西	-4117
桥梁	-4118
毫无	-4119
选举中	-4120
事物	-4121
皮肤	-4122
预言	-4123
学系	-4124
爱好	-4125
网球	-4126
设在	-4127
配置	-4128
年代初	-4129
加尔	-4130
▁这样	-4131
蒙特	-4132
遗迹	-4133
上游	-4134
强大	-4135
立刻	-4136
▁建	-4137
应当	-4138
金牌	-4139
牛顿	-4140
菩萨	-4141
塞尔维亚	-4142
流亡	-4143
为香港	-4144
地中海	-4145
天使	-4146
年获	-4147
间接	-4148
▁除此之外	-4149
▁华	-4150
呼吁	-4151
尊重	-4152
物资	-4153
下列	-4154
中所	-4155
认知	-4156
好友	-4157
稳定的	-4158
发掘	-4159
的过程	-4160
血液	-4161
▁也有	-4162
的计划	-4163
保安	-4164
官话	-4165
赛车	-4166
最高法院	-4167
二月	-4168
不如	-4169
专用	-4170
制品	-4171
早上	-4172
地势	-4173
多名	-4174
网上	-4175
在他的	-4176
办理	-4177
所辖	-4178
山东省	-4179
主体	-4180
厂商	-4181
承担	-4182
干涉	-4183
年以	-4184
大阪	-4185
委托	-4186
诊断	-4187
凌晨	-4188
获胜	-4189
讲述	-4190
▁最初	-4191
的世界	-4192
地域	-4193
接管	-4194
签约	-4195
六个	-4196
市辖区	-4197
变量	-4198
委员会委员	-4199
该校	-4200
予以	-4201
利斯	-4202
)、《	-4203
▁也	-4204
原有	-4205
就被	-4206
离婚	-4207
丰富的	-4208
乡村	-4209
纳尔	-4210
▁平	-4211
▁法	-4212
公约	-4213
尔夫	-4214
武力	-4215
莎白	-4216
一直到	-4217
季后赛	-4218
咨询	-4219
四月	-4220
米的	-4221
下来的	-4222
苏维埃	-4223
编组	-4224
货物	-4225
马里	-4226
数为	-4227
制作的	-4228
起源于	-4229
朝鲜半岛	-4230
腓特	-4231
阳市	-4232
首席	-4233
元音	-4234
歧视	-4235
营养	-4236
时间的	-4237
年末	-4238
发行的	-4239
局面	-4240
总是	-4241
这段	-4242
女神	-4243
探索	-4244
零售	-4245
伟大的	-4246
格斯	-4247
王的	-4248
诸多	-4249
雨量	-4250
境内的	-4251
复杂的	-4252
学说	-4253
都没有	-4254
术语	-4255
二氧化	-4256
!」	-4257
东区	-4258
围绕	-4259
叙利亚	-4260
曾被	-4261
范畴	-4262
的父亲	-4263
两条	-4264
作物	-4265
野生	-4266
促使	-4267
电荷	-4268
荃湾	-4269
的使用	-4270
腓特烈	-4271
▁外	-4272
连结	-4273
""。	-4274
不可能	-4275
克里斯	-4276
法兰西	-4277
关东	-4278
战中	-4279
讯号	-4280
器官	-4281
瓦尔	-4282
袁世	-4283
的标准	-4284
格鲁	-4285
王星	-4286
▁下辖	-4287
中子	-4288
前来	-4289
南下	-4290
古巴	-4291
可达	-4292
特拉	-4293
诉讼	-4294
相邻	-4295
浙江省	-4296
绝大多数	-4297
人均	-4298
家康	-4299
工会	-4300
牧师	-4301
儒家	-4302
在英国	-4303
的活动	-4304
参观	-4305
的一次	-4306
约瑟夫	-4307
这类	-4308
但不	-4309
巴勒	-4310
领先	-4311
袁世凯	-4312
位素	-4313
南宋	-4314
月中	-4315
联赛冠军	-4316
对他	-4317
弗雷	-4318
的美国	-4319
的技术	-4320
北京大学	-4321
生产总值	-4322
▁中华民国	-4323
一天	-4324
卡斯	-4325
改制	-4326
则由	-4327
生育	-4328
搜索	-4329
▁事实上	-4330
台币	-4331
百年	-4332
轰炸机	-4333
联合会	-4334
明显的	-4335
的大型	-4336
流量	-4337
编写	-4338
的国	-4339
语和	-4340
连载	-4341
士顿	-4342
方针	-4343
游泳	-4344
灵魂	-4345
盟军	-4346
中环	-4347
列出	-4348
委书记	-4349
的人物	-4350
研究生	-4351
继承人	-4352
年世界杯	-4353
接壤	-4354
火车	-4355
的内	-4356
获取	-4357
的功能	-4358
物理学家	-4359
▁德	-4360
夫斯基	-4361
解除	-4362
参谋长	-4363
筹备	-4364
认证	-4365
的最高	-4366
三月	-4367
财富	-4368
日本人	-4369
任教	-4370
场景	-4371
御史	-4372
战舰	-4373
数个	-4374
和他的	-4375
封锁	-4376
的存在	-4377
集中在	-4378
东汉	-4379
终点	-4380
陈水扁	-4381
副总统	-4382
亦可	-4383
在欧洲	-4384
战争的	-4385
生物学	-4386
亦为	-4387
的四	-4388
紧张	-4389
▁开	-4390
师团	-4391
重返	-4392
的主题	-4393
就已经	-4394
此事	-4395
湾仔	-4396
跑道	-4397
政府在	-4398
海域	-4399
者为	-4400
股票	-4401
格里	-4402
慕尼黑	-4403
罗伯特	-4404
一时	-4405
丁堡	-4406
和新	-4407
地名	-4408
增设	-4409
马其顿	-4410
入球	-4411
条款	-4412
毁灭	-4413
能在	-4414
裁判	-4415
又在	-4416
宫廷	-4417
自此	-4418
进军	-4419
升格	-4420
召集	-4421
学堂	-4422
岩石	-4423
故此	-4424
▁它们	-4425
语言的	-4426
还包括	-4427
"。	-4428
▁嘉	-4429
唐代	-4430
局的	-4431
欧元	-4432
彗星	-4433
阵亡	-4434
四川省	-4435
每一个	-4436
保加	-4437
封建	-4438
秀吉	-4439
较多	-4440
个街道	-4441
剩余	-4442
智能	-4443
近似	-4444
但仍	-4445
冒险	-4446
福建省	-4447
停车	-4448
共识	-4449
▁斯	-4450
检测	-4451
演艺	-4452
染色	-4453
自主	-4454
首度	-4455
北市	-4456
原为	-4457
各项	-4458
随之	-4459
支持者	-4460
生产的	-4461
都要	-4462
高峰	-4463
维修	-4464
▁这次	-4465
导致了	-4466
不利	-4467
半径	-4468
迫害	-4469
上将	-4470
异常	-4471
时段	-4472
真的	-4473
脂肪	-4474
随机	-4475
动员	-4476
平定	-4477
部部长	-4478
观塘	-4479
财务	-4480
都督	-4481
一半	-4482
英镑	-4483
那个	-4484
收到	-4485
独裁	-4486
的圣	-4487
职员	-4488
近年	-4489
清廷	-4490
丧失	-4491
配备	-4492
▁德国	-4493
▁更	-4494
年春	-4495
的热	-4496
现代化	-4497
打开	-4498
法定	-4499
领事	-4500
的国际	-4501
救援	-4502
便利	-4503
展现	-4504
每次	-4505
济南	-4506
▁清朝	-4507
作曲家	-4508
有两个	-4509
、、、、	-4510
中东	-4511
神学	-4512
高层	-4513
青少年	-4514
尔顿	-4515
葬于	-4516
奥斯卡	-4517
年成立	-4518
股份有限公司	-4519
出道	-4520
参数	-4521
海南	-4522
行人	-4523
部署	-4524
研究中心	-4525
一千	-4526
农场	-4527
那样	-4528
使他	-4529
反射	-4530
年任	-4531
赋予	-4532
队员	-4533
可能性	-4534
含量	-4535
也开始	-4536
相对论	-4537
全线	-4538
推测	-4539
动机	-4540
哺乳	-4541
购物	-4542
六月	-4543
巩固	-4544
溶液	-4545
河北省	-4546
否认	-4547
填海	-4548
科研	-4549
秦国	-4550
适用于	-4551
▁山	-4552
城门	-4553
保加利亚	-4554
一代	-4555
亚军	-4556
强化	-4557
神秘	-4558
▁比如	-4559
致力于	-4560
实质	-4561
富汗	-4562
建有	-4563
强迫	-4564
社群	-4565
落后	-4566
面上	-4567
▁结果	-4568
程度上	-4569
人是	-4570
因其	-4571
炸弹	-4572
个别	-4573
习俗	-4574
认定	-4575
王朝的	-4576
优先	-4577
北宋	-4578
季节	-4579
政协	-4580
名誉	-4581
被杀	-4582
镜头	-4583
即时	-4584
在前	-4585
并有	-4586
战胜	-4587
城市的	-4588
):	-4589
多少	-4590
级别	-4591
金门	-4592
为新	-4593
标记	-4594
见的	-4595
不明	-4596
分开	-4597
山市	-4598
点是	-4599
罗斯福	-4600
保卫	-4601
光谱	-4602
叙述	-4603
国有	-4604
流通	-4605
织田	-4606
路德	-4607
阶层	-4608
基斯坦	-4609
清军	-4610
直隶	-4611
也成为	-4612
文革	-4613
将在	-4614
现任	-4615
科幻	-4616
可以被	-4617
因此在	-4618
模仿	-4619
紧密	-4620
的权力	-4621
浓度	-4622
皇室	-4623
造型	-4624
太极	-4625
建制	-4626
格勒	-4627
足以	-4628
区和	-4629
大败	-4630
开启	-4631
极限	-4632
立法院	-4633
高丽	-4634
典型	-4635
布朗	-4636
雷斯	-4637
▁拉	-4638
辞去	-4639
人对	-4640
福特	-4641
张学	-4642
控股	-4643
电气	-4644
日下午	-4645
伙伴	-4646
工商	-4647
执导	-4648
这场	-4649
各大	-4650
思考	-4651
电信	-4652
见到	-4653
的天	-4654
诸如	-4655
足协	-4656
辩论	-4657
重力	-4658
女主角	-4659
作的	-4660
拜占	-4661
下属	-4662
楚国	-4663
磁场	-4664
三位	-4665
仪器	-4666
封闭	-4667
相机	-4668
眼睛	-4669
与中国	-4670
但其	-4671
形势	-4672
战的	-4673
国民革命军	-4674
分校	-4675
培训	-4676
防卫	-4677
一开始	-4678
失去了	-4679
政治家	-4680
不论	-4681
恶化	-4682
的美	-4683
九月	-4684
所得	-4685
维克	-4686
第三次	-4687
和约	-4688
就任	-4689
相近	-4690
螺旋	-4691
会计	-4692
动态	-4693
有利	-4694
治理	-4695
",	-4696
她在	-4697
外围	-4698
日开始	-4699
平行	-4700
期望	-4701
深刻	-4702
讯息	-4703
之前的	-4704
武士	-4705
原因是	-4706
万历	-4707
桂林	-4708
杰出	-4709
」(),	-4710
为他	-4711
夏天	-4712
正月	-4713
铜锣	-4714
青铜	-4715
工作的	-4716
版本的	-4717
这也是	-4718
动词	-4719
附加	-4720
人都	-4721
干扰	-4722
道夫	-4723
古老的	-4724
乃至	-4725
互动	-4726
侵犯	-4727
又被	-4728
涵盖	-4729
无关	-4730
湖泊	-4731
讽刺	-4732
于香港	-4733
入了	-4734
命运	-4735
首任	-4736
▁八	-4737
几年	-4738
学派	-4739
给他	-4740
的军事	-4741
的速度	-4742
透露	-4743
常数	-4744
剧集	-4745
大同	-4746
攻势	-4747
行使	-4748
十年代	-4749
第二个	-4750
差距	-4751
▁日	-4752
做了	-4753
区间	-4754
巡洋	-4755
第一届	-4756
客机	-4757
暴动	-4758
发育	-4759
气旋	-4760
看作	-4761
东北部	-4762
一份	-4763
宫殿	-4764
家乡	-4765
编制	-4766
过度	-4767
下半	-4768
外界	-4769
远东	-4770
位元	-4771
年为	-4772
环保	-4773
重组	-4774
▁他是	-4775
博览	-4776
说的	-4777
人类的	-4778
在南	-4779
港澳	-4780
提琴	-4781
见于	-4782
过世	-4783
土壤	-4784
垄断	-4785
独特	-4786
病人	-4787
▁各	-4788
「」。	-4789
常被	-4790
恐龙	-4791
液体	-4792
饭店	-4793
▁内	-4794
微分	-4795
小行星	-4796
专科	-4797
对立	-4798
心的	-4799
的土地	-4800
罕默	-4801
采用了	-4802
?」	-4803
偶像	-4804
大街	-4805
进士	-4806
▁游戏	-4807
型号	-4808
州府	-4809
留学	-4810
节日	-4811
一定的	-4812
司令部	-4813
集团军	-4814
文帝	-4815
时空	-4816
复合	-4817
居于	-4818
缓慢	-4819
伐利亚	-4820
的特征	-4821
▁波	-4822
卫视	-4823
巡抚	-4824
又称为	-4825
知名的	-4826
国外	-4827
广泛的	-4828
人民代表大会	-4829
一旦	-4830
等待	-4831
细节	-4832
交易所	-4833
冲绳	-4834
终身	-4835
该国	-4836
意思是	-4837
不及	-4838
明代	-4839
法军	-4840
置于	-4841
观音	-4842
适当	-4843
型态	-4844
理性	-4845
的建筑	-4846
类似于	-4847
投手	-4848
水利	-4849
可靠	-4850
岭南	-4851
文中	-4852
施行	-4853
虚拟	-4854
规格	-4855
而得名	-4856
吉他	-4857
抑制	-4858
更改	-4859
纳德	-4860
陆地	-4861
▁很多	-4862
人口的	-4863
推出了	-4864
路易斯	-4865
地址	-4866
妹妹	-4867
省份	-4868
策划	-4869
黑人	-4870
的同时	-4871
可在	-4872
和美国	-4873
局势	-4874
的金	-4875
去世后	-4876
或其他	-4877
婴儿	-4878
西元	-4879
众议院	-4880
的前身	-4881
▁大多数	-4882
存储	-4883
改组	-4884
遵守	-4885
交汇	-4886
预备	-4887
被发现	-4888
也能	-4889
照顾	-4890
职棒	-4891
节度	-4892
指挥官	-4893
提供的	-4894
的女儿	-4895
弗拉	-4896
此一	-4897
诺斯	-4898
年以来	-4899
形式的	-4900
▁普	-4901
战事	-4902
经国	-4903
篇小说	-4904
▁麦	-4905
洛斯	-4906
累积	-4907
光学	-4908
规律	-4909
动物的	-4910
州刺史	-4911
拿下	-4912
每一	-4913
的信	-4914
常用的	-4915
的政策	-4916
良好的	-4917
休息	-4918
月在	-4919
▁次年	-4920
史料	-4921
议席	-4922
语系	-4923
的要求	-4924
穆罕默	-4925
改用	-4926
歌唱	-4927
公务	-4928
新城	-4929
首批	-4930
▁隋	-4931
不在	-4932
太原	-4933
草原	-4934
后方	-4935
百货	-4936
与美国	-4937
阿富汗	-4938
九州	-4939
克利	-4940
和西	-4941
战时	-4942
而已	-4943
改装	-4944
衰变	-4945
友好	-4946
德国的	-4947
电视节目	-4948
▁主	-4949
分散	-4950
向东	-4951
常委	-4952
都城	-4953
系统中	-4954
▁与此同时	-4955
二级	-4956
星际	-4957
的南	-4958
给出	-4959
原料	-4960
舆论	-4961
多年的	-4962
干预	-4963
直播	-4964
隔离	-4965
雕塑	-4966
不愿	-4967
乐园	-4968
其子	-4969
工党	-4970
意图	-4971
提交	-4972
补给	-4973
...	-4974
全年	-4975
原有的	-4976
曾有	-4977
消耗	-4978
但是在	-4979
▁约	-4980
了对	-4981
命题	-4982
导体	-4983
温带	-4984
长春	-4985
总书记	-4986
开创	-4987
凭借	-4988
集的	-4989
平安	-4990
母舰	-4991
海关	-4992
医师	-4993
在上	-4994
尸体	-4995
教导	-4996
皆为	-4997
巡洋舰	-4998
仍是	-4999
最具	-5000
注重	-5001
身亡	-5002
不同于	-5003
体育馆	-5004
人之	-5005
谴责	-5006
名叫	-5007
左翼	-5008
期刊	-5009
此地	-5010
托马斯	-5011
相对于	-5012
铜锣湾	-5013
罗马尼亚	-5014
临床	-5015
左派	-5016
存在于	-5017
活动的	-5018
巴勒斯坦	-5019
▁加	-5020
例外	-5021
公交	-5022
初步	-5023
还原	-5024
连同	-5025
旧金山	-5026
湖北省	-5027
公理	-5028
直属	-5029
文化遗产	-5030
▁夏	-5031
文本	-5032
的机	-5033
类别	-5034
公分	-5035
特殊的	-5036
之路	-5037
信长	-5038
军舰	-5039
就能	-5040
▁世界	-5041
安东尼	-5042
服务器	-5043
》:	-5044
几种	-5045
密码	-5046
扩充	-5047
时刻	-5048
火车站	-5049
句丽	-5050
用在	-5051
穿过	-5052
观看	-5053
天文学	-5054
开辟	-5055
真理	-5056
为主要	-5057
得分	-5058
收复	-5059
盛行	-5060
""(	-5061
法国的	-5062
以致	-5063
▁梁	-5064
」)	-5065
入境	-5066
小于	-5067
总共	-5068
当选为	-5069
意味着	-5070
修道	-5071
将他	-5072
立为	-5073
赫尔	-5074
这两	-5075
引起了	-5076
立方米	-5077
》《	-5078
听到	-5079
士坦	-5080
巴比	-5081
总长	-5082
使者	-5083
本站	-5084
格拉斯	-5085
前线	-5086
宜兰	-5087
常住	-5088
▁经	-5089
内政	-5090
实体	-5091
血管	-5092
有一些	-5093
第一部	-5094
成为一个	-5095
财经	-5096
上是	-5097
抽象	-5098
昆虫	-5099
莱茵	-5100
以下的	-5101
传佛教	-5102
业余	-5103
生殖	-5104
神的	-5105
区议会	-5106
物浦	-5107
特尔	-5108
年代的	-5109
委员会主席	-5110
:《	-5111
▁龙	-5112
其中的	-5113
公平	-5114
年香港	-5115
生活在	-5116
托勒	-5117
说服	-5118
他也	-5119
对话	-5120
航海	-5121
花莲	-5122
水中	-5123
种种	-5124
立法委员	-5125
上诉	-5126
县市	-5127
框架	-5128
阵营	-5129
为一个	-5130
与大	-5131
复制	-5132
来源于	-5133
口号	-5134
城内	-5135
如今	-5136
元朝	-5137
层次	-5138
俘虏	-5139
威尼斯	-5140
有不少	-5141
向西	-5142
的阿	-5143
是一名	-5144
乌拉	-5145
子弹	-5146
开工	-5147
施工	-5148
版权	-5149
师范大学	-5150
▁科	-5151
收回	-5152
英超	-5153
,	-5154
的	-5155
▁	-5156
。	-5157
1	-5158
、	-5159
年	-5160
0	-5161
在	-5162
一	-5163
为	-5164
中	-5165
国	-5166
是	-5167
2	-5168
9	-5169
有	-5170
人	-5171
大	-5172
(	-5173
)	-5174
于	-5175
和	-5176
以	-5177
了	-5178
后	-5179
学	-5180
时	-5181
不	-5182
成	-5183
3	-5184
5	-5185
会	-5186
个	-5187
地	-5188
8	-5189
日	-5190
上	-5191
4	-5192
月	-5193
之	-5194
6	-5195
他	-5196
7	-5197
出	-5198
与	-5199
主	-5200
行	-5201
其	-5202
用	-5203
发	-5204
而	-5205
作	-5206
生	-5207
到	-5208
部	-5209
分	-5210
公	-5211
这	-5212
及	-5213
军	-5214
来	-5215
家	-5216
法	-5217
民	-5218
对	-5219
《	-5220
》	-5221
方	-5222
多	-5223
区	-5224
名	-5225
斯	-5226
被	-5227
同	-5228
并	-5229
可	-5230
政	-5231
由	-5232
」	-5233
「	-5234
文	-5235
自	-5236
第	-5237
也	-5238
下	-5239
子	-5240
本	-5241
西	-5242
最	-5243
所	-5244
开	-5245
要	-5246
等	-5247
代	-5248
经	-5249
因	-5250
长	-5251
动	-5252
南	-5253
此	-5254
位	-5255
新	-5256
尔	-5257
市	-5258
过	-5259
前	-5260
现	-5261
高	-5262
台	-5263
北	-5264
世	-5265
三	-5266
能	-5267
:	-5268
教	-5269
立	-5270
得	-5271
东	-5272
定	-5273
理	-5274
当	-5275
战	-5276
建	-5277
特	-5278
内	-5279
间	-5280
但	-5281
加	-5282
数	-5283
外	-5284
称	-5285
物	-5286
进	-5287
·	-5288
电	-5289
使	-5290
期	-5291
利	-5292
德	-5293
将	-5294
体	-5295
机	-5296
任	-5297
化	-5298
海	-5299
至	-5300
事	-5301
入	-5302
美	-5303
里	-5304
天	-5305
合	-5306
者	-5307
制	-5308
全	-5309
面	-5310
山	-5311
度	-5312
道	-5313
通	-5314
员	-5315
二	-5316
都	-5317
重	-5318
工	-5319
性	-5320
种	-5321
业	-5322
表	-5323
十	-5324
力	-5325
次	-5326
系	-5327
相	-5328
如	-5329
小	-5330
克	-5331
两	-5332
亚	-5333
式	-5334
统	-5335
平	-5336
共	-5337
路	-5338
原	-5339
设	-5340
王	-5341
场	-5342
;	-5343
马	-5344
语	-5345
或	-5346
港	-5347
基	-5348
量	-5349
元	-5350
产	-5351
明	-5352
城	-5353
拉	-5354
关	-5355
正	-5356
常	-5357
球	-5358
府	-5359
线	-5360
们	-5361
总	-5362
义	-5363
联	-5364
队	-5365
然	-5366
英	-5367
"	-5368
就	-5369
从	-5370
院	-5371
安	-5372
水	-5373
比	-5374
华	-5375
治	-5376
实	-5377
州	-5378
金	-5379
起	-5380
士	-5381
车	-5382
说	-5383
罗	-5384
达	-5385
约	-5386
计	-5387
提	-5388
改	-5389
界	-5390
无	-5391
则	-5392
四	-5393
布	-5394
运	-5395
些	-5396
组	-5397
科	-5398
意	-5399
县	-5400
传	-5401
接	-5402
书	-5403
司	-5404
议	-5405
心	-5406
号	-5407
格	-5408
始	-5409
向	-5410
受	-5411
香	-5412
影	-5413
口	-5414
程	-5415
赛	-5416
结	-5417
认	-5418
形	-5419
目	-5420
湾	-5421
已	-5422
首	-5423
门	-5424
选	-5425
指	-5426
包	-5427
列	-5428
音	-5429
兰	-5430
字	-5431
务	-5432
广	-5433
类	-5434
史	-5435
万	-5436
直	-5437
应	-5438
各	-5439
该	-5440
交	-5441
更	-5442
展	-5443
党	-5444
林	-5445
保	-5446
乐	-5447
色	-5448
领	-5449
流	-5450
论	-5451
星	-5452
变	-5453
校	-5454
权	-5455
太	-5456
巴	-5457
尼	-5458
还	-5459
属	-5460
反	-5461
女	-5462
古	-5463
点	-5464
处	-5465
著	-5466
品	-5467
只	-5468
空	-5469
朝	-5470
族	-5471
社	-5472
阿	-5473
手	-5474
曾	-5475
持	-5476
视	-5477
演	-5478
集	-5479
五	-5480
信	-5481
纪	-5482
团	-5483
省	-5484
河	-5485
少	-5486
别	-5487
导	-5488
回	-5489
型	-5490
维	-5491
管	-5492
米	-5493
取	-5494
它	-5495
命	-5496
即	-5497
参	-5498
身	-5499
造	-5500
历	-5501
非	-5502
江	-5503
没	-5504
站	-5505
据	-5506
官	-5507
级	-5508
神	-5509
解	-5510
帝	-5511
资	-5512
清	-5513
张	-5514
术	-5515
又	-5516
支	-5517
师	-5518
近	-5519
商	-5520
洲	-5521
情	-5522
岛	-5523
获	-5524
汉	-5525
光	-5526
件	-5527
京	-5528
委	-5529
言	-5530
示	-5531
际	-5532
单	-5533
气	-5534
记	-5535
带	-5536
报	-5537
活	-5538
条	-5539
先	-5540
研	-5541
果	-5542
括	-5543
石	-5544
争	-5545
今	-5546
决	-5547
举	-5548
很	-5549
亦	-5550
游	-5551
质	-5552
放	-5553
击	-5554
图	-5555
武	-5556
较	-5557
许	-5558
风	-5559
苏	-5560
专	-5561
派	-5562
器	-5563
连	-5564
铁	-5565
强	-5566
标	-5567
且	-5568
去	-5569
收	-5570
再	-5571
波	-5572
复	-5573
宗	-5574
版	-5575
夫	-5576
除	-5577
周	-5578
观	-5579
例	-5580
究	-5581
题	-5582
局	-5583
白	-5584
卡	-5585
兵	-5586
往	-5587
初	-5588
节	-5589
转	-5590
头	-5591
划	-5592
完	-5593
规	-5594
离	-5595
普	-5596
知	-5597
每	-5598
令	-5599
见	-5600
创	-5601
李	-5602
问	-5603
构	-5604
土	-5605
未	-5606
引	-5607
另	-5608
居	-5609
根	-5610
样	-5611
济	-5612
皇	-5613
阳	-5614
六	-5615
角	-5616
奥	-5617
陆	-5618
育	-5619
调	-5620
推	-5621
存	-5622
随	-5623
给	-5624
纳	-5625
源	-5626
服	-5627
率	-5628
死	-5629
欧	-5630
功	-5631
具	-5632
我	-5633
剧	-5634
打	-5635
续	-5636
好	-5637
亲	-5638
八	-5639
职	-5640
求	-5641
片	-5642
速	-5643
龙	-5644
网	-5645
段	-5646
早	-5647
办	-5648
曲	-5649
增	-5650
修	-5651
占	-5652
宣	-5653
希	-5654
攻	-5655
航	-5656
镇	-5657
写	-5658
她	-5659
园	-5660
百	-5661
威	-5662
九	-5663
准	-5664
致	-5665
众	-5666
福	-5667
爱	-5668
兴	-5669
置	-5670
装	-5671
终	-5672
己	-5673
黄	-5674
座	-5675
整	-5676
均	-5677
域	-5678
响	-5679
容	-5680
歌	-5681
编	-5682
供	-5683
积	-5684
投	-5685
那	-5686
花	-5687
伊	-5688
圣	-5689
越	-5690
极	-5691
营	-5692
足	-5693
超	-5694
协	-5695
故	-5696
卫	-5697
志	-5698
易	-5699
客	-5700
独	-5701
失	-5702
技	-5703
继	-5704
仍	-5705
项	-5706
才	-5707
母	-5708
需	-5709
份	-5710
证	-5711
境	-5712
飞	-5713
便	-5714
象	-5715
想	-5716
话	-5717
备	-5718
.	-5719
季	-5720
案	-5721
录	-5722
把	-5723
陈	-5724
何	-5725
火	-5726
密	-5727
几	-5728
红	-5729
助	-5730
画	-5731
伯	-5732
半	-5733
环	-5734
儿	-5735
声	-5736
模	-5737
算	-5738
素	-5739
病	-5740
印	-5741
奖	-5742
考	-5743
馆	-5744
—	-5745
织	-5746
层	-5747
央	-5748
革	-5749
词	-5750
边	-5751
七	-5752
群	-5753
播	-5754
护	-5755
思	-5756
查	-5757
戏	-5758
围	-5759
像	-5760
感	-5761
艺	-5762
真	-5763
湖	-5764
低	-5765
落	-5766
老	-5767
采	-5768
射	-5769
料	-5770
排	-5771
告	-5772
沙	-5773
着	-5774
律	-5775
步	-5776
温	-5777
伦	-5778
食	-5779
限	-5780
青	-5781
哈	-5782
费	-5783
让	-5784
田	-5785
医	-5786
典	-5787
农	-5788
塔	-5789
楼	-5790
念	-5791
看	-5792
态	-5793
显	-5794
止	-5795
确	-5796
杀	-5797
住	-5798
佛	-5799
施	-5800
乡	-5801
仅	-5802
升	-5803
吉	-5804
班	-5805
盟	-5806
般	-5807
席	-5808
败	-5809
批	-5810
范	-5811
鲁	-5812
评	-5813
精	-5814
留	-5815
筑	-5816
堂	-5817
深	-5818
热	-5819
父	-5820
状	-5821
承	-5822
势	-5823
降	-5824
做	-5825
双	-5826
景	-5827
督	-5828
担	-5829
虽	-5830
值	-5831
余	-5832
洛	-5833
室	-5834
防	-5835
远	-5836
依	-5837
千	-5838
博	-5839
干	-5840
效	-5841
移	-5842
试	-5843
征	-5844
必	-5845
价	-5846
满	-5847
消	-5848
黑	-5849
测	-5850
勒	-5851
胜	-5852
刘	-5853
萨	-5854
街	-5855
抗	-5856
载	-5857
岁	-5858
康	-5859
配	-5860
候	-5861
控	-5862
木	-5863
述	-5864
登	-5865
注	-5866
诺	-5867
断	-5868
守	-5869
洋	-5870
川	-5871
望	-5872
负	-5873
唐	-5874
村	-5875
氏	-5876
曼	-5877
却	-5878
托	-5879
简	-5880
塞	-5881
照	-5882
验	-5883
底	-5884
识	-5885
雷	-5886
含	-5887
富	-5888
责	-5889
章	-5890
况	-5891
顿	-5892
难	-5893
破	-5894
哥	-5895
细	-5896
蒙	-5897
俄	-5898
澳	-5899
户	-5900
核	-5901
严	-5902
退	-5903
桥	-5904
拥	-5905
唱	-5906
票	-5907
压	-5908
宫	-5909
宁	-5910
察	-5911
请	-5912
奇	-5913
男	-5914
云	-5915
封	-5916
银	-5917
副	-5918
藏	-5919
舰	-5920
绝	-5921
策	-5922
辖	-5923
牙	-5924
冠	-5925
读	-5926
似	-5927
附	-5928
甲	-5929
森	-5930
左	-5931
宋	-5932
预	-5933
韩	-5934
莱	-5935
亡	-5936
甚	-5937
快	-5938
瓦	-5939
执	-5940
夏	-5941
斗	-5942
久	-5943
突	-5944
息	-5945
辑	-5946
序	-5947
贝	-5948
友	-5949
习	-5950
归	-5951
授	-5952
弹	-5953
礼	-5954
祖	-5955
拿	-5956
逐	-5957
换	-5958
闻	-5959
邦	-5960
索	-5961
异	-5962
亿	-5963
遗	-5964
旅	-5965
临	-5966
届	-5967
船	-5968
姆	-5969
永	-5970
须	-5971
宝	-5972
埃	-5973
阶	-5974
叶	-5975
诗	-5976
孙	-5977
渐	-5978
优	-5979
码	-5980
旧	-5981
判	-5982
庆	-5983
切	-5984
停	-5985
丁	-5986
春	-5987
右	-5988
译	-5989
若	-5990
泰	-5991
略	-5992
丽	-5993
堡	-5994
店	-5995
迪	-5996
岸	-5997
瑞	-5998
微	-5999
隆	-6000
房	-6001
库	-6002
差	-6003
警	-6004
架	-6005
油	-6006
延	-6007
酒	-6008
走	-6009
牌	-6010
尽	-6011
恩	-6012
丹	-6013
野	-6014
迁	-6015
杂	-6016
遭	-6017
灵	-6018
吴	-6019
束	-6020
末	-6021
麦	-6022
臣	-6023
雄	-6024
毛	-6025
坦	-6026
药	-6027
输	-6028
君	-6029
监	-6030
免	-6031
减	-6032
冲	-6033
嘉	-6034
旗	-6035
互	-6036
弟	-6037
伤	-6038
良	-6039
血	-6040
轻	-6041
端	-6042
厂	-6043
鲜	-6044
署	-6045
短	-6046
丰	-6047
假	-6048
善	-6049
役	-6050
释	-6051
婚	-6052
股	-6053
扩	-6054
杨	-6055
乘	-6056
植	-6057
松	-6058
雅	-6059
送	-6060
诸	-6061
皮	-6062
盛	-6063
乌	-6064
烈	-6065
养	-6066
财	-6067
贵	-6068
够	-6069
销	-6070
鱼	-6071
售	-6072
籍	-6073
郡	-6074
频	-6075
摩	-6076
徒	-6077
晋	-6078
胡	-6079
寺	-6080
草	-6081
散	-6082
庭	-6083
尚	-6084
启	-6085
朗	-6086
酸	-6087
秦	-6088
某	-6089
讯	-6090
荣	-6091
佳	-6092
予	-6093
梅	-6094
轮	-6095
泽	-6096
耶	-6097
顺	-6098
树	-6099
软	-6100
企	-6101
夺	-6102
距	-6103
签	-6104
晚	-6105
害	-6106
适	-6107
驻	-6108
廷	-6109
秀	-6110
劳	-6111
材	-6112
脑	-6113
爆	-6114
购	-6115
按	-6116
款	-6117
乱	-6118
符	-6119
益	-6120
朱	-6121
禁	-6122
赫	-6123
阵	-6124
沿	-6125
仁	-6126
牛	-6127
介	-6128
援	-6129
莫	-6130
顶	-6131
杯	-6132
宪	-6133
钟	-6134
杰	-6135
追	-6136
献	-6137
黎	-6138
货	-6139
灭	-6140
侧	-6141
齐	-6142
弗	-6143
罪	-6144
透	-6145
险	-6146
荷	-6147
挥	-6148
否	-6149
兼	-6150
玛	-6151
练	-6152
吸	-6153
梁	-6154
喜	-6155
玉	-6156
固	-6157
陵	-6158
描	-6159
纽	-6160
毕	-6161
乎	-6162
板	-6163
圆	-6164
唯	-6165
讨	-6166
讲	-6167
媒	-6168
谷	-6169
么	-6170
厅	-6171
仪	-6172
激	-6173
巨	-6174
毒	-6175
摄	-6176
屋	-6177
撤	-6178
盖	-6179
皆	-6180
刻	-6181
补	-6182
暴	-6183
艾	-6184
迫	-6185
昌	-6186
津	-6187
访	-6188
什	-6189
私	-6190
充	-6191
爵	-6192
郑	-6193
汇	-6194
觉	-6195
尾	-6196
庄	-6197
敌	-6198
概	-6199
救	-6200
泛	-6201
舞	-6202
拜	-6203
审	-6204
智	-6205
背	-6206
检	-6207
币	-6208
姓	-6209
缺	-6210
借	-6211
童	-6212
赵	-6213
途	-6214
欢	-6215
础	-6216
峰	-6217
废	-6218
坚	-6219
殖	-6220
呼	-6221
轨	-6222
枪	-6223
混	-6224
聚	-6225
跟	-6226
训	-6227
侵	-6228
尤	-6229
腊	-6230
潮	-6231
刊	-6232
谈	-6233
订	-6234
菲	-6235
怀	-6236
拍	-6237
胞	-6238
卷	-6239
址	-6240
敦	-6241
宇	-6242
操	-6243
避	-6244
抵	-6245
翻	-6246
课	-6247
召	-6248
帮	-6249
耳	-6250
愿	-6251
蒂	-6252
篇	-6253
听	-6254
氧	-6255
幕	-6256
额	-6257
秘	-6258
疗	-6259
夜	-6260
函	-6261
奉	-6262
宾	-6263
逃	-6264
竞	-6265
阴	-6266
探	-6267
替	-6268
兹	-6269
找	-6270
凯	-6271
哲	-6272
染	-6273
叫	-6274
择	-6275
你	-6276
雪	-6277
忠	-6278
径	-6279
雨	-6280
味	-6281
庙	-6282
溪	-6283
秋	-6284
待	-6285
穿	-6286
遇	-6287
杜	-6288
钱	-6289
络	-6290
犯	-6291
返	-6292
翰	-6293
宽	-6294
刺	-6295
顾	-6296
贸	-6297
误	-6298
眼	-6299
蒋	-6300
毁	-6301
融	-6302
蓝	-6303
魏	-6304
卢	-6305
析	-6306
靠	-6307
恶	-6308
犹	-6309
刑	-6310
露	-6311
贡	-6312
绿	-6313
缩	-6314
洪	-6315
休	-6316
侯	-6317
柏	-6318
楚	-6319
徐	-6320
奏	-6321
刚	-6322
迎	-6323
汽	-6324
脱	-6325
损	-6326
谋	-6327
症	-6328
妻	-6329
捕	-6330
疑	-6331
邻	-6332
饰	-6333
繁	-6334
炸	-6335
旋	-6336
映	-6337
肉	-6338
巡	-6339
俗	-6340
袭	-6341
诉	-6342
坡	-6343
针	-6344
泉	-6345
培	-6346
谢	-6347
恒	-6348
隶	-6349
鸟	-6350
冷	-6351
骨	-6352
盘	-6353
弃	-6354
渡	-6355
赞	-6356
套	-6357
尺	-6358
横	-6359
紧	-6360
稳	-6361
租	-6362
危	-6363
阻	-6364
卖	-6365
隔	-6366
申	-6367
镜	-6368
辆	-6369
迹	-6370
惠	-6371
漫	-6372
健	-6373
坏	-6374
乔	-6375
竹	-6376
尊	-6377
买	-6378
御	-6379
笔	-6380
掌	-6381
句	-6382
虎	-6383
炮	-6384
兄	-6385
殿	-6386
宜	-6387
帕	-6388
岩	-6389
穆	-6390
曹	-6391
衣	-6392
廉	-6393
郎	-6394
液	-6395
遍	-6396
扬	-6397
玩	-6398
裁	-6399
戴	-6400
矿	-6401
纸	-6402
付	-6403
涉	-6404
绩	-6405
沃	-6406
丝	-6407
崇	-6408
魔	-6409
错	-6410
急	-6411
茶	-6412
孔	-6413
辞	-6414
肯	-6415
舍	-6416
冰	-6417
午	-6418
块	-6419
税	-6420
誉	-6421
骑	-6422
奴	-6423
谓	-6424
霍	-6425
铜	-6426
享	-6427
颁	-6428
珠	-6429
阁	-6430
招	-6431
董	-6432
琴	-6433
墓	-6434
洞	-6435
偏	-6436
寻	-6437
脉	-6438
裂	-6439
伐	-6440
拒	-6441
乃	-6442
呈	-6443
拔	-6444
冬	-6445
彩	-6446
暗	-6447
坐	-6448
仙	-6449
芬	-6450
孩	-6451
辅	-6452
倒	-6453
鼓	-6454
零	-6455
墨	-6456
弱	-6457
磁	-6458
恢	-6459
震	-6460
甘	-6461
圈	-6462
逊	-6463
赤	-6464
困	-6465
亮	-6466
菜	-6467
翼	-6468
陷	-6469
静	-6470
迷	-6471
寿	-6472
衡	-6473
妇	-6474
患	-6475
祭	-6476
剑	-6477
努	-6478
池	-6479
殊	-6480
糖	-6481
恐	-6482
纯	-6483
烧	-6484
捷	-6485
麻	-6486
蛋	-6487
梦	-6488
辽	-6489
册	-6490
键	-6491
辛	-6492
赖	-6493
岭	-6494
墙	-6495
粒	-6496
锦	-6497
葡	-6498
硬	-6499
坛	-6500
逝	-6501
触	-6502
绍	-6503
缘	-6504
锡	-6505
促	-6506
毫	-6507
默	-6508
仰	-6509
撒	-6510
振	-6511
井	-6512
绘	-6513
茨	-6514
览	-6515
剂	-6516
陶	-6517
储	-6518
幅	-6519
闭	-6520
颜	-6521
盐	-6522
钢	-6523
暂	-6524
昭	-6525
综	-6526
估	-6527
迅	-6528
厦	-6529
?	-6530
障	-6531
幼	-6532
牧	-6533
截	-6534
亨	-6535
倍	-6536
熙	-6537
燃	-6538
苦	-6539
凤	-6540
羽	-6541
颗	-6542
宿	-6543
潜	-6544
折	-6545
燕	-6546
允	-6547
熟	-6548
徽	-6549
吕	-6550
驱	-6551
脚	-6552
伟	-6553
丘	-6554
纷	-6555
郭	-6556
浦	-6557
佐	-6558
隐	-6559
邮	-6560
虑	-6561
勇	-6562
菌	-6563
妹	-6564
葬	-6565
戈	-6566
柱	-6567
豪	-6568
邓	-6569
疾	-6570
答	-6571
衰	-6572
档	-6573
辉	-6574
伍	-6575
滨	-6576
孝	-6577
烟	-6578
遂	-6579
邀	-6580
粤	-6581
旁	-6582
叛	-6583
拟	-6584
冈	-6585
汤	-6586
纵	-6587
晶	-6588
餐	-6589
龄	-6590
幸	-6591
汗	-6592
沉	-6593
跨	-6594
浙	-6595
佩	-6596
敏	-6597
灾	-6598
韦	-6599
仔	-6600
娜	-6601
浪	-6602
谱	-6603
慢	-6604
残	-6605
彼	-6606
粉	-6607
淡	-6608
遣	-6609
恋	-6610
滑	-6611
饮	-6612
厚	-6613
吃	-6614
蔡	-6615
忆	-6616
狱	-6617
虚	-6618
伴	-6619
桂	-6620
埔	-6621
幻	-6622
虫	-6623
偶	-6624
!	-6625
驶	-6626
倾	-6627
萄	-6628
赢	-6629
瑟	-6630
筹	-6631
赏	-6632
峡	-6633
碑	-6634
凡	-6635
绪	-6636
莎	-6637
灯	-6638
珍	-6639
贯	-6640
械	-6641
痛	-6642
昆	-6643
裔	-6644
伏	-6645
塘	-6646
敬	-6647
跑	-6648
诚	-6649
慕	-6650
桑	-6651
纲	-6652
柯	-6653
锋	-6654
绕	-6655
慈	-6656
拆	-6657
炎	-6658
莲	-6659
乙	-6660
祥	-6661
宙	-6662
雕	-6663
冯	-6664
缓	-6665
沈	-6666
乳	-6667
勋	-6668
覆	-6669
闽	-6670
欲	-6671
羊	-6672
匈	-6673
疆	-6674
刀	-6675
紫	-6676
俱	-6677
儒	-6678
榜	-6679
匹	-6680
赴	-6681
违	-6682
桃	-6683
驾	-6684
灰	-6685
湘	-6686
玄	-6687
屿	-6688
搭	-6689
宅	-6690
既	-6691
壁	-6692
尖	-6693
袁	-6694
趣	-6695
乏	-6696
棒	-6697
碳	-6698
伸	-6699
污	-6700
惯	-6701
拓	-6702
轴	-6703
逻	-6704
藤	-6705
掉	-6706
葛	-6707
扎	-6708
页	-6709
详	-6710
艘	-6711
孟	-6712
割	-6713
胶	-6714
熊	-6715
贤	-6716
迈	-6717
莉	-6718
诞	-6719
猎	-6720
粮	-6721
萧	-6722
仓	-6723
岳	-6724
番	-6725
韵	-6726
凭	-6727
藩	-6728
浮	-6729
箭	-6730
袖	-6731
奈	-6732
〉	-6733
吨	-6734
挑	-6735
乾	-6736
〈	-6737
彭	-6738
鸡	-6739
朋	-6740
沟	-6741
轰	-6742
淮	-6743
累	-6744
塑	-6745
鉴	-6746
芳	-6747
咸	-6748
郊	-6749
姐	-6750
弥	-6751
浓	-6752
仿	-6753
贾	-6754
励	-6755
惊	-6756
湿	-6757
昂	-6758
填	-6759
氢	-6760
巧	-6761
循	-6762
夷	-6763
秒	-6764
玻	-6765
抚	-6766
罕	-6767
霸	-6768
跳	-6769
旦	-6770
溶	-6771
罚	-6772
娱	-6773
卓	-6774
鹿	-6775
胁	-6776
擎	-6777
艇	-6778
衔	-6779
撞	-6780
棋	-6781
洗	-6782
粹	-6783
鬼	-6784
彻	-6785
慧	-6786
撰	-6787
陕	-6788
贺	-6789
阅	-6790
猫	-6791
盾	-6792
搜	-6793
豆	-6794
屯	-6795
祝	-6796
肥	-6797
僧	-6798
挂	-6799
扰	-6800
梯	-6801
赋	-6802
兽	-6803
跃	-6804
勤	-6805
芝	-6806
泥	-6807
勃	-6808
丧	-6809
寒	-6810
戒	-6811
壮	-6812
亭	-6813
詹	-6814
仑	-6815
圳	-6816
隧	-6817
凌	-6818
叙	-6819
帅	-6820
契	-6821
插	-6822
剩	-6823
措	-6824
笑	-6825
狮	-6826
锁	-6827
盗	-6828
趋	-6829
靖	-6830
贞	-6831
递	-6832
辩	-6833
枢	-6834
苗	-6835
拳	-6836
禄	-6837
砲	-6838
荒	-6839
喷	-6840
弦	-6841
庞	-6842
膜	-6843
饭	-6844
～	-6845
尝	-6846
瓜	-6847
握	-6848
篮	-6849
屏	-6850
怪	-6851
肃	-6852
狄	-6853
颇	-6854
旨	-6855
曰	-6856
柳	-6857
岗	-6858
赐	-6859
侍	-6860
耗	-6861
碍	-6862
貌	-6863
净	-6864
杭	-6865
扮	-6866
涯	-6867
贫	-6868
抽	-6869
涅	-6870
琳	-6871
妮	-6872
仲	-6873
焦	-6874
涌	-6875
疫	-6876
拼	-6877
摇	-6878
怒	-6879
妃	-6880
叔	-6881
稣	-6882
润	-6883
陀	-6884
泊	-6885
逆	-6886
歧	-6887
垒	-6888
捐	-6889
邨	-6890
鸿	-6891
遵	-6892
裕	-6893
悬	-6894
渔	-6895
耀	-6896
傅	-6897
稿	-6898
衍	-6899
链	-6900
悉	-6901
禅	-6902
疏	-6903
薄	-6904
孤	-6905
隋	-6906
串	-6907
搬	-6908
壤	-6909
琉	-6910
晓	-6911
纹	-6912
晨	-6913
崎	-6914
俘	-6915
柴	-6916
坑	-6917
垂	-6918
腹	-6919
滚	-6920
矩	-6921
钦	-6922
町	-6923
宏	-6924
床	-6925
贴	-6926
杉	-6927
坊	-6928
姻	-6929
询	-6930
伽	-6931
潘	-6932
券	-6933
卿	-6934
穷	-6935
寄	-6936
弘	-6937
齿	-6938
蛇	-6939
硕	-6940
赶	-6941
潭	-6942
卜	-6943
脂	-6944
扫	-6945
脏	-6946
腐	-6947
扶	-6948
劝	-6949
甸	-6950
刷	-6951
壳	-6952
舒	-6953
赠	-6954
吐	-6955
尉	-6956
旺	-6957
纬	-6958
辐	-6959
诏	-6960
浩	-6961
丈	-6962
凉	-6963
揭	-6964
矛	-6965
蒸	-6966
逼	-6967
愈	-6968
罢	-6969
喀	-6970
伪	-6971
屠	-6972
洁	-6973
廊	-6974
鲍	-6975
碟	-6976
厘	-6977
猪	-6978
惟	-6979
窗	-6980
冒	-6981
箱	-6982
煤	-6983
璃	-6984
斜	-6985
浅	-6986
癌	-6987
迟	-6988
奔	-6989
阔	-6990
鸣	-6991
俊	-6992
叠	-6993
抢	-6994
朴	-6995
聘	-6996
稍	-6997
悲	-6998
涵	-6999
茂	-7000
缅	-7001
侦	-7002
婆	-7003
腾	-7004
酶	-7005
倡	-7006
狗	-7007
胎	-7008
枝	-7009
奶	-7010
堆	-7011
辟	-7012
摆	-7013
枚	-7014
彰	-7015
敢	-7016
铭	-7017
添	-7018
猛	-7019
狼	-7020
尸	-7021
汪	-7022
忽	-7023
盆	-7024
押	-7025
惨	-7026
迦	-7027
腔	-7028
侠	-7029
祀	-7030
伙	-7031
螺	-7032
鼻	-7033
吾	-7034
狂	-7035
诊	-7036
携	-7037
炼	-7038
泡	-7039
凝	-7040
蜀	-7041
鼠	-7042
泳	-7043
涂	-7044
稻	-7045
柔	-7046
雇	-7047
魂	-7048
辨	-7049
雍	-7050
忍	-7051
牵	-7052
滩	-7053
舱	-7054
吞	-7055
硫	-7056
卑	-7057
崩	-7058
阮	-7059
偿	-7060
债	-7061
掘	-7062
腓	-7063
灌	-7064
抑	-7065
铺	-7066
欣	-7067
孕	-7068
栏	-7069
苑	-7070
苹	-7071
翁	-7072
溃	-7073
姬	-7074
鲸	-7075
鼎	-7076
鹰	-7077
怕	-7078
偷	-7079
旬	-7080
扁	-7081
漠	-7082
粗	-7083
邑	-7084
碎	-7085
屈	-7086
襄	-7087
翌	-7088
耕	-7089
渊	-7090
腺	-7091
堪	-7092
仇	-7093
踪	-7094
荆	-7095
氨	-7096
牠	-7097
竟	-7098
幽	-7099
侨	-7100
兆	-7101
抱	-7102
挪	-7103
妙	-7104
磨	-7105
狭	-7106
斥	-7107
暖	-7108
荡	-7109
削	-7110
吹	-7111
怖	-7112
荐	-7113
杆	-7114
歇	-7115
肠	-7116
沪	-7117
纤	-7118
夕	-7119
肌	-7120
拨	-7121
逮	-7122
郁	-7123
稀	-7124
桓	-7125
坎	-7126
劫	-7127
闪	-7128
奠	-7129
嫁	-7130
龟	-7131
卵	-7132
淘	-7133
逢	-7134
肺	-7135
鹤	-7136
醒	-7137
娘	-7138
坪	-7139
巫	-7140
氯	-7141
宰	-7142
矶	-7143
驳	-7144
寨	-7145
栖	-7146
姚	-7147
忙	-7148
麟	-7149
奋	-7150
溯	-7151
甫	-7152
坝	-7153
劲	-7154
寸	-7155
棉	-7156
醇	-7157
绳	-7158
耐	-7159
夹	-7160
斤	-7161
梵	-7162
毅	-7163
贩	-7164
厄	-7165
胸	-7166
忌	-7167
亩	-7168
珊	-7169
碱	-7170
厢	-7171
顷	-7172
翠	-7173
斩	-7174
豹	-7175
妈	-7176
雾	-7177
鸦	-7178
夸	-7179
斑	-7180
雌	-7181
卒	-7182
邪	-7183
咖	-7184
鄂	-7185
拖	-7186
嗣	-7187
埋	-7188
豫	-7189
犬	-7190
悠	-7191
钻	-7192
婴	-7193
吏	-7194
忘	-7195
雀	-7196
睡	-7197
忧	-7198
斐	-7199
哪	-7200
袋	-7201
贪	-7202
丙	-7203
闲	-7204
阪	-7205
尿	-7206
薛	-7207
胆	-7208
崔	-7209
舟	-7210
啡	-7211
薪	-7212
扑	-7213
惜	-7214
姜	-7215
巢	-7216
愤	-7217
炉	-7218
厥	-7219
砖	-7220
渠	-7221
脊	-7222
催	-7223
锐	-7224
姊	-7225
酷	-7226
鸭	-7227
践	-7228
辰	-7229
株	-7230
蹈	-7231
庸	-7232
嘴	-7233
披	-7234
哀	-7235
丸	-7236
誓	-7237
嫌	-7238
汰	-7239
谁	-7240
宴	-7241
谦	-7242
铸	-7243
垦	-7244
娃	-7245
牲	-7246
蜂	-7247
遥	-7248
叉	-7249
剪	-7250
扣	-7251
寓	-7252
挖	-7253
祠	-7254
诱	-7255
宠	-7256
斋	-7257
颠	-7258
姑	-7259
卸	-7260
帽	-7261
恰	-7262
滤	-7263
掠	-7264
擅	-7265
葵	-7266
踏	-7267
丛	-7268
猜	-7269
砂	-7270
慰	-7271
谭	-7272
廖	-7273
惧	-7274
奸	-7275
呎	-7276
丑	-7277
恨	-7278
冕	-7279
彦	-7280
丞	-7281
摧	-7282
甜	-7283
恭	-7284
募	-7285
菩	-7286
栋	-7287
殷	-7288
琼	-7289
逸	-7290
饼	-7291
闸	-7292
胀	-7293
碧	-7294
蜜	-7295
畅	-7296
辈	-7297
姿	-7298
禧	-7299
谥	-7300
拘	-7301
赌	-7302
陪	-7303
纠	-7304
肝	-7305
翔	-7306
颈	-7307
抓	-7308
娶	-7309
帐	-7310
贼	-7311
拱	-7312
肤	-7313
脸	-7314
赔	-7315
盈	-7316
屡	-7317
掩	-7318
逾	-7319
邱	-7320
纺	-7321
侣	-7322
慎	-7323
抄	-7324
魁	-7325
秩	-7326
腿	-7327
悟	-7328
绥	-7329
矮	-7330
浏	-7331
堤	-7332
喻	-7333
焚	-7334
烯	-7335
谐	-7336
挡	-7337
铃	-7338
亥	-7339
吧	-7340
怎	-7341
骚	-7342
桌	-7343
趁	-7344
瓶	-7345
芦	-7346
碰	-7347
喇	-7348
歼	-7349
浸	-7350
庇	-7351
瓷	-7352
厉	-7353
聪	-7354
抛	-7355
茅	-7356
漏	-7357
跌	-7358
旱	-7359
怡	-7360
磷	-7361
苯	-7362
滋	-7363
虹	-7364
颂	-7365
囊	-7366
劣	-7367
囚	-7368
讽	-7369
舌	-7370
梨	-7371
尹	-7372
删	-7373
框	-7374
浆	-7375
畜	-7376
胺	-7377
冀	-7378
汝	-7379
尘	-7380
绵	-7381
巩	-7382
咨	-7383
挤	-7384
嫩	-7385
赣	-7386
擦	-7387
蚀	-7388
奎	-7389
荃	-7390
舆	-7391
昔	-7392
祸	-7393
煌	-7394
霞	-7395
缴	-7396
眠	-7397
弯	-7398
炭	-7399
蕃	-7400
栗	-7401
徙	-7402
毗	-7403
藻	-7404
谊	-7405
玲	-7406
蒲	-7407
僚	-7408
彗	-7409
饥	-7410
蓄	-7411
澄	-7412
贬	-7413
剥	-7414
轩	-7415
肖	-7416
酿	-7417
茵	-7418
穴	-7419
烷	-7420
邵	-7421
腰	-7422
圭	-7423
膨	-7424
畴	-7425
埠	-7426
咏	-7427
鹅	-7428
妥	-7429
戚	-7430
汀	-7431
弄	-7432
弓	-7433
贷	-7434
扇	-7435
虏	-7436
惩	-7437
寮	-7438
凶	-7439
缔	-7440
仆	-7441
讼	-7442
柜	-7443
瑜	-7444
冻	-7445
吊	-7446
肇	-7447
谨	-7448
蓬	-7449
怨	-7450
绑	-7451
巷	-7452
禹	-7453
锅	-7454
滥	-7455
祈	-7456
氮	-7457
涨	-7458
欠	-7459
阀	-7460
吁	-7461
窄	-7462
泄	-7463
骏	-7464
凰	-7465
麓	-7466
暨	-7467
禽	-7468
骗	-7469
庐	-7470
涛	-7471
糊	-7472
饱	-7473
肢	-7474
肩	-7475
庶	-7476
冥	-7477
镑	-7478
笛	-7479
浊	-7480
喝	-7481
芒	-7482
臂	-7483
笼	-7484
噶	-7485
窝	-7486
坞	-7487
虾	-7488
寇	-7489
朵	-7490
淑	-7491
樱	-7492
挺	-7493
钓	-7494
鹏	-7495
辱	-7496
搞	-7497
锣	-7498
茎	-7499
琪	-7500
爷	-7501
铅	-7502
辣	-7503
醉	-7504
汁	-7505
璋	-7506
薇	-7507
牺	-7508
畏	-7509
煮	-7510
遮	-7511
酱	-7512
厌	-7513
勾	-7514
酵	-7515
荫	-7516
饶	-7517
坂	-7518
帖	-7519
钠	-7520
畔	-7521
涡	-7522
阐	-7523
丢	-7524
宦	-7525
糕	-7526
哺	-7527
昏	-7528
仕	-7529
芙	-7530
珀	-7531
宛	-7532
捉	-7533
椎	-7534
嵌	-7535
颖	-7536
菊	-7537
棕	-7538
肿	-7539
苍	-7540
札	-7541
蛮	-7542
漳	-7543
泌	-7544
蝶	-7545
筒	-7546
扭	-7547
驰	-7548
芭	-7549
谣	-7550
悼	-7551
汶	-7552
撑	-7553
窟	-7554
懂	-7555
卧	-7556
剿	-7557
爪	-7558
坟	-7559
勘	-7560
榄	-7561
杏	-7562
蕾	-7563
氟	-7564
冶	-7565
椒	-7566
胃	-7567
爬	-7568
帜	-7569
漂	-7570
肆	-7571
帆	-7572
澎	-7573
眉	-7574
缝	-7575
痕	-7576
淀	-7577
庚	-7578
咀	-7579
猴	-7580
匪	-7581
垄	-7582
祷	-7583
梭	-7584
祯	-7585
肾	-7586
艳	-7587
匠	-7588
跋	-7589
橡	-7590
硝	-7591
铝	-7592
熔	-7593
虐	-7594
晴	-7595
悦	-7596
彪	-7597
鞋	-7598
坠	-7599
骤	-7600
酮	-7601
桐	-7602
肪	-7603
淳	-7604
礁	-7605
艰	-7606
沦	-7607
睛	-7608
履	-7609
崖	-7610
尧	-7611
窦	-7612
掷	-7613
佑	-7614
浑	-7615
赦	-7616
咒	-7617
闵	-7618
聂	-7619
狐	-7620
盲	-7621
庵	-7622
伞	-7623
翅	-7624
迄	-7625
欺	-7626
歉	-7627
漆	-7628
叹	-7629
噪	-7630
寡	-7631
霜	-7632
柬	-7633
饲	-7634
秉	-7635
哭	-7636
燥	-7637
椅	-7638
韶	-7639
闹	-7640
黏	-7641
牢	-7642
妓	-7643
唤	-7644
虞	-7645
弧	-7646
濒	-7647
焰	-7648
戎	-7649
谴	-7650
矣	-7651
烦	-7652
倭	-7653
躲	-7654
缠	-7655
伺	-7656
蕴	-7657
妖	-7658
攀	-7659
霖	-7660
裸	-7661
吻	-7662
朔	-7663
瀑	-7664
墟	-7665
烤	-7666
喉	-7667
厨	-7668
粘	-7669
泪	-7670
垣	-7671
氛	-7672
暑	-7673
萝	-7674
芽	-7675
荔	-7676
罩	-7677
铎	-7678
惑	-7679
滞	-7680
牟	-7681
棠	-7682
啤	-7683
栽	-7684
塌	-7685
唇	-7686
苻	-7687
笃	-7688
祐	-7689
纂	-7690
疯	-7691
矢	-7692
佣	-7693
绅	-7694
盒	-7695
藉	-7696
羚	-7697
汕	-7698
瑶	-7699
蔬	-7700
竣	-7701
吗	-7702
滴	-7703
钧	-7704
弊	-7705
骂	-7706
坤	-7707
烂	-7708
阎	-7709
烹	-7710
勉	-7711
崛	-7712
爽	-7713
棱	-7714
缀	-7715
瘤	-7716
雁	-7717
岐	-7718
廿	-7719
槽	-7720
窑	-7721
诵	-7722
呢	-7723
滕	-7724
婉	-7725
渗	-7726
渤	-7727
幢	-7728
炒	-7729
舜	-7730
锥	-7731
衷	-7732
邸	-7733
鞍	-7734
钙	-7735
瑰	-7736
褐	-7737
柄	-7738
淫	-7739
黛	-7740
沛	-7741
竖	-7742
绎	-7743
吓	-7744
乞	-7745
拦	-7746
彝	-7747
棚	-7748
浴	-7749
沼	-7750
谕	-7751
簧	-7752
嘛	-7753
摘	-7754
堵	-7755
寅	-7756
懿	-7757
薯	-7758
豚	-7759
辜	-7760
倪	-7761
椭	-7762
阜	-7763
舖	-7764
拯	-7765
剖	-7766
诛	-7767
酬	-7768
匀	-7769
蔽	-7770
悔	-7771
袜	-7772
炳	-7773
仗	-7774
娅	-7775
峻	-7776
闰	-7777
兔	-7778
贿	-7779
凿	-7780
胚	-7781
酋	-7782
戊	-7783
殉	-7784
凸	-7785
粟	-7786
讳	-7787
槟	-7788
沫	-7789
竭	-7790
挽	-7791
忒	-7792
窃	-7793
臭	-7794
踢	-7795
匿	-7796
兑	-7797
淹	-7798
玫	-7799
茄	-7800
谍	-7801
饿	-7802
愚	-7803
淋	-7804
诠	-7805
绣	-7806
冢	-7807
赎	-7808
亏	-7809
铀	-7810
陨	-7811
妾	-7812
缆	-7813
挫	-7814
荧	-7815
裴	-7816
衙	-7817
淆	-7818
稽	-7819
芜	-7820
陇	-7821
焕	-7822
蟹	-7823
喊	-7824
渭	-7825
菱	-7826
袍	-7827
钞	-7828
侄	-7829
倚	-7830
酯	-7831
湛	-7832
蓉	-7833
猩	-7834
禾	-7835
芯	-7836
嵩	-7837
钥	-7838
傲	-7839
奕	-7840
棍	-7841
磅	-7842
鞭	-7843
堕	-7844
裤	-7845
摊	-7846
蜡	-7847
剌	-7848
稚	-7849
晤	-7850
卤	-7851
橄	-7852
牡	-7853
渝	-7854
谏	-7855
钾	-7856
缪	-7857
嫡	-7858
淞	-7859
寝	-7860
愉	-7861
飓	-7862
羌	-7863
琦	-7864
硅	-7865
泼	-7866
荀	-7867
鲨	-7868
卦	-7869
莽	-7870
敖	-7871
滇	-7872
翡	-7873
缉	-7874
沧	-7875
皖	-7876
峙	-7877
敛	-7878
闯	-7879
抹	-7880
橘	-7881
绰	-7882
黔	-7883
垃	-7884
诈	-7885
拾	-7886
圾	-7887
脆	-7888
晰	-7889
劾	-7890
砍	-7891
奢	-7892
熹	-7893
雏	-7894
旭	-7895
溥	-7896
疲	-7897
狩	-7898
寂	-7899
妆	-7900
趾	-7901
隙	-7902
穗	-7903
缸	-7904
僵	-7905
抬	-7906
聊	-7907
磡	-7908
魅	-7909
勿	-7910
咬	-7911
耻	-7912
赚	-7913
绸	-7914
筋	-7915
纱	-7916
邹	-7917
斌	-7918
钩	-7919
凹	-7920
褒	-7921
镶	-7922
枫	-7923
汐	-7924
澜	-7925
俞	-7926
瑙	-7927
墅	-7928
膏	-7929
榆	-7930
膀	-7931
孚	-7932
掀	-7933
畿	-7934
疼	-7935
毙	-7936
裙	-7937
搁	-7938
桶	-7939
橙	-7940
楷	-7941
焉	-7942
弼	-7943
梓	-7944
嘱	-7945
葱	-7946
俯	-7947
檀	-7948
谜	-7949
钉	-7950
壶	-7951
巾	-7952
敕	-7953
萌	-7954
擒	-7955
蝠	-7956
匡	-7957
苷	-7958
锤	-7959
镰	-7960
犁	-7961
肚	-7962
毓	-7963
渣	-7964
罹	-7965
渴	-7966
砌	-7967
莞	-7968
蔓	-7969
胖	-7970
骆	-7971
哇	-7972
抨	-7973
冤	-7974
篡	-7975
瓣	-7976
郝	-7977
蔗	-7978
轿	-7979
锌	-7980
曝	-7981
刹	-7982
啦	-7983
棺	-7984
溉	-7985
垫	-7986
您	-7987
揽	-7988
沸	-7989
吋	-7990
罐	-7991
敲	-7992
瑚	-7993
眷	-7994
祇	-7995
髓	-7996
泗	-7997
迭	-7998
釜	-7999
丕	-8000
敷	-8001
祁	-8002
缚	-8003
譬	-8004
邯	-8005
骸	-8006
梧	-8007
樊	-8008
悖	-8009
焊	-8010
宵	-8011
瞬	-8012
谟	-8013
棣	-8014
醛	-8015
枯	-8016
衞	-8017
烃	-8018
鳍	-8019
羲	-8020
菇	-8021
飘	-8022
蕉	-8023
榕	-8024
傀	-8025
蝙	-8026
酰	-8027
沂	-8028
榴	-8029
舅	-8030
惹	-8031
嘲	-8032
堰	-8033
睿	-8034
蔚	-8035
楠	-8036
虔	-8037
驼	-8038
哩	-8039
昼	-8040
碗	-8041
鳞	-8042
儡	-8043
恪	-8044
檐	-8045
妄	-8046
顽	-8047
吟	-8048
驿	-8049
溢	-8050
杖	-8051
祺	-8052
裹	-8053
骄	-8054
厕	-8055
喙	-8056
萍	-8057
爸	-8058
鲤	-8059
廓	-8060
婿	-8061
墩	-8062
疟	-8063
傍	-8064
沁	-8065
舶	-8066
谅	-8067
蹄	-8068
栅	-8069
壹	-8070
钮	-8071
霉	-8072
暹	-8073
樟	-8074
甄	-8075
慌	-8076
俭	-8077
咤	-8078
泾	-8079
鹦	-8080
膝	-8081
叱	-8082
啸	-8083
枣	-8084
氦	-8085
瘦	-8086
蛙	-8087
羞	-8088
啊	-8089
娄	-8090
胤	-8091
侬	-8092
斧	-8093
琅	-8094
萃	-8095
抒	-8096
慨	-8097
禺	-8098
涩	-8099
衬	-8100
岱	-8101
晖	-8102
摔	-8103
账	-8104
蛛	-8105
洽	-8106
茹	-8107
恼	-8108
戌	-8109
俾	-8110
糟	-8111
绒	-8112
塾	-8113
孜	-8114
铉	-8115
靡	-8116
彬	-8117
匾	-8118
鹉	-8119
仄	-8120
兀	-8121
曜	-8122
晏	-8123
骼	-8124
偕	-8125
壬	-8126
颐	-8127
衫	-8128
玺	-8129
龚	-8130
拢	-8131
濑	-8132
蚕	-8133
汾	-8134
灶	-8135
搏	-8136
栈	-8137
矽	-8138
枕	-8139
捧	-8140
莺	-8141
醋	-8142
璧	-8143
耿	-8144
黜	-8145
佬	-8146
憾	-8147
皓	-8148
麒	-8149
蚌	-8150
嗜	-8151
岑	-8152
棵	-8153
诬	-8154
陛	-8155
怜	-8156
乒	-8157
侗	-8158
驹	-8159
镍	-8160
煎	-8161
绞	-8162
峨	-8163
鸠	-8164
厝	-8165
猿	-8166
蚁	-8167
缮	-8168
戍	-8169
稷	-8170
颅	-8171
匙	-8172
哨	-8173
瞻	-8174
谎	-8175
噬	-8176
汞	-8177
幂	-8178
盔	-8179
艮	-8180
谬	-8181
馈	-8182
瘾	-8183
箕	-8184
洒	-8185
淤	-8186
稠	-8187
蜥	-8188
俩	-8189
筛	-8190
贱	-8191
笙	-8192
躯	-8193
浚	-8194
酚	-8195
凑	-8196
撕	-8197
哉	-8198
腕	-8199
垮	-8200
於	-8201
驯	-8202
盎	-8203
肋	-8204
辗	-8205
晃	-8206
笠	-8207
祚	-8208
睹	-8209
嫔	-8210
桩	-8211
楞	-8212
刮	-8213
瘟	-8214
萤	-8215
蝉	-8216
妨	-8217
桧	-8218
浒	-8219
邺	-8220
晷	-8221
睦	-8222
鞑	-8223
磺	-8224
蕊	-8225
侮	-8226
耆	-8227
诃	-8228
刃	-8229
苛	-8230
夭	-8231
郸	-8232
挟	-8233
瓯	-8234
沥	-8235
咽	-8236
娥	-8237
羟	-8238
蚊	-8239
蝴	-8240
桦	-8241
铲	-8242
雯	-8243
堀	-8244
潼	-8245
酪	-8246
陡	-8247
颚	-8248
疹	-8249
霆	-8250
挝	-8251
锂	-8252
炬	-8253
蒜	-8254
霄	-8255
烛	-8256
鸽	-8257
】	-8258
篆	-8259
杞	-8260
【	-8261
掳	-8262
摸	-8263
瞄	-8264
埗	-8265
捞	-8266
晒	-8267
泵	-8268
韧	-8269
煽	-8270
腥	-8271
剃	-8272
愁	-8273
暱	-8274
炯	-8275
伶	-8276
簿	-8277
沮	-8278
沽	-8279
沾	-8280
灼	-8281
蔑	-8282
殆	-8283
捍	-8284
犀	-8285
阙	-8286
韬	-8287
樵	-8288
苔	-8289
邢	-8290
乍	-8291
萎	-8292
汲	-8293
诫	-8294
娴	-8295
灿	-8296
跪	-8297
馏	-8298
隘	-8299
陋	-8300
岂	-8301
靼	-8302
炀	-8303
殴	-8304
琵	-8305
祂	-8306
冉	-8307
肽	-8308
逗	-8309
喂	-8310
泻	-8311
熵	-8312
艋	-8313
氹	-8314
舺	-8315
讷	-8316
椰	-8317
岚	-8318
碘	-8319
膳	-8320
斡	-8321
锯	-8322
帛	-8323
恤	-8324
柠	-8325
胥	-8326
觅	-8327
鹭	-8328
乓	-8329
菁	-8330
钛	-8331
瀛	-8332
笨	-8333
蜘	-8334
饷	-8335
媛	-8336
桢	-8337
琶	-8338
喘	-8339
弈	-8340
瘫	-8341
膛	-8342
琛	-8343
棘	-8344
恺	-8345
锻	-8346
梗	-8347
雉	-8348
氰	-8349
粪	-8350
翟	-8351
闷	-8352
羁	-8353
饪	-8354
朽	-8355
瑾	-8356
捆	-8357
腻	-8358
诅	-8359
瞩	-8360
咎	-8361
挠	-8362
溜	-8363
漕	-8364
皋	-8365
隍	-8366
侈	-8367
佚	-8368
敞	-8369
琐	-8370
颤	-8371
鹃	-8372
洼	-8373
臻	-8374
檬	-8375
酉	-8376
埕	-8377
潟	-8378
瞒	-8379
鹊	-8380
俸	-8381
幌	-8382
溺	-8383
蜗	-8384
钊	-8385
匣	-8386
卉	-8387
癸	-8388
竺	-8389
辕	-8390
帧	-8391
苟	-8392
贮	-8393
嘎	-8394
葫	-8395
馨	-8396
屑	-8397
汴	-8398
兖	-8399
肴	-8400
娇	-8401
憩	-8402
皂	-8403
遏	-8404
麾	-8405
哗	-8406
桨	-8407
馅	-8408
撼	-8409
沅	-8410
苓	-8411
咪	-8412
瞿	-8413
旷	-8414
秃	-8415
雳	-8416
轼	-8417
焘	-8418
濠	-8419
镁	-8420
耸	-8421
脾	-8422
谤	-8423
莒	-8424
赂	-8425
崭	-8426
隅	-8427
驴	-8428
泣	-8429
烘	-8430
笋	-8431
峭	-8432
晕	-8433
梳	-8434
垩	-8435
薰	-8436
粥	-8437
靶	-8438
岔	-8439
躁	-8440
铂	-8441
擢	-8442
矫	-8443
肛	-8444
坜	-8445
柑	-8446
巳	-8447
溴	-8448
霹	-8449
鳄	-8450
豁	-8451
巅	-8452
悄	-8453
狙	-8454
兜	-8455
狸	-8456
衢	-8457
暮	-8458
痪	-8459
莓	-8460
挣	-8461
姨	-8462
朕	-8463
竿	-8464
莹	-8465
昧	-8466
炽	-8467
卯	-8468
毋	-8469
恕	-8470
瓮	-8471
穹	-8472
胰	-8473
锰	-8474
媚	-8475
拌	-8476
钵	-8477
淇	-8478
佗	-8479
戮	-8480
扔	-8481
绮	-8482
臧	-8483
扯	-8484
槛	-8485
痴	-8486
泸	-8487
锈	-8488
吵	-8489
呆	-8490
茱	-8491
诡	-8492
杠	-8493
讶	-8494
渲	-8495
芹	-8496
酥	-8497
铯	-8498
妒	-8499
楔	-8500
皈	-8501
奚	-8502
孵	-8503
栓	-8504
槃	-8505
谚	-8506
煞	-8507
簇	-8508
疮	-8509
茜	-8510
镀	-8511
篷	-8512
颉	-8513
挚	-8514
蓟	-8515
咐	-8516
懋	-8517
濬	-8518
扼	-8519
盼	-8520
禀	-8521
羡	-8522
拷	-8523
瑛	-8524
羧	-8525
聆	-8526
咳	-8527
裘	-8528
靴	-8529
翘	-8530
睐	-8531
蝇	-8532
衮	-8533
谒	-8534
侏	-8535
毘	-8536
琰	-8537
舵	-8538
诰	-8539
倦	-8540
龛	-8541
寰	-8542
戟	-8543
殡	-8544
甥	-8545
隼	-8546
奘	-8547
捣	-8548
悍	-8549
赁	-8550
冗	-8551
弩	-8552
搅	-8553
淄	-8554
磐	-8555
绛	-8556
鄱	-8557
骰	-8558
孢	-8559
甬	-8560
魄	-8561
愧	-8562
濮	-8563
僻	-8564
鹘	-8565
惰	-8566
嬴	-8567
晦	-8568
潢	-8569
恳	-8570
渥	-8571
窥	-8572
铬	-8573
婷	-8574
砸	-8575
诀	-8576
妊	-8577
珅	-8578
槐	-8579
黯	-8580
庾	-8581
彤	-8582
钰	-8583
芥	-8584
樽	-8585
濂	-8586
胱	-8587
骇	-8588
埼	-8589
湄	-8590
坍	-8591
岷	-8592
镖	-8593
逵	-8594
讹	-8595
辙	-8596
嗅	-8597
孺	-8598
褚	-8599
钗	-8600
倘	-8601
揆	-8602
攸	-8603
珪	-8604
埤	-8605
帘	-8606
蕙	-8607
轭	-8608
苇	-8609
蔷	-8610
颍	-8611
渎	-8612
腌	-8613
莆	-8614
钨	-8615
鳌	-8616
偃	-8617
瑕	-8618
硼	-8619
镐	-8620
掺	-8621
鞘	-8622
婢	-8623
糯	-8624
荟	-8625
迂	-8626
榔	-8627
狠	-8628
臀	-8629
涧	-8630
吡	-8631
哆	-8632
陌	-8633
剔	-8634
昊	-8635
翊	-8636
萱	-8637
筠	-8638
诽	-8639
曙	-8640
灸	-8641
闾	-8642
巍	-8643
瑁	-8644
窜	-8645
傣	-8646
扳	-8647
炙	-8648
睾	-8649
嫉	-8650
龈	-8651
琏	-8652
贻	-8653
弑	-8654
砷	-8655
呕	-8656
纶	-8657
鄙	-8658
讥	-8659
沱	-8660
芋	-8661
蝎	-8662
丫	-8663
憎	-8664
耍	-8665
哮	-8666
拐	-8667
醚	-8668
丐	-8669
崁	-8670
扈	-8671
侃	-8672
芷	-8673
悯	-8674
暇	-8675
鸥	-8676
铊	-8677
匮	-8678
芸	-8679
赈	-8680
锑	-8681
匆	-8682
姪	-8683
毯	-8684
熏	-8685
辍	-8686
鲗	-8687
倩	-8688
孀	-8689
峪	-8690
燮	-8691
躺	-8692
啶	-8693
皱	-8694
榈	-8695
肘	-8696
迥	-8697
鸾	-8698
佃	-8699
壕	-8700
硒	-8701
耦	-8702
衅	-8703
臼	-8704
蟾	-8705
邕	-8706
陂	-8707
懒	-8708
糙	-8709
蠢	-8710
聿	-8711
唾	-8712
娟	-8713
眺	-8714
叮	-8715
钝	-8716
靓	-8717
唔	-8718
蒿	-8719
浇	-8720
癫	-8721
砾	-8722
舷	-8723
炫	-8724
牒	-8725
跻	-8726
銮	-8727
弋	-8728
畑	-8729
诣	-8730
歪	-8731
洮	-8732
玮	-8733
睢	-8734
拙	-8735
昙	-8736
沐	-8737
萼	-8738
釉	-8739
汛	-8740
畲	-8741
秽	-8742
氙	-8743
锚	-8744
阱	-8745
哑	-8746
砚	-8747
峦	-8748
溧	-8749
喃	-8750
铍	-8751
峇	-8752
襟	-8753
飙	-8754
呐	-8755
羹	-8756
蕨	-8757
觐	-8758
谛	-8759
逍	-8760
铵	-8761
笈	-8762
谔	-8763
滔	-8764
浜	-8765
镕	-8766
枋	-8767
柝	-8768
珲	-8769
媳	-8770
芮	-8771
酌	-8772
茫	-8773
幡	-8774
锺	-8775
揉	-8776
稼	-8777
筝	-8778
惶	-8779
纾	-8780
涪	-8781
崧	-8782
莘	-8783
骅	-8784
荼	-8785
褶	-8786
亳	-8787
兮	-8788
氡	-8789
葆	-8790
僖	-8791
昨	-8792
涿	-8793
猷	-8794
铨	-8795
桅	-8796
熄	-8797
沌	-8798
蚝	-8799
遁	-8800
吠	-8801
撇	-8802
攘	-8803
膺	-8804
郢	-8805
奄	-8806
慷	-8807
蘑	-8808
蜴	-8809
雒	-8810
伎	-8811
捏	-8812
俨	-8813
鞅	-8814
蚂	-8815
亵	-8816
忏	-8817
俑	-8818
绶	-8819
靳	-8820
挨	-8821
掖	-8822
纣	-8823
苞	-8824
迺	-8825
鸮	-8826
孽	-8827
碉	-8828
颌	-8829
吩	-8830
捻	-8831
曦	-8832
氐	-8833
傻	-8834
氓	-8835
玳	-8836
籽	-8837
刁	-8838
呀	-8839
脍	-8840
踩	-8841
辄	-8842
凋	-8843
鳃	-8844
熬	-8845
嬉	-8846
拂	-8847
榨	-8848
烽	-8849
璜	-8850
绫	-8851
骈	-8852
恬	-8853
摹	-8854
祜	-8855
钡	-8856
颓	-8857
渚	-8858
漓	-8859
窘	-8860
涤	-8861
聋	-8862
纥	-8863
骊	-8864
蜕	-8865
篱	-8866
旌	-8867
漱	-8868
磋	-8869
阗	-8870
鞠	-8871
劈	-8872
锕	-8873
佟	-8874
柿	-8875
犍	-8876
绯	-8877
贲	-8878
辫	-8879
酗	-8880
叡	-8881
怯	-8882
懈	-8883
畸	-8884
绢	-8885
膑	-8886
亢	-8887
柩	-8888
洱	-8889
荥	-8890
妍	-8891
弛	-8892
涟	-8893
裳	-8894
愍	-8895
阇	-8896
骠	-8897
珥	-8898
瞎	-8899
怠	-8900
槿	-8901
潍	-8902
瞳	-8903
箴	-8904
尬	-8905
晟	-8906
虱	-8907
螂	-8908
靺	-8909
嚣	-8910
滦	-8911
谯	-8912
馥	-8913
驸	-8914
潞	-8915
箔	-8916
粽	-8917
骞	-8918
疵	-8919
羯	-8920
郴	-8921
圃	-8922
寥	-8923
尴	-8924
鞨	-8925
桀	-8926
阉	-8927
桔	-8928
璇	-8929
脖	-8930
缢	-8931
蠕	-8932
饺	-8933
峤	-8934
漩	-8935
藓	-8936
锗	-8937
鲑	-8938
琥	-8939
珂	-8940
胄	-8941
菅	-8942
烫	-8943
痘	-8944
霑	-8945
宕	-8946
檎	-8947
鼐	-8948
浔	-8949
茉	-8950
娠	-8951
僭	-8952
叭	-8953
吼	-8954
唆	-8955
嫂	-8956
蛟	-8957
潇	-8958
皿	-8959
佰	-8960
圩	-8961
琮	-8962
躬	-8963
酝	-8964
撮	-8965
泷	-8966
冼	-8967
娲	-8968
昶	-8969
澈	-8970
珞	-8971
蚩	-8972
钴	-8973
娩	-8974
晔	-8975
纭	-8976
貂	-8977
戛	-8978
拇	-8979
趟	-8980
踞	-8981
迳	-8982
嗽	-8983
峒	-8984
戳	-8985
拣	-8986
湍	-8987
缙	-8988
翦	-8989
诟	-8990
筲	-8991
镧	-8992
俚	-8993
惕	-8994
璐	-8995
遴	-8996
遽	-8997
郃	-8998
囱	-8999
呤	-9000
恃	-9001
粲	-9002
脐	-9003
曳	-9004
遐	-9005
髅	-9006
叟	-9007
枭	-9008
渍	-9009
碌	-9010
耽	-9011
鸳	-9012
劭	-9013
邳	-9014
锷	-9015
澡	-9016
麝	-9017
昱	-9018
窒	-9019
锝	-9020
彧	-9021
晁	-9022
疡	-9023
菠	-9024
蝗	-9025
鄞	-9026
铱	-9027
戡	-9028
榻	-9029
葺	-9030
钼	-9031
叩	-9032
澧	-9033
痰	-9034
镅	-9035
堃	-9036
堑	-9037
歆	-9038
淦	-9039
鑫	-9040
姥	-9041
慑	-9042
挞	-9043
筵	-9044
镭	-9045
炖	-9046
盏	-9047
羰	-9048
鸯	-9049
凄	-9050
嘌	-9051
坳	-9052
捡	-9053
跆	-9054
驭	-9055
嚼	-9056
岬	-9057
粱	-9058
铌	-9059
骷	-9060
黍	-9061
瞰	-9062
紊	-9063
昕	-9064
栎	-9065
脷	-9066
跤	-9067
娼	-9068
惇	-9069
璞	-9070
栾	-9071
卅	-9072
喧	-9073
奭	-9074
镛	-9075
鹫	-9076
抖	-9077
栱	-9078
淅	-9079
诩	-9080
颊	-9081
夔	-9082
屁	-9083
斛	-9084
痒	-9085
糜	-9086
枉	-9087
烁	-9088
焙	-9089
甩	-9090
痫	-9091
锶	-9092
婪	-9093
沭	-9094
燊	-9095
骁	-9096
俏	-9097
巽	-9098
摒	-9099
睽	-9100
贰	-9101
赃	-9102
佘	-9103
泓	-9104
涝	-9105
煜	-9106
滁	-9107
烙	-9108
昵	-9109
柚	-9110
脓	-9111
醮	-9112
橇	-9113
谗	-9114
俪	-9115
叻	-9116
嘧	-9117
嵇	-9118
钜	-9119
崴	-9120
诲	-9121
锢	-9122
忻	-9123
椿	-9124
蠡	-9125
栩	-9126
瀚	-9127
蛤	-9128
阆	-9129
啰	-9130
圻	-9131
扒	-9132
莪	-9133
蜈	-9134
铳	-9135
铷	-9136
宸	-9137
箫	-9138
赓	-9139
钽	-9140
锔	-9141
缎	-9142
蛾	-9143
郦	-9144
徕	-9145
狡	-9146
秧	-9147
缕	-9148
苌	-9149
萸	-9150
袒	-9151
驮	-9152
猝	-9153
痊	-9154
锭	-9155
鼬	-9156
啼	-9157
癖	-9158
絮	-9159
蚣	-9160
梢	-9161
琨	-9162
碾	-9163
羔	-9164
寞	-9165
惮	-9166
掣	-9167
蟠	-9168
俟	-9169
岌	-9170
炜	-9171
琢	-9172
筷	-9173
舫	-9174
茧	-9175
赘	-9176
勺	-9177
妳	-9178
徘	-9179
斟	-9180
楣	-9181
谶	-9182
佼	-9183
抉	-9184
榷	-9185
湮	-9186
醍	-9187
乂	-9188
乖	-9189
岘	-9190
楹	-9191
繇	-9192
荞	-9193
哄	-9194
嗓	-9195
瓒	-9196
荚	-9197
醐	-9198
钳	-9199
铠	-9200
锫	-9201
卞	-9202
媲	-9203
岀	-9204
钇	-9205
佯	-9206
徊	-9207
玟	-9208
秤	-9209
铢	-9210
杵	-9211
榭	-9212
呜	-9213
啄	-9214
妲	-9215
筿	-9216
殇	-9217
疱	-9218
窖	-9219
裨	-9220
尻	-9221
撃	-9222
獾	-9223
腋	-9224
荪	-9225
锟	-9226
饵	-9227
骡	-9228
髻	-9229
珑	-9230
琊	-9231
磊	-9232
笺	-9233
幺	-9234
挛	-9235
螯	-9236
镌	-9237
藕	-9238
虢	-9239
馒	-9240
忱	-9241
檄	-9242
歙	-9243
阖	-9244
涕	-9245
矗	-9246
砀	-9247
胪	-9248
蕲	-9249
蜒	-9250
轲	-9251
悫	-9252
涓	-9253
肄	-9254
轶	-9255
鳗	-9256
屎	-9257
徭	-9258
猖	-9259
孪	-9260
歹	-9261
疤	-9262
硖	-9263
孛	-9264
揣	-9265
梆	-9266
褫	-9267
钚	-9268
镳	-9269
馀	-9270
弁	-9271
猕	-9272
砹	-9273
蒯	-9274
薨	-9275
刍	-9276
帚	-9277
怂	-9278
洵	-9279
炔	-9280
矾	-9281
铿	-9282
鸵	-9283
僳	-9284
恿	-9285
琬	-9286
痢	-9287
夯	-9288
懦	-9289
珈	-9290
祉	-9291
醯	-9292
匝	-9293
帑	-9294
昴	-9295
枷	-9296
泮	-9297
轧	-9298
鳖	-9299
佥	-9300
俐	-9301
帷	-9302
痉	-9303
喆	-9304
殁	-9305
菟	-9306
讧	-9307
亟	-9308
厮	-9309
氩	-9310
灏	-9311
牦	-9312
蜿	-9313
诒	-9314
蹲	-9315
辎	-9316
邛	-9317
傈	-9318
勐	-9319
滘	-9320
烬	-9321
诂	-9322
鹗	-9323
凳	-9324
哙	-9325
婺	-9326
溅	-9327
蛹	-9328
铋	-9329
闳	-9330
闺	-9331
鬃	-9332
垅	-9333
暧	-9334
瘠	-9335
迩	-9336
亘	-9337
醴	-9338
吒	-9339
嘻	-9340
烨	-9341
蚤	-9342
谪	-9343
邈	-9344
隗	-9345
骥	-9346
拚	-9347
笞	-9348
觊	-9349
觎	-9350
铮	-9351
勗	-9352
啮	-9353
惫	-9354
桁	-9355
孰	-9356
庑	-9357
橱	-9358
燧	-9359
祗	-9360
鄢	-9361
霰	-9362
髦	-9363
俳	-9364
咙	-9365
恽	-9366
柘	-9367
煲	-9368
盂	-9369
腭	-9370
荻	-9371
铼	-9372
幔	-9373
莅	-9374
蔺	-9375
鱀	-9376
捩	-9377
汨	-9378
罔	-9379
蛎	-9380
谑	-9381
毡	-9382
漪	-9383
璿	-9384
盱	-9385
茸	-9386
蛊	-9387
褪	-9388
诋	-9389
鉲	-9390
隽	-9391
龢	-9392
擂	-9393
筏	-9394
韭	-9395
顼	-9396
骧	-9397
浣	-9398
蟒	-9399
忿	-9400
拗	-9401
拮	-9402
敍	-9403
渺	-9404
煦	-9405
瑭	-9406
胭	-9407
薙	-9408
鲛	-9409
谿	-9410
踵	-9411
钍	-9412
陲	-9413
掏	-9414
榛	-9415
蚓	-9416
觞	-9417
诘	-9418
鄯	-9419
隈	-9420
浬	-9421
煊	-9422
牍	-9423
螃	-9424
铕	-9425
馑	-9426
攒	-9427
痹	-9428
讣	-9429
踝	-9430
邝	-9431
锄	-9432
嫖	-9433
悚	-9434
殓	-9435
沣	-9436
眩	-9437
艏	-9438
奂	-9439
汜	-9440
瑯	-9441
碁	-9442
绊	-9443
蛰	-9444
蜓	-9445
锇	-9446
佤	-9447
俶	-9448
涸	-9449
疚	-9450
痺	-9451
苴	-9452
謇	-9453
饬	-9454
垢	-9455
様	-9456
淝	-9457
碇	-9458
镠	-9459
雹	-9460
傉	-9461
咄	-9462
婕	-9463
槌	-9464
璟	-9465
疽	-9466
窍	-9467
芎	-9468
豌	-9469
逅	-9470
颛	-9471
鸢	-9472
壑	-9473
洙	-9474
簷	-9475
绀	-9476
袈	-9477
讫	-9478
邂	-9479
钫	-9480
阂	-9481
霾	-9482
噩	-9483
娑	-9484
炊	-9485
瞭	-9486
芾	-9487
裟	-9488
蹴	-9489
郧	-9490
钒	-9491
闿	-9492
玑	-9493
腑	-9494
藐	-9495
螳	-9496
呵	-9497
掸	-9498
鹈	-9499
暐	-9500
澍	-9501
绽	-9502
菏	-9503
垛	-9504
蒨	-9505
逞	-9506
邃	-9507
锿	-9508
傕	-9509
咯	-9510
嗲	-9511
嬅	-9512
悌	-9513
瑠	-9514
筱	-9515
蜻	-9516
诙	-9517
豉	-9518
鲲	-9519
岖	-9520
胧	-9521
褂	-9522
侥	-9523
怛	-9524
湟	-9525
獗	-9526
砵	-9527
谳	-9528
麂	-9529
妫	-9530
屹	-9531
涎	-9532
牯	-9533
缨	-9534
墉	-9535
揪	-9536
氖	-9537
獭	-9538
睫	-9539
茗	-9540
踊	-9541
阑	-9542
椁	-9543
歳	-9544
钸	-9545
畠	-9546
眙	-9547
阈	-9548
鱿	-9549
儋	-9550
臆	-9551
蔻	-9552
锵	-9553
镂	-9554
匕	-9555
弭	-9556
恙	-9557
绚	-9558
耒	-9559
茴	-9560
蔼	-9561
赡	-9562
锴	-9563
啬	-9564
惭	-9565
杲	-9566
爹	-9567
罄	-9568
轸	-9569
鎗	-9570
鳕	-9571
嵯	-9572
胫	-9573
藜	-9574
咕	-9575
崂	-9576
挹	-9577
汹	-9578
疝	-9579
嘘	-9580
燎	-9581
粿	-9582
诹	-9583
坌	-9584
杼	-9585
睁	-9586
祆	-9587
祢	-9588
绷	-9589
缜	-9590
陉	-9591
唁	-9592
噜	-9593
旃	-9594
朦	-9595
糸	-9596
腮	-9597
鬣	-9598
嵊	-9599
澂	-9600
翎	-9601
脇	-9602
蜚	-9603
颢	-9604
坵	-9605
娣	-9606
痔	-9607
癣	-9608
瞪	-9609
祎	-9610
稗	-9611
蹶	-9612
钺	-9613
阕	-9614
嫦	-9615
窰	-9616
竑	-9617
脯	-9618
霓	-9619
佾	-9620
憬	-9621
氘	-9622
沔	-9623
羿	-9624
萜	-9625
蹂	-9626
敝	-9627
涣	-9628
濡	-9629
稔	-9630
穰	-9631
剽	-9632
掾	-9633
漯	-9634
璀	-9635
皝	-9636
邾	-9637
阏	-9638
䜣	-9639
朊	-9640
蟑	-9641
谙	-9642
旻	-9643
湳	-9644
焯	-9645
瑷	-9646
郗	-9647
徳	-9648
撷	-9649
漾	-9650
砥	-9651
砦	-9652
碲	-9653
糠	-9654
蹦	-9655
辇	-9656
邬	-9657
酐	-9658
阡	-9659
麋	-9660
崽	-9661
嵬	-9662
憧	-9663
昀	-9664
氪	-9665
猾	-9666
阋	-9667
塽	-9668
惋	-9669
潦	-9670
蚯	-9671
躏	-9672
镱	-9673
饨	-9674
仡	-9675
偈	-9676
爻	-9677
猥	-9678
覃	-9679
铣	-9680
刎	-9681
哒	-9682
唭	-9683
嵋	-9684
瓘	-9685
祟	-9686
腱	-9687
逛	-9688
钐	-9689
馄	-9690
鲔	-9691
吝	-9692
唢	-9693
垭	-9694
妤	-9695
捺	-9696
犊	-9697
荤	-9698
鲫	-9699
恸	-9700
搓	-9701
昺	-9702
璘	-9703
笏	-9704
缭	-9705
罂	-9706
肮	-9707
赟	-9708
镓	-9709
霭	-9710
囿	-9711
岫	-9712
恍	-9713
沓	-9714
碚	-9715
肱	-9716
锜	-9717
镉	-9718
伉	-9719
佞	-9720
傚	-9721
唧	-9722
姗	-9723
晾	-9724
瑄	-9725
疣	-9726
蓼	-9727
豺	-9728
趸	-9729
鹑	-9730
鹕	-9731
嘶	-9732
扪	-9733
瑗	-9734
瘀	-9735
镝	-9736
扛	-9737
爰	-9738
甾	-9739
缤	-9740
谧	-9741
霁	-9742
滂	-9743
蜃	-9744
咆	-9745
堺	-9746
媾	-9747
揄	-9748
朐	-9749
蜍	-9750
袄	-9751
郤	-9752
钷	-9753
倻	-9754
澹	-9755
秣	-9756
蟀	-9757
铤	-9758
镎	-9759
湣	-9760
禛	-9761
箍	-9762
蘸	-9763
闩	-9764
鲧	-9765
厩	-9766
喱	-9767
囤	-9768
彷	-9769
玷	-9770
璨	-9771
稹	-9772
辘	-9773
逖	-9774
陟	-9775
唑	-9776
堇	-9777
憨	-9778
昐	-9779
棂	-9780
橹	-9781
殃	-9782
濞	-9783
炆	-9784
焓	-9785
腈	-9786
郓	-9787
钯	-9788
颞	-9789
嶷	-9790
戾	-9791
梶	-9792
槎	-9793
縻	-9794
艉	-9795
蜑	-9796
鲈	-9797
刈	-9798
囍	-9799
恣	-9800
槲	-9801
磴	-9802
箓	-9803
骜	-9804
刽	-9805
恂	-9806
昰	-9807
栉	-9808
泞	-9809
澶	-9810
狒	-9811
疍	-9812
翩	-9813
萦	-9814
蚵	-9815
郅	-9816
乩	-9817
垠	-9818
淖	-9819
眈	-9820
祛	-9821
遶	-9822
邽	-9823
钏	-9824
铐	-9825
夙	-9826
玖	-9827
粑	-9828
铰	-9829
鹬	-9830
侪	-9831
宓	-9832
廆	-9833
溆	-9834
灞	-9835
玠	-9836
芍	-9837
荳	-9838
凛	-9839
垓	-9840
抟	-9841
盯	-9842
睇	-9843
碣	-9844
翱	-9845
蟋	-9846
趴	-9847
跷	-9848
铟	-9849
鸸	-9850
鹋	-9851
喾	-9852
嗟	-9853
猬	-9854
篙	-9855
咱	-9856
嚎	-9857
揶	-9858
擘	-9859
曷	-9860
枇	-9861
棻	-9862
缈	-9863
邙	-9864
飨	-9865
鳝	-9866
黻	-9867
杷	-9868
赉	-9869
锆	-9870
闼	-9871
颙	-9872
鳟	-9873
侂	-9874
俺	-9875
塱	-9876
寛	-9877
栢	-9878
溟	-9879
矜	-9880
铧	-9881
驷	-9882
鹳	-9883
僮	-9884
孖	-9885
簪	-9886
绾	-9887
蓓	-9888
蜢	-9889
镥	-9890
鬲	-9891
咁	-9892
哼	-9893
嘟	-9894
皎	-9895
綦	-9896
蹇	-9897
铥	-9898
髯	-9899
圜	-9900
坯	-9901
廪	-9902
沩	-9903
淌	-9904
璠	-9905
砺	-9906
跛	-9907
揖	-9908
涮	-9909
缇	-9910
贽	-9911
勰	-9912
寐	-9913
寔	-9914
嶋	-9915
苳	-9916
谌	-9917
郯	-9918
冇	-9919
嘅	-9920
戸	-9921
楂	-9922
洄	-9923
簋	-9924
耘	-9925
仝	-9926
俎	-9927
嚏	-9928
捶	-9929
晗	-9930
渑	-9931
睑	-9932
砻	-9933
礽	-9934
辻	-9935
铈	-9936
鲀	-9937
扉	-9938
攫	-9939
窿	-9940
赧	-9941
郫	-9942
髹	-9943
鲇	-9944
劢	-9945
拭	-9946
昉	-9947
珙	-9948
疸	-9949
翕	-9950
舔	-9951
蟆	-9952
辂	-9953
傩	-9954
咩	-9955
桉	-9956
豊	-9957
邰	-9958
酣	-9959
钹	-9960
伫	-9961
刨	-9962
吮	-9963
姒	-9964
椴	-9965
狈	-9966
獠	-9967
秆	-9968
蕈	-9969
袤	-9970
褓	-9971
鞮	-9972
亶	-9973
倣	-9974
呋	-9975
愕	-9976
焖	-9977
焗	-9978
猗	-9979
璁	-9980
缄	-9981
菽	-9982
匐	-9983
咲	-9984
孳	-9985
毬	-9986
痞	-9987
罟	-9988
迤	-9989
醌	-9990
阊	-9991
鲟	-9992
仞	-9993
珐	-9994
绌	-9995
耜	-9996
萘	-9997
蒽	-9998
钋	-9999
铛	-10000
鲭	-10001
鲱	-10002
泠	-10003
洹	-10004
砧	-10005
糅	-10006
膊	-10007
茁	-10008
诤	-10009
髀	-10010
鳐	-10011
咫	-10012
啉	-10013
濯	-10014
瘴	-10015
眶	-10016
筊	-10017
荖	-10018
蛀	-10019
袱	-10020
誊	-10021
蹊	-10022
埙	-10023
墘	-10024
徇	-10025
汊	-10026
烩	-10027
甪	-10028
舂	-10029
虬	-10030
螈	-10031
兢	-10032
嚈	-10033
埴	-10034
楫	-10035
熠	-10036
璩	-10037
痲	-10038
穂	-10039
芗	-10040
螨	-10041
轫	-10042
阚	-10043
靛	-10044
饕	-10045
饯	-10046
喋	-10047
婶	-10048
崮	-10049
弢	-10050
毌	-10051
涞	-10052
琇	-10053
瑀	-10054
磬	-10055
翳	-10056
蚡	-10057
馗	-10058
倬	-10059
帙	-10060
搪	-10061
晞	-10062
樋	-10063
籁	-10064
粳	-10065
豨	-10066
伕	-10067
勖	-10068
庠	-10069
柞	-10070
焜	-10071
皙	-10072
苕	-10073
郇	-10074
钤	-10075
坷	-10076
嵘	-10077
惺	-10078
拈	-10079
爨	-10080
犷	-10081
笳	-10082
萩	-10083
蔴	-10084
谩	-10085
鏖	-10086
闱	-10087
骋	-10088
鸬	-10089
鹚	-10090
黥	-10091
啜	-10092
嶂	-10093
暠	-10094
瀬	-10095
犒	-10096
碓	-10097
纫	-10098
罘	-10099
莿	-10100
蒴	-10101
訇	-10102
豢	-10103
邡	-10104
郞	-10105
霏	-10106
飒	-10107
䃅	-10108
佢	-10109
俣	-10110
嘿	-10111
墀	-10112
壅	-10113
搐	-10114
枸	-10115
殒	-10116
碛	-10117
纨	-10118
蚬	-10119
讴	-10120
蹬	-10121
鄄	-10122
酆	-10123
鹞	-10124
噌	-10125
圀	-10126
拽	-10127
樗	-10128
珉	-10129
芈	-10130
蝌	-10131
褥	-10132
谡	-10133
铪	-10134
鹄	-10135
増	-10136
彊	-10137
杓	-10138
枱	-10139
纮	-10140
莼	-10141
衹	-10142
讦	-10143
鎏	-10144
鯓	-10145
凫	-10146
啃	-10147
妞	-10148
浈	-10149
湃	-10150
珩	-10151
瓢	-10152
缵	-10153
膈	-10154
袂	-10155
邠	-10156
铆	-10157
驩	-10158
乜	-10159
仃	-10160
倔	-10161
嫪	-10162
孑	-10163
宥	-10164
淬	-10165
疥	-10166
眜	-10167
芡	-10168
苜	-10169
蓿	-10170
薜	-10171
谀	-10172
酢	-10173
鞣	-10174
韫	-10175
鬻	-10176
麿	-10177
鿔	-10178
匍	-10179
嶝	-10180
帼	-10181
懊	-10182
戦	-10183
榉	-10184
瓠	-10185
痤	-10186
瞧	-10187
磕	-10188
腩	-10189
苋	-10190
葭	-10191
蚪	-10192
谄	-10193
镄	-10194
雎	-10195
骘	-10196
髋	-10197
嘢	-10198
嵙	-10199
悸	-10200
撬	-10201
栃	-10202
磔	-10203
笪	-10204
颎	-10205
呛	-10206
咭	-10207
哚	-10208
啖	-10209
埭	-10210
毐	-10211
筮	-10212
箧	-10213
薮	-10214
蘅	-10215
赭	-10216
镫	-10217
鬓	-10218
鹮	-10219
埸	-10220
嫣	-10221
愎	-10222
榖	-10223
珣	-10224
邗	-10225
鹀	-10226
剁	-10227
吲	-10228
唛	-10229
峄	-10230
峠	-10231
旸	-10232
栻	-10233
沆	-10234
珮	-10235
畹	-10236
砒	-10237
窈	-10238
粧	-10239
綝	-10240
貔	-10241
貘	-10242
镤	-10243
鸱	-10244
鹌	-10245
嶲	-10246
愫	-10247
榫	-10248
煨	-10249
璈	-10250
箸	-10251
菈	-10252
萣	-10253
蔵	-10254
逋	-10255
馔	-10256
骝	-10257
鲢	-10258
伋	-10259
剡	-10260
哔	-10261
擧	-10262
柢	-10263
榊	-10264
溏	-10265
溱	-10266
筐	-10267
籀	-10268
臾	-10269
芫	-10270
褔	-10271
訚	-10272
鸨	-10273
丶	-10274
劻	-10275
圉	-10276
峥	-10277
掐	-10278
牂	-10279
獐	-10280
眨	-10281
胳	-10282
苎	-10283
鄠	-10284
闫	-10285
隰	-10286
馍	-10287
鬟	-10288
吖	-10289
嗪	-10290
忤	-10291
惣	-10292
搔	-10293
樛	-10294
氚	-10295
蹋	-10296
蹼	-10297
鄣	-10298
钆	-10299
钌	-10300
镞	-10301
镯	-10302
骢	-10303
鼹	-10304
㭴	-10305
嘈	-10306
圮	-10307
崃	-10308
掴	-10309
枹	-10310
樾	-10311
睬	-10312
砭	-10313
礴	-10314
稙	-10315
罡	-10316
舢	-10317
菓	-10318
阯	-10319
孱	-10320
惘	-10321
泯	-10322
渌	-10323
潺	-10324
炘	-10325
玕	-10326
甑	-10327
秭	-10328
羸	-10329
铖	-10330
雩	-10331
餮	-10332
埚	-10333
忡	-10334
恫	-10335
枞	-10336
桡	-10337
毎	-10338
濊	-10339
熜	-10340
狎	-10341
痈	-10342
箝	-10343
簸	-10344
腴	-10345
赝	-10346
迨	-10347
锾	-10348
鲷	-10349
鼷	-10350
勲	-10351
呦	-10352
咗	-10353
嬷	-10354
燄	-10355
獴	-10356
玆	-10357
玘	-10358
畯	-10359
瘪	-10360
肼	-10361
荽	-10362
诧	-10363
镬	-10364
鸻	-10365
黒	-10366
黠	-10367
妣	-10368
屉	-10369
徨	-10370
恻	-10371
篝	-10372
籼	-10373
綎	-10374
绦	-10375
茘	-10376
菖	-10377
蚶	-10378
讪	-10379
谲	-10380
麸	-10381
黝	-10382
尅	-10383
戆	-10384
拴	-10385
楸	-10386
浞	-10387
炁	-10388
珏	-10389
瓌	-10390
瘁	-10391
耙	-10392
茯	-10393
荠	-10394
貉	-10395
逹	-10396
郕	-10397
韪	-10398
佺	-10399
喹	-10400
嚷	-10401
塭	-10402
姫	-10403
崆	-10404
徵	-10405
毂	-10406
濉	-10407
獒	-10408
琤	-10409
盅	-10410
赳	-10411
遒	-10412
鲂	-10413
鲠	-10414
鲶	-10415
仵	-10416
侑	-10417
勅	-10418
叁	-10419
垸	-10420
嫘	-10421
戕	-10422
涔	-10423
湜	-10424
滓	-10425
炕	-10426
蕻	-10427
藔	-10428
蠹	-10429
豳	-10430
軚	-10431
龋	-10432
嗤	-10433
圯	-10434
庥	-10435
廍	-10436
廨	-10437
蓣	-10438
遑	-10439
郾	-10440
鄜	-10441
醂	-10442
骐	-10443
㑩	-10444
䓬	-10445
卍	-10446
喔	-10447
嘹	-10448
坨	-10449
坻	-10450
婵	-10451
嬗	-10452
戋	-10453
搀	-10454
斝	-10455
椽	-10456
洺	-10457
瞥	-10458
禑	-10459
稞	-10460
篾	-10461
缬	-10462
蚋	-10463
蟥	-10464
貊	-10465
隹	-10466
驺	-10467
鲵	-10468
鳔	-10469
鹛	-10470
啲	-10471
嚟	-10472
圹	-10473
崤	-10474
怆	-10475
歩	-10476
犽	-10477
疠	-10478
窣	-10479
缑	-10480
缯	-10481
舛	-10482
苾	-10483
莠	-10484
跩	-10485
迢	-10486
钕	-10487
雫	-10488
馁	-10489
卟	-10490
噻	-10491
悝	-10492
悴	-10493
戢	-10494
揍	-10495
栒	-10496
榎	-10497
燔	-10498
膦	-10499
蚱	-10500
钔	-10501
黟	-10502
伝	-10503
儆	-10504
喵	-10505
囡	-10506
彘	-10507
抡	-10508
斓	-10509
暄	-10510
朓	-10511
杳	-10512
耨	-10513
茭	-10514
荨	-10515
菀	-10516
蛭	-10517
蜷	-10518
觋	-10519
谘	-10520
遹	-10521
郿	-10522
関	-10523
仟	-10524
俅	-10525
啾	-10526
嗔	-10527
堞	-10528
岙	-10529
怅	-10530
扦	-10531
捅	-10532
撩	-10533
泱	-10534
狷	-10535
琚	-10536
痣	-10537
籐	-10538
糍	-10539
缦	-10540
莜	-10541
菰	-10542
薏	-10543
襁	-10544
镒	-10545
鸪	-10546
鸫	-10547
僰	-10548
呸	-10549
哋	-10550
憔	-10551
淙	-10552
滹	-10553
犸	-10554
璎	-10555
盥	-10556
脲	-10557
葩	-10558
蕰	-10559
蚜	-10560
螭	-10561
裱	-10562
铡	-10563
駅	-10564
鲥	-10565
鸩	-10566
黩	-10567
䶮	-10568
冏	-10569
呔	-10570
噱	-10571
坩	-10572
夤	-10573
撄	-10574
斫	-10575
沢	-10576
泚	-10577
湎	-10578
甙	-10579
窕	-10580
缗	-10581
菘	-10582
豕	-10583
赊	-10584
赍	-10585
郏	-10586
鏊	-10587
颀	-10588
颔	-10589
魇	-10590
仫	-10591
劄	-10592
卐	-10593
塬	-10594
狓	-10595
瑈	-10596
畬	-10597
硏	-10598
碴	-10599
胯	-10600
臬	-10601
茔	-10602
藁	-10603
跸	-10604
蹙	-10605
遨	-10606
酩	-10607
鹧	-10608
亓	-10609
傥	-10610
啯	-10611
姉	-10612
巻	-10613
廸	-10614
擀	-10615
晩	-10616
梿	-10617
楝	-10618
槻	-10619
歴	-10620
洸	-10621
浯	-10622
滏	-10623
疋	-10624
痍	-10625
胛	-10626
蕤	-10627
袴	-10628
貅	-10629
蹠	-10630
迸	-10631
鋐	-10632
锹	-10633
卣	-10634
埂	-10635
宍	-10636
惚	-10637
棨	-10638
槭	-10639
犼	-10640
珰	-10641
痂	-10642
痿	-10643
瘸	-10644
窠	-10645
繖	-10646
蓥	-10647
蛉	-10648
铑	-10649
驒	-10650
鳏	-10651
㹢	-10652
㺢	-10653
佻	-10654
哖	-10655
啥	-10656
嘏	-10657
埈	-10658
尪	-10659
嵴	-10660
幄	-10661
庖	-10662
徂	-10663
恵	-10664
愔	-10665
拧	-10666
摭	-10667
槊	-10668
欉	-10669
泺	-10670
洭	-10671
浍	-10672
涠	-10673
焱	-10674
犄	-10675
甗	-10676
睺	-10677
祏	-10678
秸	-10679
笕	-10680
茍	-10681
褛	-10682
赀	-10683
趵	-10684
跖	-10685
郛	-10686
酦	-10687
钿	-10688
霈	-10689
鳅	-10690
齮	-10691
両	-10692
佶	-10693
倜	-10694
凪	-10695
厓	-10696
唬	-10697
囧	-10698
専	-10699
屐	-10700
愆	-10701
楙	-10702
湫	-10703
滉	-10704
潴	-10705
畀	-10706
瘩	-10707
瞽	-10708
硚	-10709
禳	-10710
篪	-10711
蝾	-10712
赕	-10713
逑	-10714
鍙	-10715
镗	-10716
髑	-10717
鳊	-10718
倌	-10719
呻	-10720
哏	-10721
哦	-10722
壆	-10723
実	-10724
尕	-10725
掰	-10726
枳	-10727
柊	-10728
檗	-10729
滢	-10730
犰	-10731
狳	-10732
疙	-10733
瘿	-10734
祧	-10735
笆	-10736
粕	-10737
萁	-10738
裆	-10739
込	-10740
鋹	-10741
镣	-10742
雠	-10743
霎	-10744
骶	-10745
髂	-10746
鹇	-10747
鼩	-10748
咧	-10749
啻	-10750
妪	-10751
宬	-10752
愬	-10753
拏	-10754
毽	-10755
浐	-10756
牝	-10757
琹	-10758
畋	-10759
皑	-10760
笹	-10761
箐	-10762
肓	-10763
舎	-10764
蒟	-10765
蓁	-10766
蓑	-10767
诿	-10768
鄚	-10769
醪	-10770
鉄	-10771
钖	-10772
锛	-10773
鬯	-10774
魍	-10775
佉	-10776
倧	-10777
唃	-10778
囗	-10779
殚	-10780
熨	-10781
県	-10782
缟	-10783
聃	-10784
聩	-10785
蒻	-10786
螅	-10787
蠲	-10788
詧	-10789
豸	-10790
跗	-10791
鄩	-10792
酞	-10793
冽	-10794
勷	-10795
噢	-10796
幪	-10797
摈	-10798
狁	-10799
砜	-10800
绹	-10801
缰	-10802
芪	-10803
虺	-10804
觑	-10805
郷	-10806
鄫	-10807
鄮	-10808
钣	-10809
仼	-10810
劵	-10811
哌	-10812
坭	-10813
妩	-10814
婬	-10815
屌	-10816
崚	-10817
楯	-10818
淼	-10819
熺	-10820
燐	-10821
牁	-10822
箩	-10823
籴	-10824
縯	-10825
绂	-10826
罴	-10827
臃	-10828
舀	-10829
舐	-10830
茌	-10831
薤	-10832
蛱	-10833
蝰	-10834
踹	-10835
辏	-10836
辔	-10837
酃	-10838
钪	-10839
铙	-10840
颦	-10841
饴	-10842
髭	-10843
鯭	-10844
堉	-10845
墬	-10846
屄	-10847
彖	-10848
悭	-10849
挈	-10850
揸	-10851
暎	-10852
棹	-10853
樨	-10854
狞	-10855
箜	-10856
篌	-10857
翙	-10858
腧	-10859
芊	-10860
苣	-10861
莳	-10862
蛄	-10863
蛆	-10864
衽	-10865
觚	-10866
隠	-10867
鬬	-10868
丏	-10869
丼	-10870
匏	-10871
咝	-10872
嗑	-10873
夲	-10874
婧	-10875
廛	-10876
徬	-10877
揾	-10878
旄	-10879
桷	-10880
椋	-10881
榧	-10882
欤	-10883
瘙	-10884
癞	-10885
竦	-10886
総	-10887
翚	-10888
芃	-10889
蜇	-10890
铄	-10891
頼	-10892
鲣	-10893
呒	-10894
嗯	-10895
寳	-10896
幷	-10897
暌	-10898
榇	-10899
歛	-10900
汧	-10901
淓	-10902
濶	-10903
煅	-10904
猞	-10905
璥	-10906
畦	-10907
眸	-10908
缫	-10909
罽	-10910
莨	-10911
衪	-10912
袓	-10913
诳	-10914
赅	-10915
趺	-10916
躇	-10917
锽	-10918
鹂	-10919
値	-10920
円	-10921
呗	-10922
塩	-10923
嫄	-10924
寤	-10925
彟	-10926
怿	-10927
懵	-10928
戗	-10929
捎	-10930
搂	-10931
暅	-10932
杙	-10933
沘	-10934
涑	-10935
煚	-10936
猁	-10937
獬	-10938
痧	-10939
痨	-10940
皴	-10941
礡	-10942
篑	-10943
荩	-10944
蚴	-10945
蜱	-10946
踌	-10947
辺	-10948
醢	-10949
镆	-10950
饽	-10951
鸲	-10952
黼	-10953
龃	-10954
龉	-10955
乭	-10956
伷	-10957
冨	-10958
剜	-10959
吱	-10960
噍	-10961
姝	-10962
媪	-10963
峩	-10964
巂	-10965
憍	-10966
椤	-10967
楮	-10968
浤	-10969
淸	-10970
溘	-10971
炅	-10972
犂	-10973
畈	-10974
疳	-10975
瞋	-10976
砟	-10977
笄	-10978
籓	-10979
絜	-10980
羱	-10981
舨	-10982
藿	-10983
蜊	-10984
讵	-10985
赜	-10986
郜	-10987
鍱	-10988
铽	-10989
骓	-10990
鬘	-10991
䴓	-10992
䴘	-10993
䴙	-10994
伧	-10995
僊	-10996
啪	-10997
噏	-10998
塲	-10999
忞	-11000
懽	-11001
桫	-11002
槁	-11003
穑	-11004
粄	-11005
纛	-11006
舯	-11007
蓖	-11008
诔	-11009
诜	-11010
逄	-11011
钶	-11012
鞬	-11013
颧	-11014
骕	-11015
鲩	-11016
鹎	-11017
鹜	-11018
㓥	-11019
䴕	-11020
俵	-11021
傜	-11022
卬	-11023
叵	-11024
啱	-11025
嗉	-11026
団	-11027
娉	-11028
嶙	-11029
巌	-11030
扃	-11031
枥	-11032
気	-11033
浃	-11034
瀍	-11035
狍	-11036
猃	-11037
玙	-11038
玥	-11039
瓩	-11040
苫	-11041
螫	-11042
蠊	-11043
邲	-11044
邴	-11045
醺	-11046
锲	-11047
隣	-11048
飏	-11049
飚	-11050
鲋	-11051
鳉	-11052
鹟	-11053
乗	-11054
亹	-11055
効	-11056
卮	-11057
厔	-11058
呱	-11059
呾	-11060
哎	-11061
哽	-11062
囝	-11063
岿	-11064
廻	-11065
忾	-11066
惆	-11067
慵	-11068
揹	-11069
攞	-11070
曩	-11071
桎	-11072
桠	-11073
椪	-11074
橚	-11075
満	-11076
猊	-11077
玢	-11078
畤	-11079
瞌	-11080
瞑	-11081
筚	-11082
缥	-11083
翮	-11084
茏	-11085
荜	-11086
蒺	-11087
蝓	-11088
襦	-11089
酎	-11090
铩	-11091
髙	-11092
髡	-11093
鳀	-11094
鸶	-11095
㶞	-11096
倮	-11097
叨	-11098
噤	-11099
圏	-11100
嬖	-11101
帯	-11102
怙	-11103
掇	-11104
昃	-11105
昪	-11106
梏	-11107
橐	-11108
毖	-11109
盩	-11110
砝	-11111
禵	-11112
竽	-11113
缛	-11114
葳	-11115
蒗	-11116
蓇	-11117
蚺	-11118
蛞	-11119
蝮	-11120
覧	-11121
诨	-11122
踯	-11123
酊	-11124
鋆	-11125
镊	-11126
镏	-11127
鼋	-11128
喽	-11129
嗡	-11130
圄	-11131
堦	-11132
娈	-11133
媞	-11134
媵	-11135
嵛	-11136
巯	-11137
廑	-11138
徼	-11139
掬	-11140
敉	-11141
桕	-11142
椹	-11143
槙	-11144
洎	-11145
焼	-11146
狰	-11147
砰	-11148
硐	-11149
祓	-11150
粼	-11151
胝	-11152
腆	-11153
膻	-11154
葖	-11155
虻	-11156
蛔	-11157
螟	-11158
詝	-11159
蹑	-11160
躅	-11161
逯	-11162
遢	-11163
邋	-11164
鉨	-11165
锉	-11166
馃	-11167
馕	-11168
駄	-11169
鲎	-11170
厰	-11171
喳	-11172
囹	-11173
埇	-11174
尢	-11175
崞	-11176
巿	-11177
廙	-11178
掟	-11179
柰	-11180
殛	-11181
湉	-11182
潽	-11183
瀞	-11184
燿	-11185
牖	-11186
玚	-11187
疃	-11188
禩	-11189
绉	-11190
芩	-11191
袅	-11192
貍	-11193
赑	-11194
钬	-11195
铒	-11196
雑	-11197
頠	-11198
鳯	-11199
㭎	-11200
伾	-11201
呃	-11202
咚	-11203
哂	-11204
唏	-11205
噎	-11206
噗	-11207
埵	-11208
娆	-11209
婊	-11210
廼	-11211
徴	-11212
忖	-11213
戬	-11214
扺	-11215
拄	-11216
掂	-11217
搥	-11218
撵	-11219
椙	-11220
樯	-11221
氽	-11222
沤	-11223
洌	-11224
澥	-11225
烝	-11226
煸	-11227
燏	-11228
瞠	-11229
稲	-11230
粢	-11231
舸	-11232
荦	-11233
荸	-11234
葑	-11235
跣	-11236
蹒	-11237
轵	-11238
逶	-11239
鑛	-11240
镨	-11241
阄	-11242
飡	-11243
餽	-11244
鸰	-11245
丨	-11246
凇	-11247
叼	-11248
呷	-11249
咋	-11250
唳	-11251
囓	-11252
圪	-11253
垕	-11254
奁	-11255
屭	-11256
峋	-11257
斎	-11258
暝	-11259
栌	-11260
汆	-11261
泐	-11262
泫	-11263
浛	-11264
浠	-11265
漈	-11266
炤	-11267
煖	-11268
珽	-11269
璆	-11270
瘗	-11271
祔	-11272
竜	-11273
笮	-11274
紥	-11275
罍	-11276
茬	-11277
莴	-11278
蛲	-11279
蝽	-11280
觇	-11281
訾	-11282
谆	-11283
谵	-11284
隷	-11285
偁	-11286
偎	-11287
凖	-11288
劓	-11289
叽	-11290
唠	-11291
堠	-11292
壊	-11293
婓	-11294
庯	-11295
恚	-11296
惬	-11297
愣	-11298
枰	-11299
柒	-11300
柽	-11301
櫆	-11302
洧	-11303
渟	-11304
漉	-11305
玦	-11306
癜	-11307
発	-11308
绔	-11309
缶	-11310
胙	-11311
臊	-11312
茛	-11313
蓍	-11314
衄	-11315
衲	-11316
诶	-11317
谮	-11318
跚	-11319
辋	-11320
郪	-11321
銲	-11322
镈	-11323
镡	-11324
饹	-11325
馋	-11326
鹡	-11327
鹱	-11328
䓨	-11329
俦	-11330
偌	-11331
処	-11332
唵	-11333
嗦	-11334
垟	-11335
娓	-11336
嫚	-11337
広	-11338
悻	-11339
扆	-11340
旖	-11341
昞	-11342
枧	-11343
栳	-11344
槱	-11345
殄	-11346
沏	-11347
煴	-11348
绠	-11349
缁	-11350
肜	-11351
苊	-11352
蒡	-11353
蕹	-11354
藠	-11355
蘗	-11356
蛳	-11357
螠	-11358
袆	-11359
褴	-11360
谠	-11361
蹉	-11362
鉏	-11363
铚	-11364
陔	-11365
雟	-11366
饦	-11367
馎	-11368
馘	-11369
骃	-11370
鬪	-11371
鲅	-11372
鲮	-11373
鳜	-11374
鵙	-11375
鹩	-11376
黐	-11377
鼍	-11378
龁	-11379
龊	-11380
鿏	-11381
䇲	-11382
偻	-11383
刖	-11384
剣	-11385
呑	-11386
啧	-11387
嗱	-11388
埿	-11389
塙	-11390
姣	-11391
尙	-11392
嶍	-11393
帏	-11394
惦	-11395
捂	-11396
搆	-11397
旎	-11398
晳	-11399
栀	-11400
栲	-11401
楽	-11402
殽	-11403
泅	-11404
烜	-11405
皞	-11406
禊	-11407
簕	-11408
纡	-11409
缳	-11410
翃	-11411
翥	-11412
胴	-11413
膂	-11414
荏	-11415
蜉	-11416
蠵	-11417
衿	-11418
袛	-11419
谂	-11420
跄	-11421
蹭	-11422
鄗	-11423
鄘	-11424
铹	-11425
鳙	-11426
黉	-11427
黾	-11428
倨	-11429
倶	-11430
劬	-11431
唉	-11432
啕	-11433
嗒	-11434
図	-11435
墌	-11436
売	-11437
寘	-11438
崘	-11439
懑	-11440
捒	-11441
撚	-11442
攽	-11443
曱	-11444
桤	-11445
梃	-11446
椥	-11447
樘	-11448
檩	-11449
氿	-11450
汭	-11451
沄	-11452
燹	-11453
猇	-11454
玡	-11455
珺	-11456
甴	-11457
痖	-11458
眇	-11459
眦	-11460
眭	-11461
瞓	-11462
矧	-11463
禔	-11464
篦	-11465
綷	-11466
羕	-11467
舗	-11468
蘖	-11469
虿	-11470
裒	-11471
譔	-11472
豷	-11473
鞆	-11474
鞞	-11475
骀	-11476
魑	-11477
鹪	-11478
㬌	-11479
亀	-11480
亅	-11481
侔	-11482
俫	-11483
児	-11484
冴	-11485
勦	-11486
叆	-11487
咔	-11488
咛	-11489
嗄	-11490
嗝	-11491
嘤	-11492
埒	-11493
姘	-11494
媜	-11495
媭	-11496
孓	-11497
屻	-11498
崱	-11499
彅	-11500
徉	-11501
忝	-11502
扥	-11503
捽	-11504
晈	-11505
暦	-11506
暸	-11507
栊	-11508
潸	-11509
瀣	-11510
烺	-11511
犨	-11512
狛	-11513
琯	-11514
畧	-11515
疖	-11516
痱	-11517
磘	-11518
秬	-11519
穏	-11520
筅	-11521
箬	-11522
粜	-11523
紞	-11524
縠	-11525
羗	-11526
耷	-11527
胼	-11528
膘	-11529
苄	-11530
蒌	-11531
薹	-11532
衎	-11533
衾	-11534
褡	-11535
襌	-11536
賨	-11537
邆	-11538
雱	-11539
颥	-11540
馓	-11541
髪	-11542
鲽	-11543
麐	-11544
黈	-11545
鼇	-11546
齑	-11547
龌	-11548
㦃	-11549
倏	-11550
傒	-11551
啁	-11552
喼	-11553
嘀	-11554
埜	-11555
堈	-11556
堎	-11557
壸	-11558
対	-11559
岢	-11560
嵕	-11561
徜	-11562
忉	-11563
恁	-11564
慥	-11565
憋	-11566
懐	-11567
抠	-11568
拎	-11569
捭	-11570
旳	-11571
昖	-11572
杌	-11573
柷	-11574
棼	-11575
樉	-11576
汩	-11577
淏	-11578
湼	-11579
炷	-11580
烊	-11581
烱	-11582
瑸	-11583
痳	-11584
禥	-11585
篁	-11586
篓	-11587
篥	-11588
繋	-11589
纻	-11590
绺	-11591
罅	-11592
羑	-11593
茑	-11594
茕	-11595
菑	-11596
蕺	-11597
蘧	-11598
蜩	-11599
蝣	-11600
蝼	-11601
袢	-11602
裾	-11603
襞	-11604
詈	-11605
趼	-11606
轳	-11607
邶	-11608
镔	-11609
閦	-11610
骖	-11611
骙	-11612
鲙	-11613
鲻	-11614
麊	-11615
齢	-11616
䌷	-11617
亜	-11618
佧	-11619
侁	-11620
凃	-11621
刋	-11622
吿	-11623
嗨	-11624
噫	-11625
娀	-11626
寃	-11627
嵝	-11628
廌	-11629
懔	-11630
搾	-11631
撘	-11632
昇	-11633
杪	-11634
桄	-11635
梣	-11636
槰	-11637
橛	-11638
橼	-11639
渉	-11640
湓	-11641
牾	-11642
犴	-11643
狻	-11644
瘘	-11645
盹	-11646
砼	-11647
竝	-11648
継	-11649
绐	-11650
缣	-11651
翀	-11652
腼	-11653
芨	-11654
茆	-11655
荑	-11656
葚	-11657
蓦	-11658
蕅	-11659
蘼	-11660
蛏	-11661
诎	-11662
賸	-11663
贶	-11664
跏	-11665
踉	-11666
轾	-11667
酂	-11668
锏	-11669
锒	-11670
颡	-11671
饣	-11672
饸	-11673
骛	-11674
魃	-11675
魉	-11676
鲳	-11677
鲼	-11678
鸷	-11679
麹	-11680
鼱	-11681
鿫	-11682
伢	-11683
働	-11684
劼	-11685
厍	-11686
吆	-11687
吭	-11688
吽	-11689
呓	-11690
呙	-11691
哱	-11692
啫	-11693
喟	-11694
壝	-11695
岞	-11696
岣	-11697
幛	-11698
庲	-11699
彀	-11700
怏	-11701
怼	-11702
悛	-11703
憙	-11704
搡	-11705
搧	-11706
旒	-11707
旽	-11708
晌	-11709
曔	-11710
朶	-11711
栞	-11712
梼	-11713
槺	-11714
櫈	-11715
沨	-11716
洫	-11717
浄	-11718
浉	-11719
浡	-11720
漥	-11721
澁	-11722
炟	-11723
煃	-11724
熿	-11725
犠	-11726
珦	-11727
瘢	-11728
盉	-11729
盝	-11730
睗	-11731
砣	-11732
碏	-11733
簠	-11734
脔	-11735
艚	-11736
菝	-11737
菡	-11738
蓊	-11739
蕡	-11740
蛸	-11741
褙	-11742
觥	-11743
読	-11744
辊	-11745
逦	-11746
郐	-11747
铦	-11748
铫	-11749
锍	-11750
锱	-11751
镟	-11752
镪	-11753
闘	-11754
馐	-11755
鮀	-11756
鮨	-11757
鳢	-11758
鹆	-11759
黁	-11760
㗎	-11761
㬎	-11762
䌸	-11763
仂	-11764
佝	-11765
倓	-11766
偲	-11767
勔	-11768
匄	-11769
嗷	-11770
囯	-11771
垌	-11772
埧	-11773
堍	-11774
堙	-11775
夨	-11776
姞	-11777
婀	-11778
嬛	-11779
帰	-11780
悪	-11781
惴	-11782
捋	-11783
掮	-11784
揩	-11785
撂	-11786
旛	-11787
旰	-11788
昫	-11789
曌	-11790
杩	-11791
栝	-11792
栟	-11793
棓	-11794
楩	-11795
檞	-11796
殂	-11797
氤	-11798
氲	-11799
泖	-11800
洣	-11801
淯	-11802
滃	-11803
燵	-11804
牻	-11805
琫	-11806
瑢	-11807
瓐	-11808
瓿	-11809
甡	-11810
疔	-11811
瘜	-11812
矻	-11813
砬	-11814
禠	-11815
禨	-11816
秫	-11817
稃	-11818
籥	-11819
籾	-11820
経	-11821
纟	-11822
绻	-11823
缃	-11824
缐	-11825
脘	-11826
莩	-11827
菉	-11828
葜	-11829
薫	-11830
袪	-11831
赙	-11832
跞	-11833
蹩	-11834
輶	-11835
轘	-11836
遛	-11837
镃	-11838
陜	-11839
韮	-11840
颏	-11841
颕	-11842
饧	-11843
鴫	-11844
鼯	-11845
龠	-11846
㮾	-11847
丿	-11848
兕	-11849
刳	-11850
剐	-11851
匜	-11852
哟	-11853
喰	-11854
埯	-11855
変	-11856
妁	-11857
妬	-11858
妺	-11859
廋	-11860
怱	-11861
扞	-11862
扱	-11863
扵	-11864
抃	-11865
摁	-11866
攷	-11867
暲	-11868
暻	-11869
杈	-11870
枓	-11871
枵	-11872
椼	-11873
槠	-11874
氕	-11875
沚	-11876
煐	-11877
琜	-11878
瑱	-11879
瘕	-11880
砈	-11881
砫	-11882
砮	-11883
碻	-11884
礐	-11885
禋	-11886
禟	-11887
窋	-11888
笥	-11889
筇	-11890
筌	-11891
箨	-11892
篯	-11893
粍	-11894
糌	-11895
糬	-11896
絵	-11897
聡	-11898
肸	-11899
胍	-11900
菪	-11901
萋	-11902
蕖	-11903
虒	-11904
蚰	-11905
螣	-11906
螽	-11907
衒	-11908
覇	-11909
誔	-11910
豇	-11911
賛	-11912
贌	-11913
郳	-11914
釆	-11915
錬	-11916
钅	-11917
铏	-11918
陬	-11919
隄	-11920
颃	-11921
騒	-11922
鷟	-11923
黡	-11924
鼌	-11925
㐷	-11926
䂵	-11927
侩	-11928
偓	-11929
僔	-11930
冚	-11931
冧	-11932
刿	-11933
匂	-11934
呪	-11935
呴	-11936
咢	-11937
哝	-11938
唎	-11939
啣	-11940
喺	-11941
嗳	-11942
垆	-11943
垴	-11944
埏	-11945
媺	-11946
嫱	-11947
岧	-11948
峁	-11949
峘	-11950
嵒	-11951
嶚	-11952
巣	-11953
庹	-11954
廰	-11955
弾	-11956
徧	-11957
忐	-11958
忑	-11959
愦	-11960
慝	-11961
拺	-11962
掊	-11963
摞	-11964
摽	-11965
昝	-11966
晢	-11967
暾	-11968
曽	-11969
杬	-11970
楢	-11971
橞	-11972
橦	-11973
欹	-11974
歃	-11975
洑	-11976
淠	-11977
湔	-11978
滆	-11979
潋	-11980
濩	-11981
瀹	-11982
熘	-11983
玨	-11984
珓	-11985
瑊	-11986
畛	-11987
痼	-11988
眛	-11989
瞾	-11990
祃	-11991
祅	-11992
祹	-11993
窨	-11994
筰	-11995
缊	-11996
艸	-11997
芘	-11998
苡	-11999
茈	-12000
菻	-12001
蒉	-12002
蕗	-12003
蜞	-12004
覩	-12005
訏	-12006
讉	-12007
跎	-12008
蹿	-12009
辵	-12010
迓	-12011
逡	-12012
遘	-12013
邘	-12014
酹	-12015
錾	-12016
鎓	-12017
鏸	-12018
鑢	-12019
钘	-12020
锘	-12021
霨	-12022
靑	-12023
鲊	-12024
鲘	-12025
鲚	-12026
麈	-12027
黧	-12028
㖊	-12029
㚻	-12030
仉	-12031
仳	-12032
伥	-12033
俀	-12034
凼	-12035
匚	-12036
喑	-12037
嗥	-12038
圌	-12039
垡	-12040
垤	-12041
堌	-12042
塀	-12043
墁	-12044
墭	-12045
壻	-12046
夛	-12047
嫒	-12048
峣	-12049
崐	-12050
崠	-12051
嵓	-12052
帔	-12053
弇	-12054
弰	-12055
悒	-12056
惓	-12057
戥	-12058
戯	-12059
抜	-12060
抺	-12061
拊	-12062
搠	-12063
摠	-12064
撅	-12065
旵	-12066
昑	-12067
昜	-12068
晸	-12069
柸	-12070
栜	-12071
栴	-12072
棫	-12073
槇	-12074
殍	-12075
殳	-12076
氵	-12077
渕	-12078
澉	-12079
濙	-12080
狯	-12081
猱	-12082
琍	-12083
璮	-12084
瓖	-12085
畮	-12086
疴	-12087
睚	-12088
睨	-12089
礅	-12090
祩	-12091
笾	-12092
筈	-12093
箦	-12094
簃	-12095
簟	-12096
絷	-12097
緃	-12098
纰	-12099
绖	-12100
缱	-12101
罸	-12102
耄	-12103
聒	-12104
聴	-12105
聼	-12106
胂	-12107
臈	-12108
舣	-12109
艟	-12110
艶	-12111
艿	-12112
苅	-12113
茀	-12114
葶	-12115
蒎	-12116
蔹	-12117
蘩	-12118
蝘	-12119
螉	-12120
蠖	-12121
裢	-12122
観	-12123
觜	-12124
觝	-12125
謢	-12126
讠	-12127
跺	-12128
踼	-12129
軽	-12130
辶	-12131
酤	-12132
鑨	-12133
钲	-12134
阌	-12135
阍	-12136
阝	-12137
阬	-12138
隳	-12139
霅	-12140
骎	-12141
鼒	-12142
㝅	-12143
㵲	-12144
剉	-12145
匋	-12146
収	-12147
咂	-12148
咥	-12149
哕	-12150
嗢	-12151
坧	-12152
垱	-12153
垲	-12154
塍	-12155
塨	-12156
姮	-12157
嬿	-12158
寯	-12159
屘	-12160
屺	-12161
岜	-12162
峃	-12163
崀	-12164
嵚	-12165
幞	-12166
彳	-12167
従	-12168
悱	-12169
愠	-12170
抻	-12171
捌	-12172
捜	-12173
搦	-12174
搽	-12175
擞	-12176
攥	-12177
敫	-12178
斄	-12179
旉	-12180
旡	-12181
旼	-12182
晊	-12183
晧	-12184
暊	-12185
朏	-12186
桜	-12187
橥	-12188
橿	-12189
欬	-12190
泃	-12191
洨	-12192
浿	-12193
涙	-12194
淍	-12195
淛	-12196
溍	-12197
溷	-12198
滍	-12199
潏	-12200
澪	-12201
灊	-12202
炝	-12203
焞	-12204
牤	-12205
狌	-12206
狔	-12207
狨	-12208
猡	-12209
獏	-12210
珵	-12211
瑑	-12212
瑳	-12213
璪	-12214
疎	-12215
瘉	-12216
瘐	-12217
癔	-12218
眵	-12219
硭	-12220
祋	-12221
祤	-12222
祼	-12223
筦	-12224
箒	-12225
箪	-12226
粦	-12227
緜	-12228
縄	-12229
羝	-12230
翈	-12231
艨	-12232
芚	-12233
茼	-12234
荛	-12235
藦	-12236
藨	-12237
蛐	-12238
襕	-12239
觯	-12240
謦	-12241
跶	-12242
踫	-12243
転	-12244
遄	-12245
鄀	-12246
鉱	-12247
錞	-12248
锎	-12249
霊	-12250
鞫	-12251
颣	-12252
馇	-12253
驎	-12254
鬷	-12255
魈	-12256
鹨	-12257
麇	-12258
黇	-12259
鼾	-12260
鿬	-12261
㝉	-12262
㹴	-12263
䓪	-12264
仨	-12265
佖	-12266
俍	-12267
倂	-12268
儇	-12269
凴	-12270
劒	-12271
卨	-12272
卺	-12273
呖	-12274
嗌	-12275
嚤	-12276
嚭	-12277
坖	-12278
埝	-12279
墈	-12280
墡	-12281
嬲	-12282
孥	-12283
寖	-12284
尃	-12285
屙	-12286
屦	-12287
岈	-12288
岵	-12289
岽	-12290
嵎	-12291
嵫	-12292
庁	-12293
廔	-12294
廮	-12295
怃	-12296
怍	-12297
怵	-12298
悃	-12299
愃	-12300
愼	-12301
慊	-12302
挎	-12303
掲	-12304
揑	-12305
摃	-12306
摰	-12307
擕	-12308
晭	-12309
曕	-12310
朿	-12311
杻	-12312
栄	-12313
棐	-12314
棪	-12315
楳	-12316
檨	-12317
欸	-12318
汏	-12319
済	-12320
渋	-12321
溋	-12322
滝	-12323
滟	-12324
漶	-12325
漼	-12326
潆	-12327
潾	-12328
澔	-12329
熥	-12330
爿	-12331
犏	-12332
狲	-12333
珧	-12334
琡	-12335
瑆	-12336
瑮	-12337
璹	-12338
瓤	-12339
甽	-12340
皐	-12341
盍	-12342
盦	-12343
禤	-12344
秕	-12345
秾	-12346
稉	-12347
穄	-12348
窳	-12349
笫	-12350
糗	-12351
絪	-12352
絫	-12353
绡	-12354
缡	-12355
罾	-12356
肏	-12357
脗	-12358
膣	-12359
舁	-12360
舳	-12361
芟	-12362
茚	-12363
菫	-12364
菼	-12365
薬	-12366
虓	-12367
蚨	-12368
蚳	-12369
蝈	-12370
螋	-12371
蟌	-12372
蠼	-12373
衩	-12374
裰	-12375
覚	-12376
觔	-12377
觿	-12378
譌	-12379
诌	-12380
诮	-12381
谞	-12382
踎	-12383
踬	-12384
踶	-12385
遫	-12386
鑅	-12387
锬	-12388
镲	-12389
阃	-12390
霫	-12391
鞌	-12392
鞴	-12393
頔	-12394
飧	-12395
饩	-12396
驽	-12397
髁	-12398
髌	-12399
髎	-12400
鲡	-12401
鲹	-12402
鳆	-12403
鴈	-12404
鹙	-12405
鹲	-12406
㞗	-12407
㧑	-12408
㻋	-12409
䜩	-12410
丂	-12411
乀	-12412
仚	-12413
仮	-12414
侉	-12415
俛	-12416
刧	-12417
勍	-12418
匽	-12419
単	-12420
咇	-12421
咻	-12422
哓	-12423
噼	-12424
圑	-12425
垞	-12426
垻	-12427
塅	-12428
塆	-12429
塜	-12430
妯	-12431
姁	-12432
娌	-12433
媮	-12434
媿	-12435
嫮	-12436
嫲	-12437
嫽	-12438
宀	-12439
峼	-12440
巉	-12441
帢	-12442
帻	-12443
庋	-12444
弨	-12445
忎	-12446
忬	-12447
忮	-12448
怔	-12449
悰	-12450
慇	-12451
戉	-12452
拑	-12453
拶	-12454
挿	-12455
掤	-12456
揿	-12457
摀	-12458
摛	-12459
撙	-12460
昚	-12461
晡	-12462
暪	-12463
柙	-12464
栿	-12465
桭	-12466
桯	-12467
棰	-12468
椟	-12469
楬	-12470
槪	-12471
氆	-12472
氇	-12473
沬	-12474
洊	-12475
淲	-12476
溽	-12477
漷	-12478
澣	-12479
煕	-12480
燠	-12481
爀	-12482
爌	-12483
牓	-12484
狝	-12485
珎	-12486
珝	-12487
琎	-12488
瑂	-12489
瑍	-12490
畚	-12491
畷	-12492
瘰	-12493
皲	-12494
眘	-12495
瞅	-12496
矟	-12497
矸	-12498
碞	-12499
磝	-12500
磲	-12501
礓	-12502
祾	-12503
秏	-12504
筥	-12505
筼	-12506
箅	-12507
簌	-12508
簒	-12509
粝	-12510
繙	-12511
缂	-12512
缒	-12513
罨	-12514
耋	-12515
肟	-12516
胗	-12517
脁	-12518
脢	-12519
臞	-12520
臯	-12521
舄	-12522
艛	-12523
芼	-12524
苁	-12525
苒	-12526
苺	-12527
荘	-12528
莙	-12529
蓢	-12530
蓨	-12531
蔟	-12532
蕞	-12533
蕯	-12534
蘂	-12535
虀	-12536
蚧	-12537
蝀	-12538
裇	-12539
褊	-12540
觌	-12541
譲	-12542
讃	-12543
讬	-12544
诓	-12545
貮	-12546
踱	-12547
蹀	-12548
辧	-12549
逌	-12550
逎	-12551
遯	-12552
鄃	-12553
釭	-12554
鋬	-12555
鍌	-12556
鍪	-12557
鍳	-12558
钎	-12559
陴	-12560
霤	-12561
靥	-12562
靬	-12563
顸	-12564
颋	-12565
駆	-12566
騑	-12567
験	-12568
驵	-12569
鲐	-12570
鲞	-12571
鶏	-12572
鸹	-12573
麺	-12574
鼙	-12575
鼢	-12576
㫻	-12577
㰘	-12578
䏡	-12579
䏲	-12580
䐶	-12581
䢂	-12582
亻	-12583
倕	-12584
倥	-12585
偪	-12586
偬	-12587
偰	-12588
刕	-12589
劦	-12590
卋	-12591
卌	-12592
咾	-12593
唪	-12594
啷	-12595
喩	-12596
噉	-12597
嚩	-12598
坔	-12599
埆	-12600
塡	-12601
夬	-12602
奡	-12603
娎	-12604
娖	-12605
嫰	-12606
屣	-12607
崦	-12608
嶅	-12609
帗	-12610
庼	-12611
廐	-12612
弐	-12613
彜	-12614
悆	-12615
愐	-12616
懃	-12617
戠	-12618
抔	-12619
挢	-12620
搢	-12621
搣	-12622
搨	-12623
擭	-12624
攵	-12625
斉	-12626
旯	-12627
昄	-12628
昍	-12629
柃	-12630
柟	-12631
栘	-12632
棁	-12633
棅	-12634
棩	-12635
榼	-12636
櫂	-12637
欷	-12638
歔	-12639
殣	-12640
氷	-12641
溲	-12642
滈	-12643
漖	-12644
漴	-12645
澫	-12646
烔	-12647
焄	-12648
熞	-12649
爝	-12650
牴	-12651
犭	-12652
狴	-12653
猢	-12654
猯	-12655
玅	-12656
瑨	-12657
甍	-12658
甓	-12659
畎	-12660
疬	-12661
癈	-12662
癯	-12663
皤	-12664
皦	-12665
眯	-12666
睥	-12667
瞀	-12668
瞇	-12669
瞟	-12670
砗	-12671
碶	-12672
秥	-12673
箙	-12674
簏	-12675
糈	-12676
続	-12677
縂	-12678
耧	-12679
聦	-12680
胔	-12681
胬	-12682
膥	-12683
臑	-12684
舲	-12685
芐	-12686
芰	-12687
芴	-12688
菔	-12689
萆	-12690
薷	-12691
藳	-12692
虗	-12693
蚖	-12694
螗	-12695
蠃	-12696
蠋	-12697
裥	-12698
誎	-12699
諌	-12700
谇	-12701
趖	-12702
跽	-12703
踘	-12704
踣	-12705
踮	-12706
蹜	-12707
辿	-12708
遝	-12709
郈	-12710
酓	-12711
酺	-12712
醅	-12713
鈊	-12714
鏳	-12715
锸	-12716
閙	-12717
閧	-12718
閰	-12719
険	-12720
隃	-12721
隞	-12722
顕	-12723
颟	-12724
飕	-12725
餈	-12726
餍	-12727
馊	-12728
魣	-12729
鯸	-12730
鲆	-12731
鲌	-12732
鳇	-12733
鳛	-12734
鵞	-12735
鸺	-12736
鹁	-12737
鹖	-12738
鹠	-12739
㐅	-12740
㑹	-12741
㓛	-12742
㶉	-12743
㶶	-12744
䯄	-12745
䲟	-12746
仛	-12747
伓	-12748
佮	-12749
佷	-12750
価	-12751
偾	-12752
僇	-12753
冮	-12754
剀	-12755
剅	-12756
匦	-12757
卄	-12758
卲	-12759
厳	-12760
吔	-12761
呉	-12762
呲	-12763
啭	-12764
喦	-12765
嗧	-12766
嗾	-12767
嘞	-12768
嚆	-12769
囔	-12770
囘	-12771
囥	-12772
囲	-12773
圧	-12774
圴	-12775
垚	-12776
埑	-12777
塯	-12778
壱	-12779
妘	-12780
妠	-12781
娫	-12782
娵	-12783
嬬	-12784
嬭	-12785
宧	-12786
尫	-12787
岠	-12788
崳	-12789
巙	-12790
廞	-12791
弪	-12792
怦	-12793
悳	-12794
愀	-12795
慆	-12796
憺	-12797
拕	-12798
挙	-12799
挲	-12800
揠	-12801
揵	-12802
揺	-12803
揼	-12804
搫	-12805
摂	-12806
摅	-12807
敭	-12808
敻	-12809
斲	-12810
旆	-12811
旮	-12812
旴	-12813
昽	-12814
晙	-12815
晛	-12816
暕	-12817
曈	-12818
曡	-12819
曧	-12820
枿	-12821
桝	-12822
桮	-12823
梉	-12824
楛	-12825
楦	-12826
楶	-12827
檫	-12828
汫	-12829
洐	-12830
渼	-12831
湝	-12832
滠	-12833
潖	-12834
澌	-12835
澙	-12836
澚	-12837
瀜	-12838
灴	-12839
烚	-12840
焿	-12841
煣	-12842
熈	-12843
燫	-12844
爚	-12845
猟	-12846
獇	-12847
獍	-12848
獣	-12849
玎	-12850
玝	-12851
玱	-12852
琀	-12853
瑇	-12854
瑴	-12855
璙	-12856
瓈	-12857
瓴	-12858
眕	-12859
眬	-12860
眴	-12861
矍	-12862
砑	-12863
硗	-12864
硿	-12865
礜	-12866
禸	-12867
縁	-12868
繄	-12869
缍	-12870
罫	-12871
羖	-12872
羮	-12873
耏	-12874
耑	-12875
肫	-12876
肭	-12877
胠	-12878
脤	-12879
腙	-12880
舋	-12881
舡	-12882
舾	-12883
芑	-12884
荬	-12885
萏	-12886
葅	-12887
葎	-12888
蒆	-12889
蒢	-12890
蒹	-12891
蓐	-12892
薅	-12893
薐	-12894
蘵	-12895
虩	-12896
虮	-12897
蛩	-12898
蠓	-12899
袝	-12900
袾	-12901
裈	-12902
褰	-12903
訄	-12904
諲	-12905
譓	-12906
讐	-12907
赒	-12908
跂	-12909
輭	-12910
轪	-12911
轱	-12912
轹	-12913
鄤	-12914
酖	-12915
釿	-12916
鈤	-12917
鑁	-12918
镘	-12919
镢	-12920
閪	-12921
阨	-12922
飑	-12923
饍	-12924
骟	-12925
髆	-12926
髳	-12927
鬛	-12928
鬶	-12929
鱵	-12930
鲉	-12931
鲒	-12932
鳓	-12933
鳣	-12934
鵺	-12935
鷰	-12936
鹣	-12937
黢	-12938
鿕	-12939
㖞	-12940
㩦	-12941
㷩	-12942
䏟	-12943
䓕	-12944
䴥	-12945
䵣	-12946
丌	-12947
丩	-12948
乚	-12949
乛	-12950
亁	-12951
伛	-12952
佂	-12953
佋	-12954
俋	-12955
倷	-12956
偭	-12957
傊	-12958
傪	-12959
僄	-12960
僦	-12961
儵	-12962
兎	-12963
兛	-12964
兟	-12965
冖	-12966
凊	-12967
刼	-12968
剳	-12969
勼	-12970
匁	-12971
厎	-12972
叇	-12973
叧	-12974
呣	-12975
咘	-12976
咦	-12977
咺	-12978
咿	-12979
哧	-12980
啹	-12981
喁	-12982
営	-12983
嚓	-12984
嚿	-12985
囟	-12986
囫	-12987
囵	-12988
囷	-12989
坮	-12990
坼	-12991
垧	-12992
垿	-12993
埌	-12994
埶	-12995
墒	-12996
壐	-12997
妗	-12998
姹	-12999
婥	-13000
媟	-13001
寜	-13002
尟	-13003
屃	-13004
屇	-13005
屚	-13006
峧	-13007
崟	-13008
崶	-13009
嵿	-13010
嶰	-13011
巃	-13012
巵	-13013
彍	-13014
彚	-13015
応	-13016
怩	-13017
恊	-13018
惔	-13019
惪	-13020
愒	-13021
慓	-13022
慿	-13023
抇	-13024
捃	-13025
揲	-13026
搛	-13027
搴	-13028
摎	-13029
摏	-13030
擐	-13031
擿	-13032
攴	-13033
敇	-13034
斠	-13035
昩	-13036
昬	-13037
晄	-13038
晪	-13039
晫	-13040
暶	-13041
朒	-13042
杢	-13043
枏	-13044
枲	-13045
椀	-13046
榍	-13047
榚	-13048
榝	-13049
槏	-13050
槔	-13051
権	-13052
檠	-13053
欻	-13054
歅	-13055
歘	-13056
氊	-13057
汚	-13058
汦	-13059
沇	-13060
沺	-13061
泜	-13062
浥	-13063
涷	-13064
渓	-13065
渫	-13066
濔	-13067
瀵	-13068
瀶	-13069
炑	-13070
焌	-13071
焐	-13072
焮	-13073
煶	-13074
爁	-13075
狦	-13076
猄	-13077
猔	-13078
獂	-13079
獯	-13080
獳	-13081
玹	-13082
珷	-13083
瑔	-13084
瑺	-13085
璲	-13086
甞	-13087
畊	-13088
瘅	-13089
瘼	-13090
皕	-13091
盻	-13092
眄	-13093
矬	-13094
硇	-13095
硩	-13096
碪	-13097
磻	-13098
礌	-13099
礤	-13100
秌	-13101
稭	-13102
穟	-13103
穨	-13104
窬	-13105
窴	-13106
竂	-13107
筯	-13108
筳	-13109
簗	-13110
簺	-13111
籣	-13112
籺	-13113
糁	-13114
糢	-13115
絇	-13116
絚	-13117
絣	-13118
綮	-13119
緖	-13120
绋	-13121
绲	-13122
缋	-13123
罊	-13124
罝	-13125
罣	-13126
羂	-13127
聍	-13128
脞	-13129
脬	-13130
脰	-13131
脿	-13132
舻	-13133
艹	-13134
艽	-13135
苤	-13136
茖	-13137
茳	-13138
荇	-13139
荈	-13140
莸	-13141
菹	-13142
萅	-13143
葇	-13144
葸	-13145
蓂	-13146
蓏	-13147
蔀	-13148
蔫	-13149
蕸	-13150
薁	-13151
虌	-13152
蜾	-13153
蝤	-13154
蝲	-13155
蟉	-13156
蟛	-13157
蟮	-13158
衜	-13159
袐	-13160
裀	-13161
裿	-13162
褵	-13163
襜	-13164
諠	-13165
謷	-13166
讙	-13167
讱	-13168
诼	-13169
踨	-13170
踭	-13171
踽	-13172
辒	-13173
逨	-13174
逺	-13175
郚	-13176
鄑	-13177
鄕	-13178
鄛	-13179
鄡	-13180
酏	-13181
酴	-13182
酼	-13183
醵	-13184
釴	-13185
鈜	-13186
鋡	-13187
鎅	-13188
鏻	-13189
鐚	-13190
鐭	-13191
铇	-13192
铔	-13193
锠	-13194
镮	-13195
镴	-13196
镵	-13197
閟	-13198
隂	-13199
霔	-13200
霙	-13201
霳	-13202
靰	-13203
鞡	-13204
饫	-13205
駉	-13206
駮	-13207
騨	-13208
骍	-13209
骺	-13210
髫	-13211
髷	-13212
魩	-13213
鱓	-13214
鳎	-13215
鵄	-13216
鶵	-13217
鹢	-13218
麀	-13219
麑	-13220
麤	-13221
龂	-13222
㐌	-13223
㠯	-13224
㬙	-13225
㮌	-13226
㮣	-13227
㳕	-13228
㴋	-13229
㷧	-13230
䄂	-13231
䌹	-13232
䑸	-13233
䝙	-13234
乸	-13235
亍	-13236
亠	-13237
仏	-13238
伡	-13239
伣	-13240
伬	-13241
伱	-13242
侇	-13243
侌	-13244
倞	-13245
僈	-13246
僎	-13247
僐	-13248
僜	-13249
僣	-13250
儅	-13251
儍	-13252
儚	-13253
冓	-13254
冝	-13255
冡	-13256
刓	-13257
刣	-13258
刭	-13259
剞	-13260
剰	-13261
匸	-13262
呇	-13263
哞	-13264
哷	-13265
唷	-13266
啐	-13267
喈	-13268
喨	-13269
嗖	-13270
嗬	-13271
嗮	-13272
嘚	-13273
嘭	-13274
囏	-13275
囮	-13276
坣	-13277
坫	-13278
垍	-13279
埽	-13280
堧	-13281
堩	-13282
堽	-13283
堿	-13284
壄	-13285
壡	-13286
夂	-13287
奀	-13288
姶	-13289
娙	-13290
娡	-13291
娳	-13292
媄	-13293
媖	-13294
媠	-13295
媦	-13296
嫳	-13297
嬝	-13298
孬	-13299
孹	-13300
宄	-13301
岏	-13302
崒	-13303
崿	-13304
嵖	-13305
嵮	-13306
帱	-13307
幤	-13308
廃	-13309
廒	-13310
弶	-13311
忭	-13312
悺	-13313
慜	-13314
憟	-13315
憯	-13316
戙	-13317
戻	-13318
扙	-13319
扜	-13320
抿	-13321
挍	-13322
挼	-13323
掞	-13324
掦	-13325
揃	-13326
揜	-13327
撺	-13328
擤	-13329
擸	-13330
敔	-13331
敳	-13332
敶	-13333
旐	-13334
旟	-13335
旿	-13336
曀	-13337
枎	-13338
枒	-13339
枡	-13340
枨	-13341
枬	-13342
枻	-13343
柁	-13344
柤	-13345
栐	-13346
栧	-13347
桴	-13348
梀	-13349
梂	-13350
梠	-13351
梱	-13352
椆	-13353
椐	-13354
楤	-13355
榑	-13356
槅	-13357
槚	-13358
槜	-13359
槩	-13360
櫶	-13361
殑	-13362
殪	-13363
毱	-13364
毳	-13365
氅	-13366
汈	-13367
汋	-13368
沋	-13369
沜	-13370
沴	-13371
泆	-13372
泑	-13373
泩	-13374
泿	-13375
洇	-13376
洳	-13377
浟	-13378
湦	-13379
湲	-13380
溁	-13381
溇	-13382
溒	-13383
溰	-13384
漎	-13385
漑	-13386
漒	-13387
漙	-13388
漭	-13389
潲	-13390
烇	-13391
烒	-13392
煆	-13393
煑	-13394
熛	-13395
牋	-13396
牸	-13397
犵	-13398
狶	-13399
猘	-13400
猺	-13401
獚	-13402
珸	-13403
珹	-13404
瑅	-13405
瑫	-13406
璂	-13407
璬	-13408
璻	-13409
甂	-13410
甃	-13411
甎	-13412
畺	-13413
疒	-13414
疕	-13415
疿	-13416
痷	-13417
瘖	-13418
瘳	-13419
瘵	-13420
癃	-13421
睟	-13422
睰	-13423
矞	-13424
矺	-13425
硁	-13426
硎	-13427
硷	-13428
磎	-13429
磗	-13430
磜	-13431
磹	-13432
礑	-13433
礻	-13434
祊	-13435
祘	-13436
祳	-13437
窅	-13438
窭	-13439
竉	-13440
竒	-13441
竢	-13442
竻	-13443
笀	-13444
笊	-13445
笩	-13446
笵	-13447
笸	-13448
筢	-13449
筶	-13450
箣	-13451
篚	-13452
篰	-13453
簝	-13454
籧	-13455
粩	-13456
糀	-13457
糎	-13458
糨	-13459
糭	-13460
紩	-13461
絋	-13462
緁	-13463
緈	-13464
縢	-13465
绨	-13466
羇	-13467
翛	-13468
翣	-13469
耇	-13470
聨	-13471
聱	-13472
腘	-13473
腠	-13474
膋	-13475
臙	-13476
芠	-13477
芶	-13478
芺	-13479
苝	-13480
荂	-13481
莛	-13482
莾	-13483
萮	-13484
葰	-13485
蒈	-13486
蓠	-13487
蓰	-13488
蕑	-13489
薗	-13490
薾	-13491
藋	-13492
虨	-13493
虭	-13494
蚍	-13495
蛃	-13496
蛥	-13497
蛴	-13498
蛵	-13499
蜋	-13500
蜣	-13501
蜯	-13502
蜼	-13503
蝍	-13504
蝚	-13505
蝥	-13506
蝳	-13507
蝻	-13508
蟊	-13509
蟧	-13510
蠭	-13511
衖	-13512
裭	-13513
裲	-13514
褆	-13515
褎	-13516
褝	-13517
覊	-13518
觏	-13519
觖	-13520
觱	-13521
觳	-13522
詟	-13523
諟	-13524
诐	-13525
谖	-13526
豀	-13527
貐	-13528
赪	-13529
趯	-13530
跕	-13531
踺	-13532
蹏	-13533
蹛	-13534
躭	-13535
轺	-13536
辌	-13537
辚	-13538
迆	-13539
逈	-13540
逰	-13541
邔	-13542
郄	-13543
鄪	-13544
醄	-13545
醾	-13546
釪	-13547
釬	-13548
鉎	-13549
銎	-13550
銕	-13551
錣	-13552
鍑	-13553
鏓	-13554
鏣	-13555
鏪	-13556
鏼	-13557
鐡	-13558
鑚	-13559
铓	-13560
锞	-13561
锳	-13562
锼	-13563
镋	-13564
镦	-13565
閇	-13566
闚	-13567
阓	-13568
阛	-13569
阰	-13570
阼	-13571
阽	-13572
隑	-13573
雃	-13574
雊	-13575
霶	-13576
靭	-13577
鞔	-13578
鞯	-13579
韡	-13580
韾	-13581
頀	-13582
頪	-13583
饔	-13584
驲	-13585
髽	-13586
魋	-13587
鮧	-13588
鲕	-13589
鳚	-13590
鴡	-13591
鵶	-13592
鷃	-13593
鸐	-13594
鸤	-13595
鹍	-13596
鹯	-13597
鹴	-13598
鹾	-13599
麰	-13600
黙	-13601
鼗	-13602
龘	-13603
㔨	-13604
㗰	-13605
㗼	-13606
㘣	-13607
㙉	-13608
㚟	-13609
㝎	-13610
㟐	-13611
㤅	-13612
㥄	-13613
㥪	-13614
㦯	-13615
㪨	-13616
㳄	-13617
㴩	-13618
㶟	-13619
㶿	-13620
㸅	-13621
㺭	-13622
䀏	-13623
䁔	-13624
䃟	-13625
䄉	-13626
䄙	-13627
䎃	-13628
䏘	-13629
䏻	-13630
䓛	-13631
䚟	-13632
䞀	-13633
䤸	-13634
䭕	-13635
䮀	-13636
䰟	-13637
䲝	-13638
䲠	-13639
䳍	-13640
䵋	-13641
䵍	-13642
䵬	-13643
䵺	-13644
丄	-13645
丅	-13646
乁	-13647
乇	-13648
亰	-13649
亷	-13650
亸	-13651
伂	-13652
伇	-13653
佁	-13654
佪	-13655
佹	-13656
俌	-13657
俒	-13658
俢	-13659
俧	-13660
倗	-13661
倛	-13662
偒	-13663
偫	-13664
傔	-13665
傧	-13666
僩	-13667
僬	-13668
僿	-13669
儛	-13670
儞	-13671
兙	-13672
兝	-13673
兞	-13674
冂	-13675
冫	-13676
凵	-13677
刂	-13678
刄	-13679
刜	-13680
刲	-13681
剚	-13682
剟	-13683
劂	-13684
劙	-13685
労	-13686
勧	-13687
勹	-13688
卾	-13689
厐	-13690
厖	-13691
厣	-13692
厶	-13693
厹	-13694
叚	-13695
吥	-13696
呫	-13697
呶	-13698
呿	-13699
咜	-13700
哐	-13701
唡	-13702
唫	-13703
唻	-13704
唿	-13705
啗	-13706
啵	-13707
喏	-13708
喭	-13709
嗛	-13710
嗫	-13711
嗵	-13712
嘁	-13713
嘂	-13714
嘒	-13715
噐	-13716
噙	-13717
噭	-13718
嚅	-13719
嚗	-13720
嚞	-13721
嚾	-13722
囦	-13723
圫	-13724
圬	-13725
坰	-13726
垜	-13727
垝	-13728
埻	-13729
堄	-13730
堋	-13731
堭	-13732
堮	-13733
塰	-13734
塼	-13735
墎	-13736
墕	-13737
墛	-13738
墣	-13739
墦	-13740
墱	-13741
墼	-13742
壂	-13743
壒	-13744
壖	-13745
夀	-13746
夋	-13747
夑	-13748
夒	-13749
夼	-13750
奝	-13751
奣	-13752
奤	-13753
奰	-13754
奱	-13755
妌	-13756
姙	-13757
姤	-13758
姸	-13759
婠	-13760
婯	-13761
婻	-13762
嫠	-13763
孮	-13764
孴	-13765
宂	-13766
宻	-13767
宼	-13768
尐	-13769
尓	-13770
尥	-13771
屛	-13772
屮	-13773
岹	-13774
岻	-13775
崄	-13776
崾	-13777
嵂	-13778
嵑	-13779
嶒	-13780
嶓	-13781
巓	-13782
巜	-13783
巠	-13784
幇	-13785
幙	-13786
幵	-13787
庀	-13788
庒	-13789
庱	-13790
庳	-13791
弆	-13792
弝	-13793
弻	-13794
彄	-13795
彣	-13796
徏	-13797
忩	-13798
忸	-13799
怚	-13800
怫	-13801
怹	-13802
恇	-13803
恝	-13804
恹	-13805
悊	-13806
悢	-13807
惸	-13808
惿	-13809
愊	-13810
愓	-13811
慬	-13812
慭	-13813
憕	-13814
懬	-13815
懮	-13816
戣	-13817
戽	-13818
扌	-13819
抦	-13820
抳	-13821
拲	-13822
拹	-13823
挀	-13824
挌	-13825
挐	-13826
捔	-13827
掎	-13828
掯	-13829
揅	-13830
揷	-13831
搊	-13832
搯	-13833
搳	-13834
摌	-13835
摡	-13836
摷	-13837
撸	-13838
攉	-13839
攡	-13840
攲	-13841
斁	-13842
斻	-13843
旲	-13844
昡	-13845
晥	-13846
晬	-13847
暍	-13848
暏	-13849
曁	-13850
曣	-13851
曮	-13852
曯	-13853
朘	-13854
朙	-13855
朞	-13856
朡	-13857
朣	-13858
朾	-13859
杕	-13860
杧	-13861
杮	-13862
柎	-13863
柶	-13864
柾	-13865
栔	-13866
栰	-13867
桲	-13868
桹	-13869
梫	-13870
棃	-13871
棌	-13872
棢	-13873
棦	-13874
棯	-13875
棷	-13876
椄	-13877
椑	-13878
椓	-13879
椬	-13880
椵	-13881
楎	-13882
楑	-13883
楧	-13884
榅	-13885
榬	-13886
樔	-13887
樴	-13888
橺	-13889
檋	-13890
檥	-13891
檽	-13892
櫌	-13893
櫑	-13894
櫡	-13895
欂	-13896
欶	-13897
歈	-13898
歕	-13899
歜	-13900
歫	-13901
歯	-13902
殟	-13903
殹	-13904
毦	-13905
毴	-13906
氜	-13907
汔	-13908
汸	-13909
沕	-13910
泂	-13911
泔	-13912
洅	-13913
洟	-13914
洢	-13915
洴	-13916
浕	-13917
浰	-13918
涖	-13919
涘	-13920
淜	-13921
淢	-13922
湑	-13923
湩	-13924
湻	-13925
溎	-13926
溙	-13927
溵	-13928
潄	-13929
潓	-13930
澨	-13931
澯	-13932
濇	-13933
濋	-13934
濓	-13935
瀫	-13936
灋	-13937
灥	-13938
灨	-13939
灱	-13940
烉	-13941
烋	-13942
烕	-13943
焠	-13944
焢	-13945
焴	-13946
焻	-13947
煋	-13948
煺	-13949
熷	-13950
燆	-13951
燋	-13952
燝	-13953
爊	-13954
爋	-13955
爕	-13956
爫	-13957
牅	-13958
牿	-13959
犇	-13960
犎	-13961
犫	-13962
狃	-13963
狟	-13964
狫	-13965
狺	-13966
猓	-13967
猰	-13968
獛	-13969
玐	-13970
玗	-13971
玭	-13972
玼	-13973
珌	-13974
珔	-13975
珖	-13976
珤	-13977
珫	-13978
琄	-13979
琈	-13980
琔	-13981
琠	-13982
琲	-13983
璚	-13984
瓞	-13985
甭	-13986
畞	-13987
畳	-13988
疌	-13989
疪	-13990
痆	-13991
痩	-13992
瘝	-13993
癀	-13994
癶	-13995
皥	-13996
皷	-13997
盬	-13998
盭	-13999
眗	-14000
睌	-14001
睒	-14002
睩	-14003
睭	-14004
瞫	-14005
瞹	-14006
矅	-14007
矰	-14008
矱	-14009
砉	-14010
砢	-14011
砩	-14012
硙	-14013
硪	-14014
礵	-14015
祫	-14016
祲	-14017
禆	-14018
禓	-14019
禖	-14020
禘	-14021
禚	-14022
禝	-14023
秔	-14024
秠	-14025
稧	-14026
穈	-14027
穉	-14028
穣	-14029
穸	-14030
穽	-14031
窆	-14032
窓	-14033
窞	-14034
竘	-14035
笤	-14036
笱	-14037
筜	-14038
筫	-14039
筭	-14040
箎	-14041
箑	-14042
篈	-14043
篊	-14044
篢	-14045
簙	-14046
簜	-14047
粃	-14048
粊	-14049
粋	-14050
糇	-14051
綶	-14052
縦	-14053
繊	-14054
纒	-14055
纕	-14056
纩	-14057
纴	-14058
绁	-14059
缷	-14060
缾	-14061
罥	-14062
羼	-14063
翫	-14064
聟	-14065
肈	-14066
肐	-14067
胲	-14068
胻	-14069
脋	-14070
脎	-14071
脒	-14072
腍	-14073
腚	-14074
膰	-14075
膶	-14076
臓	-14077
臛	-14078
艄	-14079
芿	-14080
苖	-14081
茇	-14082
荄	-14083
荅	-14084
荍	-14085
荙	-14086
莋	-14087
莬	-14088
菿	-14089
萭	-14090
萳	-14091
葂	-14092
葍	-14093
葢	-14094
葴	-14095
蒚	-14096
蒧	-14097
蓺	-14098
蔄	-14099
蔈	-14100
蔎	-14101
蔕	-14102
蔪	-14103
蔸	-14104
蕂	-14105
薝	-14106
藂	-14107
藇	-14108
藙	-14109
蘘	-14110
蘤	-14111
虙	-14112
虰	-14113
虵	-14114
蛍	-14115
蛨	-14116
蜧	-14117
蜮	-14118
蝂	-14119
蝜	-14120
蝪	-14121
蝯	-14122
螓	-14123
螜	-14124
螬	-14125
螵	-14126
蟙	-14127
蟢	-14128
蟫	-14129
蟷	-14130
蠄	-14131
蠎	-14132
蠏	-14133
袷	-14134
裃	-14135
裯	-14136
襍	-14137
覌	-14138
覑	-14139
覔	-14140
覵	-14141
觕	-14142
觫	-14143
詅	-14144
詥	-14145
詨	-14146
謌	-14147
謤	-14148
謩	-14149
讘	-14150
诖	-14151
谰	-14152
谹	-14153
谼	-14154
豋	-14155
豖	-14156
豭	-14157
貎	-14158
貭	-14159
赆	-14160
赇	-14161
趍	-14162
趞	-14163
趿	-14164
跐	-14165
跬	-14166
跹	-14167
跼	-14168
踈	-14169
踕	-14170
踳	-14171
蹓	-14172
蹯	-14173
躆	-14174
躔	-14175
躞	-14176
軎	-14177
軞	-14178
輙	-14179
迕	-14180
迵	-14181
迻	-14182
逤	-14183
逭	-14184
逷	-14185
遬	-14186
邅	-14187
邉	-14188
郠	-14189
鄷	-14190
鄾	-14191
酅	-14192
酡	-14193
醓	-14194
醧	-14195
醭	-14196
釈	-14197
釡	-14198
鈢	-14199
鈪	-14200
鉌	-14201
鉟	-14202
鉧	-14203
鉰	-14204
銝	-14205
銭	-14206
銾	-14207
鋊	-14208
鋋	-14209
鋕	-14210
鋳	-14211
錍	-14212
鍝	-14213
鎜	-14214
鐩	-14215
鐻	-14216
鑃	-14217
鑓	-14218
铻	-14219
锃	-14220
锊	-14221
锖	-14222
锧	-14223
闗	-14224
闬	-14225
阘	-14226
隟	-14227
隩	-14228
隲	-14229
霪	-14230
鞒	-14231
頋	-14232
頖	-14233
頞	-14234
顚	-14235
顜	-14236
颩	-14237
颪	-14238
飮	-14239
餹	-14240
饀	-14241
饤	-14242
饾	-14243
馣	-14244
馵	-14245
駴	-14246
駹	-14247
駼	-14248
髃	-14249
髈	-14250
髠	-14251
鬂	-14252
鬈	-14253
鬐	-14254
鬒	-14255
鬭	-14256
鮡	-14257
鮢	-14258
鰗	-14259
鰡	-14260
鱚	-14261
鱥	-14262
鲏	-14263
鲦	-14264
鲴	-14265
鳑	-14266
鳡	-14267
鳦	-14268
鴓	-14269
鵖	-14270
鵸	-14271
鶤	-14272
鶱	-14273
鷇	-14274
鸴	-14275
鹓	-14276
鹔	-14277
麁	-14278
麃	-14279
鼈	-14280
鼫	-14281
鼽	-14282
齁	-14283
龇	-14284
龖	-14285
㐲	-14286
㑇	-14287
㑷	-14288
㒰	-14289
㕊	-14290
㕑	-14291
㕔	-14292
㕫	-14293
㕭	-14294
㕰	-14295
㕶	-14296
㘵	-14297
㙎	-14298
㙡	-14299
㙻	-14300
㙾	-14301
㚇	-14302
㚒	-14303
㛄	-14304
㛐	-14305
㛠	-14306
㛤	-14307
㛧	-14308
㜑	-14309
㝢	-14310
㟍	-14311
㟖	-14312
㠜	-14313
㡠	-14314
㣉	-14315
㣲	-14316
㥽	-14317
㦕	-14318
㦤	-14319
㦲	-14320
㧎	-14321
㧐	-14322
㧰	-14323
㧸	-14324
㧾	-14325
㩉	-14326
㩌	-14327
㩲	-14328
㫠	-14329
㫫	-14330
㬅	-14331
㭏	-14332
㭲	-14333
㮙	-14334
㮵	-14335
㮹	-14336
㯋	-14337
㰂	-14338
㰖	-14339
㲀	-14340
㲚	-14341
㳘	-14342
㳛	-14343
㳠	-14344
㳦	-14345
㴶	-14346
㵂	-14347
㵮	-14348
㵼	-14349
㶇	-14350
㶣	-14351
㶽	-14352
㷛	-14353
㸃	-14354
㸄	-14355
㸺	-14356
㺄	-14357
㻫	-14358
㼅	-14359
㼴	-14360
㿭	-14361
䀚	-14362
䁐	-14363
䁥	-14364
䅲	-14365
䅴	-14366
䆡	-14367
䆲	-14368
䇄	-14369
䇿	-14370
䍁	-14371
䏣	-14372
䏭	-14373
䐃	-14374
䐾	-14375
䒑	-14376
䓖	-14377
䓝	-14378
䓴	-14379
䓶	-14380
䔃	-14381
䕶	-14382
䕷	-14383
䖏	-14384
䖑	-14385
䖔	-14386
䗁	-14387
䗂	-14388
䗋	-14389
䗧	-14390
䘃	-14391
䘎	-14392
䘏	-14393
䘵	-14394
䙥	-14395
䚡	-14396
䜧	-14397
䝉	-14398
䢅	-14399
䢘	-14400
䢾	-14401
䣓	-14402
䣛	-14403
䥺	-14404
䦧	-14405
䧟	-14406
䧳	-14407
䨇	-14408
䨓	-14409
䨻	-14410
䪹	-14411
䫆	-14412
䬅	-14413
䭣	-14414
䰖	-14415
䰽	-14416
䱌	-14417
䲡	-14418
䲢	-14419
䲹	-14420
䳒	-14421
䳗	-14422
䳘	-14423
䶎	-14424
丱	-14425
丳	-14426
乆	-14427
乢	-14428
乣	-14429
乪	-14430
乹	-14431
乽	-14432
亊	-14433
仈	-14434
仱	-14435
仾	-14436
伃	-14437
伭	-14438
伲	-14439
伹	-14440
伻	-14441
佀	-14442
佫	-14443
佴	-14444
佽	-14445
侅	-14446
侊	-14447
侐	-14448
侒	-14449
侘	-14450
侫	-14451
俇	-14452
俜	-14453
俤	-14454
俴	-14455
俻	-14456
俽	-14457
倄	-14458
倅	-14459
倝	-14460
倯	-14461
倰	-14462
倳	-14463
倽	-14464
倿	-14465
偀	-14466
偍	-14467
偱	-14468
偸	-14469
偼	-14470
僙	-14471
僝	-14472
僡	-14473
僽	-14474
儃	-14475
儌	-14476
儤	-14477
儬	-14478
兡	-14479
兣	-14480
兪	-14481
兲	-14482
兿	-14483
冋	-14484
冎	-14485
冐	-14486
冞	-14487
冦	-14488
凅	-14489
凕	-14490
凾	-14491
刌	-14492
刦	-14493
刱	-14494
剕	-14495
剢	-14496
剤	-14497
剭	-14498
剱	-14499
剸	-14500
剺	-14501
劋	-14502
劐	-14503
劔	-14504
劖	-14505
劗	-14506
劘	-14507
劤	-14508
勄	-14509
勠	-14510
勮	-14511
匤	-14512
匵	-14513
卛	-14514
卩	-14515
卭	-14516
厀	-14517
厇	-14518
厏	-14519
厫	-14520
厯	-14521
厷	-14522
厾	-14523
吺	-14524
呄	-14525
呏	-14526
呬	-14527
呰	-14528
咊	-14529
咍	-14530
咑	-14531
咟	-14532
咮	-14533
哃	-14534
哶	-14535
哿	-14536
唊	-14537
唖	-14538
唥	-14539
唼	-14540
啇	-14541
啒	-14542
啘	-14543
啚	-14544
啨	-14545
喌	-14546
喞	-14547
嗀	-14548
嗂	-14549
嗋	-14550
嗏	-14551
嗙	-14552
嘝	-14553
嘥	-14554
嘨	-14555
噀	-14556
噘	-14557
噺	-14558
嚋	-14559
嚚	-14560
嚡	-14561
嚢	-14562
嚱	-14563
嚸	-14564
嚻	-14565
囇	-14566
囐	-14567
囙	-14568
囬	-14569
圁	-14570
圠	-14571
坄	-14572
坈	-14573
坬	-14574
坶	-14575
坺	-14576
垈	-14577
垪	-14578
垬	-14579
垯	-14580
垰	-14581
垾	-14582
埅	-14583
埘	-14584
埢	-14585
埨	-14586
埫	-14587
埱	-14588
埲	-14589
埳	-14590
堨	-14591
塈	-14592
塉	-14593
塝	-14594
塠	-14595
塣	-14596
塮	-14597
塸	-14598
墋	-14599
墐	-14600
墠	-14601
墺	-14602
壏	-14603
壔	-14604
夆	-14605
夊	-14606
夐	-14607
夘	-14608
奌	-14609
奜	-14610
奨	-14611
奫	-14612
奲	-14613
妀	-14614
妏	-14615
妢	-14616
姃	-14617
姌	-14618
姰	-14619
姱	-14620
姵	-14621
姺	-14622
姽	-14623
娋	-14624
娬	-14625
娸	-14626
婏	-14627
婞	-14628
婣	-14629
婤	-14630
婳	-14631
婸	-14632
婼	-14633
媃	-14634
媌	-14635
媏	-14636
媢	-14637
媬	-14638
媱	-14639
嫑	-14640
嫫	-14641
嬢	-14642
嬨	-14643
孭	-14644
孶	-14645
宭	-14646
宷	-14647
寉	-14648
寑	-14649
寕	-14650
寗	-14651
寙	-14652
尒	-14653
尞	-14654
尠	-14655
尨	-14656
尭	-14657
屾	-14658
岉	-14659
岒	-14660
岦	-14661
峎	-14662
峑	-14663
峕	-14664
崋	-14665
崌	-14666
嵻	-14667
嶆	-14668
嶌	-14669
嶐	-14670
嶕	-14671
嶪	-14672
嶭	-14673
嶻	-14674
巤	-14675
巪	-14676
帊	-14677
帋	-14678
帞	-14679
帟	-14680
帡	-14681
帨	-14682
幈	-14683
幑	-14684
幨	-14685
庂	-14686
庛	-14687
庢	-14688
庪	-14689
廇	-14690
廘	-14691
廽	-14692
廾	-14693
弉	-14694
弌	-14695
弍	-14696
弖	-14697
彐	-14698
彡	-14699
徝	-14700
徤	-14701
徫	-14702
忄	-14703
忟	-14704
忪	-14705
忺	-14706
忼	-14707
怄	-14708
怊	-14709
怑	-14710
怤	-14711
恉	-14712
恓	-14713
恧	-14714
悮	-14715
惈	-14716
惙	-14717
愽	-14718
慉	-14719
慙	-14720
慱	-14721
憇	-14722
憏	-14723
憗	-14724
憘	-14725
憻	-14726
憼	-14727
戓	-14728
戫	-14729
戹	-14730
払	-14731
扠	-14732
扢	-14733
扽	-14734
抅	-14735
抌	-14736
拀	-14737
拝	-14738
拠	-14739
拵	-14740
拻	-14741
挒	-14742
挵	-14743
挻	-14744
捈	-14745
捥	-14746
捸	-14747
捼	-14748
掔	-14749
掭	-14750
掻	-14751
掼	-14752
揇	-14753
揎	-14754
揔	-14755
揫	-14756
揬	-14757
搒	-14758
搚	-14759
搟	-14760
搤	-14761
摉	-14762
摝	-14763
摥	-14764
摫	-14765
摱	-14766
摵	-14767
撀	-14768
撢	-14769
擆	-14770
擖	-14771
擗	-14772
擙	-14773
擩	-14774
擪	-14775
攅	-14776
攗	-14777
攟	-14778
攰	-14779
敤	-14780
敧	-14781
敩	-14782
斮	-14783
斾	-14784
旍	-14785
旜	-14786
昢	-14787
昣	-14788
昻	-14789
晅	-14790
晘	-14791
晣	-14792
晹	-14793
晻	-14794
晼	-14795
暁	-14796
暆	-14797
暓	-14798
暭	-14799
暺	-14800
曋	-14801
曛	-14802
曺	-14803
朂	-14804
朌	-14805
朳	-14806
朼	-14807
杅	-14808
杇	-14809
杘	-14810
杝	-14811
杣	-14812
杽	-14813
枆	-14814
枊	-14815
枑	-14816
枔	-14817
枘	-14818
枼	-14819
柅	-14820
柈	-14821
柣	-14822
栁	-14823
栂	-14824
栆	-14825
栫	-14826
栺	-14827
桍	-14828
桼	-14829
梄	-14830
梈	-14831
梚	-14832
梜	-14833
梪	-14834
梮	-14835
梾	-14836
棆	-14837
棑	-14838
棔	-14839
棬	-14840
椇	-14841
椌	-14842
椗	-14843
椚	-14844
検	-14845
椝	-14846
椫	-14847
楈	-14848
楕	-14849
楜	-14850
楡	-14851
榙	-14852
榣	-14853
榥	-14854
榽	-14855
槑	-14856
槒	-14857
槖	-14858
槢	-14859
槴	-14860
槷	-14861
槾	-14862
樍	-14863
樏	-14864
樒	-14865
樖	-14866
樻	-14867
橂	-14868
橅	-14869
橑	-14870
橓	-14871
橾	-14872
檃	-14873
檇	-14874
檊	-14875
檍	-14876
檑	-14877
檛	-14878
檡	-14879
檦	-14880
檰	-14881
櫍	-14882
櫏	-14883
櫲	-14884
欆	-14885
欗	-14886
欝	-14887
歂	-14888
歓	-14889
歭	-14890
歺	-14891
殕	-14892
毹	-14893
毺	-14894
氉	-14895
氎	-14896
氝	-14897
氞	-14898
氠	-14899
氥	-14900
氱	-14901
汅	-14902
汘	-14903
汯	-14904
汳	-14905
沝	-14906
沲	-14907
沶	-14908
沷	-14909
泇	-14910
泬	-14911
泭	-14912
泲	-14913
泴	-14914
洈	-14915
洰	-14916
洿	-14917
浧	-14918
浭	-14919
浱	-14920
浼	-14921
涐	-14922
涒	-14923
涢	-14924
涥	-14925
涭	-14926
涱	-14927
涴	-14928
涶	-14929
淈	-14930
淊	-14931
淰	-14932
渒	-14933
渘	-14934
渜	-14935
渧	-14936
渰	-14937
渶	-14938
渻	-14939
湌	-14940
湏	-14941
湨	-14942
湭	-14943
湴	-14944
溓	-14945
溠	-14946
溤	-14947
溦	-14948
滀	-14949
滪	-14950
滫	-14951
滶	-14952
漅	-14953
漋	-14954
漧	-14955
漹	-14956
潝	-14957
潪	-14958
潵	-14959
澏	-14960
澓	-14961
澛	-14962
澭	-14963
澴	-14964
濈	-14965
濴	-14966
瀁	-14967
瀓	-14968
瀡	-14969
瀷	-14970
瀼	-14971
灂	-14972
灅	-14973
灈	-14974
灉	-14975
灜	-14976
灠	-14977
灳	-14978
炌	-14979
炰	-14980
炱	-14981
炲	-14982
烄	-14983
烞	-14984
烶	-14985
焑	-14986
焝	-14987
焫	-14988
焬	-14989
煓	-14990
煝	-14991
煠	-14992
煡	-14993
煪	-14994
煳	-14995
煹	-14996
煻	-14997
煿	-14998
熑	-14999
熯	-15000
熳	-15001
燘	-15002
燰	-15003
燱	-15004
燽	-15005
爔	-15006
爟	-15007
爯	-15008
牕	-15009
牗	-15010
牣	-15011
牪	-15012
牷	-15013
牼	-15014
犋	-15015
犘	-15016
犟	-15017
犩	-15018
犿	-15019
狆	-15020
狕	-15021
狖	-15022
狢	-15023
猋	-15024
猨	-15025
猸	-15026
猼	-15027
獈	-15028
獑	-15029
獖	-15030
獞	-15031
獢	-15032
獦	-15033
獽	-15034
玃	-15035
玈	-15036
玊	-15037
玒	-15038
玔	-15039
玜	-15040
玶	-15041
琑	-15042
琣	-15043
琭	-15044
琽	-15045
瑝	-15046
瑥	-15047
瑧	-15048
璄	-15049
璒	-15050
璔	-15051
璛	-15052
璱	-15053
瓅	-15054
瓉	-15055
甀	-15056
甛	-15057
甝	-15058
甿	-15059
畇	-15060
畟	-15061
畨	-15062
畱	-15063
畽	-15064
疁	-15065
疐	-15066
疢	-15067
疭	-15068
痀	-15069
痄	-15070
痌	-15071
痟	-15072
瘃	-15073
瘆	-15074
瘇	-15075
瘚	-15076
瘛	-15077
瘣	-15078
瘥	-15079
癍	-15080
癓	-15081
癛	-15082
癨	-15083
癪	-15084
癹	-15085
皫	-15086
皭	-15087
盋	-15088
盌	-15089
盠	-15090
盺	-15091
眀	-15092
眅	-15093
眊	-15094
眚	-15095
眡	-15096
眧	-15097
睎	-15098
睠	-15099
睸	-15100
瞂	-15101
瞉	-15102
瞍	-15103
瞗	-15104
瞢	-15105
瞵	-15106
矙	-15107
砊	-15108
砕	-15109
砘	-15110
砯	-15111
砳	-15112
硈	-15113
硉	-15114
硠	-15115
硦	-15116
硴	-15117
硾	-15118
碄	-15119
碊	-15120
碜	-15121
碨	-15122
碬	-15123
碯	-15124
碹	-15125
磈	-15126
磉	-15127
磥	-15128
磵	-15129
磿	-15130
礀	-15131
礇	-15132
礕	-15133
礭	-15134
礶	-15135
礿	-15136
祑	-15137
祬	-15138
禃	-15139
禇	-15140
禬	-15141
禭	-15142
禴	-15143
禼	-15144
秳	-15145
秶	-15146
秺	-15147
稂	-15148
稊	-15149
稌	-15150
稐	-15151
稺	-15152
稾	-15153
穋	-15154
穐	-15155
穚	-15156
穪	-15157
穬	-15158
穵	-15159
窂	-15160
窎	-15161
窻	-15162
竔	-15163
竛	-15164
竩	-15165
竫	-15166
竮	-15167
竸	-15168
笁	-15169
笐	-15170
笭	-15171
笯	-15172
筩	-15173
箄	-15174
箘	-15175
箠	-15176
箤	-15177
箯	-15178
篏	-15179
篹	-15180
簉	-15181
簊	-15182
簎	-15183
簘	-15184
簮	-15185
簰	-15186
簶	-15187
籇	-15188
籑	-15189
籒	-15190
籨	-15191
粂	-15192
粇	-15193
粛	-15194
粞	-15195
粬	-15196
粰	-15197
粺	-15198
粻	-15199
糒	-15200
糿	-15201
絭	-15202
絯	-15203
綕	-15204
緉	-15205
緌	-15206
緫	-15207
緺	-15208
緾	-15209
縅	-15210
縔	-15211
縚	-15212
縡	-15213
繍	-15214
繝	-15215
繧	-15216
繵	-15217
纎	-15218
绗	-15219
缌	-15220
缞	-15221
缧	-15222
缲	-15223
罇	-15224
罉	-15225
罠	-15226
罻	-15227
羍	-15228
羓	-15229
羠	-15230
羢	-15231
翏	-15232
翜	-15233
翤	-15234
翺	-15235
耉	-15236
耊	-15237
耔	-15238
耞	-15239
耤	-15240
耪	-15241
耰	-15242
耵	-15243
耹	-15244
聮	-15245
肊	-15246
肎	-15247
肕	-15248
肶	-15249
肹	-15250
胈	-15251
胊	-15252
胏	-15253
胨	-15254
胷	-15255
胾	-15256
脝	-15257
脟	-15258
脮	-15259
脳	-15260
脺	-15261
脽	-15262
腂	-15263
腃	-15264
腄	-15265
腢	-15266
腯	-15267
腲	-15268
腽	-15269
膲	-15270
膵	-15271
膸	-15272
臁	-15273
臇	-15274
臌	-15275
臸	-15276
臽	-15277
臿	-15278
舠	-15279
舥	-15280
舩	-15281
艅	-15282
艎	-15283
艑	-15284
艔	-15285
艭	-15286
艴	-15287
艻	-15288
芁	-15289
芉	-15290
芛	-15291
芤	-15292
芧	-15293
芲	-15294
苈	-15295
苘	-15296
苧	-15297
苰	-15298
苵	-15299
苶	-15300
茝	-15301
茪	-15302
茷	-15303
茺	-15304
荌	-15305
荗	-15306
荝	-15307
荭	-15308
荵	-15309
莏	-15310
莕	-15311
莗	-15312
莤	-15313
莶	-15314
菎	-15315
菥	-15316
菶	-15317
菷	-15318
菺	-15319
萈	-15320
萫	-15321
萻	-15322
葈	-15323
葙	-15324
葟	-15325
葠	-15326
蒄	-15327
蒇	-15328
蒒	-15329
蒣	-15330
蒩	-15331
蒱	-15332
蒾	-15333
蓒	-15334
蓛	-15335
蓫	-15336
蓭	-15337
蓱	-15338
蓳	-15339
蓶	-15340
蔇	-15341
蔠	-15342
蔾	-15343
蕌	-15344
薖	-15345
薚	-15346
薢	-15347
薲	-15348
薿	-15349
藘	-15350
藚	-15351
藟	-15352
藾	-15353
蘐	-15354
蘥	-15355
蘰	-15356
虅	-15357
虊	-15358
虖	-15359
虘	-15360
虡	-15361
虣	-15362
虴	-15363
虸	-15364
蚄	-15365
蚑	-15366
蚒	-15367
蚚	-15368
蚥	-15369
蚦	-15370
蚮	-15371
蚿	-15372
蛓	-15373
蛚	-15374
蛜	-15375
蛦	-15376
蛯	-15377
蜄	-15378
蜎	-15379
蜛	-15380
蜦	-15381
蜲	-15382
蜺	-15383
蝃	-15384
蝅	-15385
蝐	-15386
蝒	-15387
蝛	-15388
蝭	-15389
螀	-15390
螇	-15391
螊	-15392
螐	-15393
螔	-15394
螘	-15395
螥	-15396
螰	-15397
螱	-15398
螶	-15399
螾	-15400
蟁	-15401
蟅	-15402
蟟	-15403
蟪	-15404
蟴	-15405
蟺	-15406
蠛	-15407
蠰	-15408
蠺	-15409
蠽	-15410
衺	-15411
袃	-15412
袌	-15413
袑	-15414
袚	-15415
袟	-15416
袠	-15417
袥	-15418
袬	-15419
袿	-15420
裋	-15421
裌	-15422
裎	-15423
裛	-15424
裵	-15425
裼	-15426
褀	-15427
褁	-15428
褄	-15429
褅	-15430
褉	-15431
褍	-15432
褕	-15433
褟	-15434
褷	-15435
褹	-15436
褾	-15437
襈	-15438
襒	-15439
覅	-15440
覙	-15441
觍	-15442
觧	-15443
觭	-15444
觮	-15445
觾	-15446
訲	-15447
訳	-15448
詃	-15449
詄	-15450
詶	-15451
誐	-15452
誖	-15453
諎	-15454
諩	-15455
諻	-15456
謈	-15457
謜	-15458
謮	-15459
譋	-15460
譒	-15461
譧	-15462
谺	-15463
豄	-15464
豘	-15465
豦	-15466
豲	-15467
貄	-15468
貑	-15469
賉	-15470
賔	-15471
贙	-15472
贳	-15473
赗	-15474
赥	-15475
赯	-15476
趒	-15477
趫	-15478
趮	-15479
趱	-15480
跁	-15481
跅	-15482
跍	-15483
跜	-15484
跢	-15485
跦	-15486
跰	-15487
跲	-15488
跴	-15489
踅	-15490
踔	-15491
踚	-15492
踟	-15493
踡	-15494
踲	-15495
踿	-15496
蹐	-15497
蹚	-15498
蹧	-15499
蹮	-15500
蹰	-15501
躗	-15502
躶	-15503
軆	-15504
軰	-15505
輌	-15506
輏	-15507
轁	-15508
轈	-15509
轒	-15510
轓	-15511
辀	-15512
辤	-15513
迀	-15514
迌	-15515
迖	-15516
迮	-15517
逓	-15518
逥	-15519
逴	-15520
邟	-15521
郋	-15522
郔	-15523
郙	-15524
郱	-15525
郹	-15526
郻	-15527
鄌	-15528
鄍	-15529
鄎	-15530
鄨	-15531
酀	-15532
酔	-15533
酙	-15534
酲	-15535
酾	-15536
醁	-15537
醑	-15538
醘	-15539
醤	-15540
醩	-15541
醸	-15542
釖	-15543
釢	-15544
釱	-15545
釸	-15546
釼	-15547
鈏	-15548
鈘	-15549
鈫	-15550
鉫	-15551
銤	-15552
銧	-15553
銰	-15554
鋀	-15555
鋈	-15556
鋍	-15557
鋖	-15558
鋷	-15559
鋻	-15560
錅	-15561
錖	-15562
錧	-15563
錱	-15564
錴	-15565
錵	-15566
錷	-15567
鍐	-15568
鍗	-15569
鍧	-15570
鎃	-15571
鎕	-15572
鎴	-15573
鏄	-15574
鏕	-15575
鏠	-15576
鏭	-15577
鏮	-15578
鏴	-15579
鐱	-15580
鐾	-15581
鑙	-15582
鑯	-15583
钭	-15584
铗	-15585
锓	-15586
锨	-15587
镩	-15588
镾	-15589
閖	-15590
閠	-15591
阫	-15592
陁	-15593
陃	-15594
陑	-15595
陗	-15596
陧	-15597
陹	-15598
陼	-15599
隤	-15600
雔	-15601
雚	-15602
雰	-15603
霡	-15604
霱	-15605
靁	-15606
靏	-15607
靱	-15608
靲	-15609
鞄	-15610
鞕	-15611
鞗	-15612
鞲	-15613
韈	-15614
韖	-15615
韨	-15616
韱	-15617
韲	-15618
韴	-15619
韺	-15620
頩	-15621
頯	-15622
顇	-15623
顦	-15624
颿	-15625
飃	-15626
飖	-15627
飜	-15628
飤	-15629
飬	-15630
飰	-15631
餟	-15632
餠	-15633
餤	-15634
餻	-15635
饂	-15636
饎	-15637
饙	-15638
饳	-15639
馉	-15640
馛	-15641
馝	-15642
馞	-15643
馲	-15644
駈	-15645
駪	-15646
騋	-15647
騘	-15648
騛	-15649
騹	-15650
驖	-15651
骹	-15652
骻	-15653
骾	-15654
骿	-15655
髄	-15656
髇	-15657
髗	-15658
髟	-15659
髣	-15660
髤	-15661
髨	-15662
髴	-15663
髼	-15664
髾	-15665
鬅	-15666
鬌	-15667
鬏	-15668
鬕	-15669
鬰	-15670
鬳	-15671
鬺	-15672
鬿	-15673
魌	-15674
魕	-15675
魖	-15676
魞	-15677
魤	-15678
魮	-15679
鮈	-15680
鮌	-15681
鮠	-15682
鯃	-15683
鯈	-15684
鯏	-15685
鯙	-15686
鰯	-15687
鰶	-15688
鱎	-15689
鲃	-15690
鲄	-15691
鲖	-15692
鲪	-15693
鲯	-15694
鳁	-15695
鳘	-15696
鴎	-15697
鴠	-15698
鵀	-15699
鵕	-15700
鵭	-15701
鵵	-15702
鶝	-15703
鶠	-15704
鶮	-15705
鷜	-15706
鷧	-15707
鸁	-15708
鸅	-15709
鸑	-15710
鸒	-15711
鸜	-15712
鸼	-15713
鹸	-15714
麄	-15715
麎	-15716
麔	-15717
麕	-15718
麖	-15719
麚	-15720
麛	-15721
麞	-15722
麧	-15723
麭	-15724
黆	-15725
黓	-15726
黕	-15727
黗	-15728
黚	-15729
黭	-15730
黮	-15731
鼊	-15732
鼔	-15733
鼖	-15734
齍	-15735
龅	-15736
龆	-15737
龝	-15738
龰	-15739
