<unk>	0
<s>	0
</s>	0
[BR]	0
<0x00>	0
<0x01>	0
<0x02>	0
<0x03>	0
<0x04>	0
<0x05>	0
<0x06>	0
<0x07>	0
<0x08>	0
<0x09>	0
<0x0A>	0
<0x0B>	0
<0x0C>	0
<0x0D>	0
<0x0E>	0
<0x0F>	0
<0x10>	0
<0x11>	0
<0x12>	0
<0x13>	0
<0x14>	0
<0x15>	0
<0x16>	0
<0x17>	0
<0x18>	0
<0x19>	0
<0x1A>	0
<0x1B>	0
<0x1C>	0
<0x1D>	0
<0x1E>	0
<0x1F>	0
<0x20>	0
<0x21>	0
<0x22>	0
<0x23>	0
<0x24>	0
<0x25>	0
<0x26>	0
<0x27>	0
<0x28>	0
<0x29>	0
<0x2A>	0
<0x2B>	0
<0x2C>	0
<0x2D>	0
<0x2E>	0
<0x2F>	0
<0x30>	0
<0x31>	0
<0x32>	0
<0x33>	0
<0x34>	0
<0x35>	0
<0x36>	0
<0x37>	0
<0x38>	0
<0x39>	0
<0x3A>	0
<0x3B>	0
<0x3C>	0
<0x3D>	0
<0x3E>	0
<0x3F>	0
<0x40>	0
<0x41>	0
<0x42>	0
<0x43>	0
<0x44>	0
<0x45>	0
<0x46>	0
<0x47>	0
<0x48>	0
<0x49>	0
<0x4A>	0
<0x4B>	0
<0x4C>	0
<0x4D>	0
<0x4E>	0
<0x4F>	0
<0x50>	0
<0x51>	0
<0x52>	0
<0x53>	0
<0x54>	0
<0x55>	0
<0x56>	0
<0x57>	0
<0x58>	0
<0x59>	0
<0x5A>	0
<0x5B>	0
<0x5C>	0
<0x5D>	0
<0x5E>	0
<0x5F>	0
<0x60>	0
<0x61>	0
<0x62>	0
<0x63>	0
<0x64>	0
<0x65>	0
<0x66>	0
<0x67>	0
<0x68>	0
<0x69>	0
<0x6A>	0
<0x6B>	0
<0x6C>	0
<0x6D>	0
<0x6E>	0
<0x6F>	0
<0x70>	0
<0x71>	0
<0x72>	0
<0x73>	0
<0x74>	0
<0x75>	0
<0x76>	0
<0x77>	0
<0x78>	0
<0x79>	0
<0x7A>	0
<0x7B>	0
<0x7C>	0
<0x7D>	0
<0x7E>	0
<0x7F>	0
<0x80>	0
<0x81>	0
<0x82>	0
<0x83>	0
<0x84>	0
<0x85>	0
<0x86>	0
<0x87>	0
<0x88>	0
<0x89>	0
<0x8A>	0
<0x8B>	0
<0x8C>	0
<0x8D>	0
<0x8E>	0
<0x8F>	0
<0x90>	0
<0x91>	0
<0x92>	0
<0x93>	0
<0x94>	0
<0x95>	0
<0x96>	0
<0x97>	0
<0x98>	0
<0x99>	0
<0x9A>	0
<0x9B>	0
<0x9C>	0
<0x9D>	0
<0x9E>	0
<0x9F>	0
<0xA0>	0
<0xA1>	0
<0xA2>	0
<0xA3>	0
<0xA4>	0
<0xA5>	0
<0xA6>	0
<0xA7>	0
<0xA8>	0
<0xA9>	0
<0xAA>	0
<0xAB>	0
<0xAC>	0
<0xAD>	0
<0xAE>	0
<0xAF>	0
<0xB0>	0
<0xB1>	0
<0xB2>	0
<0xB3>	0
<0xB4>	0
<0xB5>	0
<0xB6>	0
<0xB7>	0
<0xB8>	0
<0xB9>	0
<0xBA>	0
<0xBB>	0
<0xBC>	0
<0xBD>	0
<0xBE>	0
<0xBF>	0
<0xC0>	0
<0xC1>	0
<0xC2>	0
<0xC3>	0
<0xC4>	0
<0xC5>	0
<0xC6>	0
<0xC7>	0
<0xC8>	0
<0xC9>	0
<0xCA>	0
<0xCB>	0
<0xCC>	0
<0xCD>	0
<0xCE>	0
<0xCF>	0
<0xD0>	0
<0xD1>	0
<0xD2>	0
<0xD3>	0
<0xD4>	0
<0xD5>	0
<0xD6>	0
<0xD7>	0
<0xD8>	0
<0xD9>	0
<0xDA>	0
<0xDB>	0
<0xDC>	0
<0xDD>	0
<0xDE>	0
<0xDF>	0
<0xE0>	0
<0xE1>	0
<0xE2>	0
<0xE3>	0
<0xE4>	0
<0xE5>	0
<0xE6>	0
<0xE7>	0
<0xE8>	0
<0xE9>	0
<0xEA>	0
<0xEB>	0
<0xEC>	0
<0xED>	0
<0xEE>	0
<0xEF>	0
<0xF0>	0
<0xF1>	0
<0xF2>	0
<0xF3>	0
<0xF4>	0
<0xF5>	0
<0xF6>	0
<0xF7>	0
<0xF8>	0
<0xF9>	0
<0xFA>	0
<0xFB>	0
<0xFC>	0
<0xFD>	0
<0xFE>	0
<0xFF>	0
..	-0
一个	-1
进行	-2
研究	-3
▁我	-4
可以	-5
发展	-6
自己	-7
分析	-8
没有	-9
方法	-10
我们	-11
结果	-12
问题	-13
通过	-14
系统	-15
影响	-16
....	-17
什么	-18
技术	-19
哈哈	-20
工作	-21
中国	-22
他们	-23
就是	-24
这个	-25
了一	-26
不是	-27
▁在	-28
公司	-29
不同	-30
企业	-31
设计	-32
时间	-33
社会	-34
▁你	-35
表明	-36
具有	-37
时候	-38
管理	-39
服务	-40
以及	-41
的人	-42
重要	-43
主要	-44
结构	-45
现在	-46
经济	-47
知道	-48
已经	-49
中的	-50
采用	-51
产品	-52
模型	-53
过程	-54
▁这	-55
作用	-56
提高	-57
提供	-58
因为	-59
还是	-60
利用	-61
提出	-62
方面	-63
信息	-64
好的	-65
应用	-66
需要	-67
可能	-68
市场	-69
的一	-70
控制	-71
同时	-72
环境	-73
基础	-74
数据	-75
情况	-76
关系	-77
。。	-78
到了	-79
生产	-80
这样	-81
处理	-82
使用	-83
相关	-84
也是	-85
结果表明	-86
作为	-87
但是	-88
进行了	-89
建设	-90
文化	-91
存在	-92
生活	-93
都是	-94
......	-95
如果	-96
比较	-97
▁他	-98
所以	-99
国家	-100
人的	-101
安全	-102
实现	-103
计算	-104
大的	-105
条件	-106
怎么	-107
一定	-108
教育	-109
有效	-110
质量	-111
起来	-112
能力	-113
▁本	-114
变化	-115
不能	-116
一种	-117
上的	-118
治疗	-119
的影响	-120
对于	-121
建立	-122
这些	-123
理论	-124
他的	-125
能够	-126
要求	-127
的时候	-128
发现	-129
选择	-130
很多	-131
城市	-132
自己的	-133
出来	-134
发生	-135
组织	-136
为了	-137
结合	-138
效果	-139
性能	-140
材料	-141
方式	-142
也不	-143
的是	-144
基于	-145
觉得	-146
一些	-147
那么	-148
资源	-149
我国	-150
之间	-151
这种	-152
▁不	-153
试验	-154
专业	-155
根据	-156
还有	-157
而且	-158
非常	-159
世界	-160
网络	-161
出现	-162
特征	-163
实验	-164
形成	-165
工程	-166
成为	-167
!!	-168
水平	-169
地区	-170
部分	-171
明显	-172
算法	-173
活动	-174
学生	-175
功能	-176
产业	-177
空间	-178
一样	-179
这么	-180
这一	-181
开始	-182
我的	-183
孩子	-184
行业	-185
然后	-186
传统	-187
因素	-188
一步	-189
设备	-190
稳定	-191
▁本文	-192
基本	-193
增加	-194
解决	-195
不会	-196
目的	-197
来的	-198
得到	-199
▁那	-200
两个	-201
由于	-202
大家	-203
随着	-204
产生	-205
分别	-206
显著	-207
不断	-208
模式	-209
针对	-210
喜欢	-211
体系	-212
地方	-213
其他	-214
介绍	-215
患者	-216
一直	-217
出了	-218
直接	-219
应该	-220
最后	-221
学习	-222
创新	-223
看到	-224
认为	-225
政府	-226
只是	-227
度的	-228
分布	-229
国际	-230
标准	-231
价值	-232
因此	-233
性的	-234
检测	-235
运动	-236
目前	-237
目标	-238
综合	-239
虽然	-240
各种	-241
你的	-242
一起	-243
有的	-244
主义	-245
或者	-246
中心	-247
之后	-248
实际	-249
平台	-250
人员	-251
内容	-252
一次	-253
项目	-254
参数	-255
科学	-256
反应	-257
过程中	-258
意义	-259
需求	-260
温度	-261
自然	-262
降低	-263
开发	-264
保护	-265
细胞	-266
投资	-267
新的	-268
含量	-269
感觉	-270
那个	-271
合作	-272
政策	-273
特点	-274
朋友	-275
历史	-276
领域	-277
的事	-278
▁通过	-279
东西	-280
一般	-281
的大	-282
你们	-283
获得	-284
一下	-285
——	-286
▁对	-287
如何	-288
今天	-289
优化	-290
不过	-291
方案	-292
知识	-293
机构	-294
差异	-295
了解	-296
工艺	-297
用户	-298
▁她	-299
基础上	-300
进一步	-301
▁结果表明	-302
是一	-303
只有	-304
的发展	-305
区域	-306
特别	-307
学校	-308
行为	-309
真的	-310
生物	-311
健康	-312
下的	-313
个人	-314
确定	-315
▁哈哈	-316
生态	-317
评价	-318
体育	-319
的话	-320
制度	-321
的问题	-322
范围	-323
不要	-324
有限	-325
必须	-326
其中	-327
包括	-328
现代	-329
国内	-330
体的	-331
希望	-332
消费	-333
不仅	-334
考虑	-335
速度	-336
思想	-337
精神	-338
表示	-339
其实	-340
部门	-341
动力	-342
品牌	-343
建筑	-344
机制	-345
探讨	-346
达到	-347
提升	-348
可是	-349
一点	-350
客户	-351
大学	-352
人们	-353
科技	-354
▁当	-355
表现	-356
▁以	-357
方向	-358
美国	-359
这里	-360
所有	-361
人民	-362
原因	-363
程度	-364
开展	-365
完全	-366
导致	-367
提出了	-368
有些	-369
量的	-370
效率	-371
促进	-372
这是	-373
从而	-374
▁为	-375
民族	-376
甚至	-377
第一	-378
有关	-379
面的	-380
资料	-381
▁我们	-382
分析了	-383
支持	-384
改革	-385
满足	-386
用于	-387
特性	-388
任何	-389
加强	-390
政治	-391
经验	-392
及其	-393
系统的	-394
领导	-395
模拟	-396
那些	-397
多的	-398
化的	-399
发展的	-400
状态	-401
相对	-402
积极	-403
关键	-404
并且	-405
的小	-406
指标	-407
价格	-408
更加	-409
时代	-410
造成	-411
▁该	-412
来越	-413
优势	-414
阶段	-415
艺术	-416
她的	-417
工业	-418
合理	-419
培养	-420
▁一	-421
结论	-422
越来越	-423
注意	-424
持续	-425
来了	-426
单位	-427
不知道	-428
来说	-429
过去	-430
风险	-431
医院	-432
实践	-433
氧化	-434
看着	-435
容易	-436
压力	-437
责任	-438
以后	-439
快速	-440
经营	-441
▁结果	-442
是在	-443
的重要	-444
信号	-445
对照	-446
表面	-447
最大	-448
继续	-449
智能	-450
显示	-451
许多	-452
游戏	-453
蛋白	-454
进入	-455
代表	-456
金融	-457
运用	-458
北京	-459
保证	-460
业务	-461
成功	-462
交通	-463
关注	-464
之一	-465
简单	-466
子的	-467
经过	-468
形式	-469
下来	-470
复杂	-471
正在	-472
电子	-473
全面	-474
农业	-475
无法	-476
之前	-477
年来	-478
成本	-479
观察	-480
性和	-481
措施	-482
浓度	-483
旅游	-484
高的	-485
▁是	-486
重点	-487
▁有	-488
自动	-489
完成	-490
仿真	-491
▁从	-492
认识	-493
整个	-494
改善	-495
后的	-496
临床	-497
教学	-498
充分	-499
平均	-500
软件	-501
减少	-502
的方法	-503
是一个	-504
位置	-505
身体	-506
竞争	-507
重要的	-508
之间的	-509
汽车	-510
都不	-511
准备	-512
才能	-513
保障	-514
受到	-515
年的	-516
表达	-517
不到	-518
严重	-519
几个	-520
规划	-521
第二	-522
完善	-523
趋势	-524
建议	-525
施工	-526
生长	-527
测试	-528
就会	-529
操作	-530
核心	-531
实施	-532
推动	-533
不可	-534
调查	-535
强度	-536
告诉	-537
法律	-538
里的	-539
去了	-540
组成	-541
共同	-542
十分	-543
决定	-544
先生	-545
不同的	-546
只要	-547
的高	-548
▁而	-549
丰富	-550
▁研究	-551
坚持	-552
努力	-553
保持	-554
▁好	-555
▁但	-556
网站	-557
植物	-558
正常	-559
取得	-560
除了	-561
帮助	-562
机械	-563
的研究	-564
改变	-565
加工	-566
首先	-567
统计	-568
广泛	-569
引起	-570
现象	-571
。。。	-572
突然	-573
增强	-574
也有	-575
运行	-576
适应	-577
以为	-578
培训	-579
战略	-580
化学	-581
提取	-582
线性	-583
推进	-584
根本	-585
活性	-586
全国	-587
污染	-588
都有	-589
调整	-590
...	-591
类型	-592
预测	-593
深入	-594
发挥	-595
意识	-596
回来	-597
准确	-598
制造	-599
如此	-600
参与	-601
了一种	-602
出的	-603
眼睛	-604
规律	-605
依据	-606
纤维	-607
不得	-608
金属	-609
色的	-610
农村	-611
的新	-612
未来	-613
老师	-614
条件下	-615
手机	-616
述了	-617
文章	-618
成了	-619
并不	-620
的情况	-621
对照组	-622
自由	-623
机会	-624
▁如果	-625
心里	-626
规模	-627
系列	-628
复合	-629
测量	-630
我们的	-631
是否	-632
的基础上	-633
全球	-634
▁目的	-635
只能	-636
有一	-637
增长	-638
不好	-639
整体	-640
人才	-641
指导	-642
肯定	-643
▁方法	-644
力的	-645
▁针对	-646
者的	-647
集团	-648
神经	-649
物的	-650
关于	-651
上海	-652
事情	-653
规范	-654
▁结论	-655
▁大	-656
动态	-657
▁为了	-658
讨论	-659
看看	-660
自身	-661
证明	-662
意思	-663
过来	-664
它们	-665
按照	-666
构建	-667
精度	-668
系数	-669
负责	-670
▁采用	-671
最终	-672
别人	-673
给你	-674
任务	-675
家庭	-676
尤其	-677
这样的	-678
图像	-679
联网	-680
计划	-681
说明	-682
三个	-683
土壤	-684
想要	-685
多少	-686
联合	-687
检查	-688
现场	-689
长期	-690
一个人	-691
的主要	-692
介绍了	-693
真正	-694
具体	-695
教师	-696
中央	-697
下降	-698
研究了	-699
都会	-700
▁此	-701
测定	-702
角度	-703
等方面	-704
有点	-705
质的	-706
声音	-707
时的	-708
以来	-709
对象	-710
时期	-711
给我	-712
联系	-713
人类	-714
理解	-715
银行	-716
食品	-717
哈哈哈哈	-718
规定	-719
逐渐	-720
验证	-721
分为	-722
家的	-723
力量	-724
良好的	-725
传播	-726
女人	-727
交易	-728
相比	-729
相应	-730
为什么	-731
销售	-732
为主	-733
相信	-734
电话	-735
程序	-736
想到	-737
样的	-738
职业	-739
抑制	-740
好像	-741
的不	-742
参考	-743
我就	-744
特色	-745
无论	-746
说道	-747
公共	-748
交流	-749
制备	-750
▁小	-751
两种	-752
了一个	-753
效应	-754
估计	-755
接受	-756
医疗	-757
构造	-758
心理	-759
方程	-760
资金	-761
对比	-762
状况	-763
而是	-764
改进	-765
数值	-766
好了	-767
现实	-768
会议	-769
原理	-770
空气	-771
的最	-772
有限公司	-773
▁要	-774
出去	-775
更多	-776
不了	-777
我也	-778
有人	-779
是一种	-780
符合	-781
年轻	-782
正确	-783
疾病	-784
适合	-785
▁但是	-786
手段	-787
办法	-788
生命	-789
理念	-790
建立了	-791
看见	-792
一定的	-793
似乎	-794
拥有	-795
可靠	-796
数字	-797
混合	-798
书记	-799
应力	-800
必要	-801
有机	-802
是个	-803
说的	-804
他们的	-805
原则	-806
距离	-807
及时	-808
开放	-809
清楚	-810
背景	-811
地震	-812
基因	-813
函数	-814
身上	-815
属于	-816
并对	-817
内部	-818
养殖	-819
随机	-820
里面	-821
分子	-822
行政	-823
用的	-824
组合	-825
总结	-826
内的	-827
有着	-828
分离	-829
成果	-830
指数	-831
还要	-832
普通	-833
形态	-834
重视	-835
▁随着	-836
最近	-837
制作	-838
带来	-839
策略	-840
是不是	-841
创造	-842
然而	-843
参加	-844
媒体	-845
明白	-846
以上	-847
晚上	-848
重大	-849
利益	-850
识别	-851
几乎	-852
定位	-853
专家	-854
方便	-855
下去	-856
监测	-857
离子	-858
群众	-859
评估	-860
▁利用	-861
▁嗯	-862
学院	-863
指出	-864
误差	-865
提供了	-866
的地方	-867
卫生	-868
每天	-869
统一	-870
的事情	-871
委员	-872
多种	-873
集中	-874
商业	-875
面对	-876
父亲	-877
日本	-878
推广	-879
保险	-880
离开	-881
不错	-882
有利	-883
平衡	-884
资本	-885
不少	-886
干部	-887
变形	-888
带着	-889
特殊	-890
相互	-891
、、	-892
避免	-893
说话	-894
哪里	-895
物质	-896
社会主义	-897
治理	-898
分别为	-899
连续	-900
互联网	-901
后来	-902
找到	-903
采取	-904
事业	-905
研发	-906
概念	-907
第三	-908
▁这个	-909
密度	-910
上了	-911
团队	-912
品质	-913
器的	-914
全部	-915
使得	-916
是不	-917
??	-918
也会	-919
近年来	-920
电池	-921
它的	-922
当前	-923
恢复	-924
解释	-925
详细	-926
设施	-927
另外	-928
语言	-929
高度	-930
当然	-931
现状	-932
移动	-933
人工	-934
明确	-935
融合	-936
沉积	-937
分类	-938
▁因为	-939
做好	-940
探索	-941
男人	-942
课程	-943
能量	-944
元素	-945
电视	-946
真实	-947
道路	-948
面积	-949
反映	-950
高于	-951
生的	-952
每个	-953
确保	-954
频率	-955
监管	-956
办公	-957
比如	-958
安装	-959
能源	-960
衣服	-961
感染	-962
的一个	-963
以前	-964
的工作	-965
品种	-966
▁现在	-967
▁根据	-968
营养	-969
▁同时	-970
落实	-971
看了	-972
一边	-973
故事	-974
地的	-975
维护	-976
▁因此	-977
响应	-978
变得	-979
宣传	-980
就像	-981
高效	-982
作品	-983
消费者	-984
人家	-985
很好	-986
混凝	-987
体验	-988
应当	-989
稳定性	-990
执行	-991
快乐	-992
就在	-993
纳米	-994
就不	-995
文明	-996
环保	-997
的作用	-998
世纪	-999
一切	-1000
循环	-1001
长的	-1002
园林	-1003
让我	-1004
增大	-1005
一致	-1006
事件	-1007
经常	-1008
较大	-1009
面前	-1010
地位	-1011
振动	-1012
还没	-1013
都在	-1014
▁所以	-1015
▁由于	-1016
新闻	-1017
一天	-1018
贸易	-1019
数量	-1020
定的	-1021
报告	-1022
也没有	-1023
道德	-1024
混凝土	-1025
周期	-1026
考察	-1027
先进	-1028
吸收	-1029
玻璃	-1030
于是	-1031
在一起	-1032
监督	-1033
异常	-1034
的变化	-1035
满意	-1036
诊断	-1037
成分	-1038
流动	-1039
之中	-1040
那里	-1041
主动	-1042
大量	-1043
疗效	-1044
不知	-1045
体现	-1046
供应	-1047
土地	-1048
电影	-1049
经历	-1050
对其	-1051
创业	-1052
处于	-1053
呈现	-1054
种子	-1055
安排	-1056
率为	-1057
运营	-1058
接触	-1059
药物	-1060
那种	-1061
主任	-1062
催化	-1063
期间	-1064
多了	-1065
机器	-1066
效益	-1067
一定要	-1068
站在	-1069
过了	-1070
资产	-1071
明天	-1072
我是	-1073
本文	-1074
严格	-1075
感到	-1076
特别是	-1077
行动	-1078
母亲	-1079
得到了	-1080
型的	-1081
同学	-1082
装置	-1083
终于	-1084
配合	-1085
强的	-1086
曲线	-1087
有了	-1088
比例	-1089
困难	-1090
本身	-1091
就可以	-1092
决策	-1093
出一	-1094
太阳	-1095
广大	-1096
真是	-1097
训练	-1098
机的	-1099
运输	-1100
音乐	-1101
开心	-1102
发育	-1103
让人	-1104
吸附	-1105
并没有	-1106
党的	-1107
如今	-1108
小的	-1109
相同	-1110
走了	-1111
好好	-1112
有所	-1113
不足	-1114
来自	-1115
面临	-1116
不住	-1117
手术	-1118
总是	-1119
幸福	-1120
制定	-1121
流程	-1122
还在	-1123
难以	-1124
机关	-1125
看来	-1126
儿童	-1127
行的	-1128
规则	-1129
▁没	-1130
二十	-1131
妈妈	-1132
迅速	-1133
景观	-1134
我不	-1135
优秀	-1136
回收	-1137
实在	-1138
车辆	-1139
回家	-1140
加入	-1141
来看	-1142
产品的	-1143
加快	-1144
另一	-1145
图书	-1146
贡献	-1147
▁不过	-1148
工具	-1149
绿色	-1150
重新	-1151
学术	-1152
更好	-1153
确实	-1154
的一种	-1155
天气	-1156
等等	-1157
坐在	-1158
!!!	-1159
最佳	-1160
颗粒	-1161
打造	-1162
动物	-1163
农民	-1164
的关系	-1165
放在	-1166
尤其是	-1167
多数	-1168
营销	-1169
实力	-1170
高速	-1171
的时间	-1172
成熟	-1173
添加	-1174
值得	-1175
员工	-1176
家里	-1177
身边	-1178
视频	-1179
广告	-1180
理想	-1181
似的	-1182
的好	-1183
样子	-1184
损伤	-1185
相当	-1186
很大	-1187
申请	-1188
设置	-1189
着一	-1190
▁对于	-1191
也没	-1192
遇到	-1193
认真	-1194
身份	-1195
限制	-1196
社区	-1197
各个	-1198
的多	-1199
购买	-1200
▁他们	-1201
应用于	-1202
记者	-1203
咱们	-1204
合成	-1205
子里	-1206
故障	-1207
啊啊	-1208
对方	-1209
独立	-1210
出发	-1211
听到	-1212
意见	-1213
环节	-1214
的主	-1215
左右	-1216
原来	-1217
回去	-1218
学科	-1219
基金	-1220
构成	-1221
良好	-1222
地上	-1223
毕竟	-1224
革命	-1225
也许	-1226
在此	-1227
就要	-1228
层次	-1229
收入	-1230
还不	-1231
酒店	-1232
作业	-1233
心的	-1234
物理	-1235
转化	-1236
有什么	-1237
性质	-1238
到底	-1239
掌握	-1240
三维	-1241
绝对	-1242
方面的	-1243
企业的	-1244
是什么	-1245
更多的	-1246
协调	-1247
记得	-1248
那样	-1249
风格	-1250
提高了	-1251
有效的	-1252
危险	-1253
周围	-1254
当时	-1255
句话	-1256
吸引	-1257
间的	-1258
冲击	-1259
模糊	-1260
因子	-1261
支撑	-1262
哈哈哈	-1263
了一下	-1264
的同时	-1265
会儿	-1266
往往	-1267
考试	-1268
调节	-1269
▁最后	-1270
强化	-1271
年龄	-1272
▁老	-1273
咨询	-1274
她们	-1275
投入	-1276
开了	-1277
形象	-1278
出来的	-1279
的基本	-1280
引导	-1281
流量	-1282
技能	-1283
展示	-1284
损失	-1285
破坏	-1286
常规	-1287
相应的	-1288
几天	-1289
产权	-1290
▁基于	-1291
结构的	-1292
商品	-1293
尽管	-1294
种植	-1295
上去	-1296
下了	-1297
均匀	-1298
仍然	-1299
愿意	-1300
做到	-1301
物流	-1302
慢慢	-1303
在这	-1304
▁中国	-1305
合物	-1306
谢谢	-1307
数学	-1308
装修	-1309
的东西	-1310
同样	-1311
习惯	-1312
住了	-1313
▁可	-1314
儿子	-1315
的地	-1316
也可以	-1317
的心	-1318
给出了	-1319
判断	-1320
上升	-1321
干扰	-1322
说了	-1323
最好	-1324
自我	-1325
免疫	-1326
包装	-1327
描述	-1328
的手	-1329
你是	-1330
青年	-1331
最高	-1332
观测	-1333
检验	-1334
会有	-1335
途径	-1336
有利于	-1337
刚刚	-1338
欢迎	-1339
降水	-1340
各类	-1341
很快	-1342
态度	-1343
小时	-1344
不管	-1345
生成	-1346
的水	-1347
脸上	-1348
两人	-1349
医生	-1350
较高	-1351
这次	-1352
升级	-1353
样品	-1354
就能	-1355
总体	-1356
年代	-1357
颜色	-1358
提出了一种	-1359
天然	-1360
传统的	-1361
▁其实	-1362
▁目前	-1363
还能	-1364
中华	-1365
今年	-1366
功率	-1367
事实	-1368
扩大	-1369
很难	-1370
记录	-1371
国内外	-1372
即使	-1373
报道	-1374
是因为	-1375
问题的	-1376
涉及	-1377
癫痫	-1378
发布	-1379
成绩	-1380
推荐	-1381
体制	-1382
挑战	-1383
消息	-1384
出口	-1385
搜索	-1386
都没有	-1387
溶液	-1388
双方	-1389
噪声	-1390
常见	-1391
毕业	-1392
劳动	-1393
兴趣	-1394
教授	-1395
转移	-1396
分配	-1397
大型	-1398
症状	-1399
的设计	-1400
也要	-1401
光谱	-1402
引入	-1403
强调	-1404
当地	-1405
都要	-1406
实时	-1407
配置	-1408
始终	-1409
的前	-1410
竟然	-1411
让他	-1412
▁说	-1413
较为	-1414
学的	-1415
成长	-1416
曾经	-1417
都没	-1418
而言	-1419
预报	-1420
改造	-1421
多年	-1422
英国	-1423
工作的	-1424
一声	-1425
本来	-1426
女性	-1427
的可	-1428
追求	-1429
实现了	-1430
▁据	-1431
就算	-1432
居然	-1433
一条	-1434
费用	-1435
▁哈哈哈	-1436
我要	-1437
约束	-1438
产生的	-1439
机理	-1440
爱的	-1441
▁与	-1442
公路	-1443
头发	-1444
结束	-1445
新型	-1446
日常	-1447
连接	-1448
更是	-1449
完整	-1450
文献	-1451
和谐	-1452
▁虽然	-1453
区的	-1454
各项	-1455
点的	-1456
过的	-1457
一年	-1458
主体	-1459
做了	-1460
是我	-1461
进展	-1462
吃饭	-1463
垃圾	-1464
较好的	-1465
普遍	-1466
原料	-1467
仿佛	-1468
独特	-1469
在于	-1470
大小	-1471
皮肤	-1472
再次	-1473
深度	-1474
不敢	-1475
厂家	-1476
娱乐	-1477
▁文章	-1478
非线性	-1479
两组	-1480
好看	-1481
局部	-1482
▁实验	-1483
整合	-1484
委员会	-1485
的特点	-1486
起了	-1487
高校	-1488
公司的	-1489
不用	-1490
该方法	-1491
承担	-1492
图书馆	-1493
范围内	-1494
上面	-1495
之外	-1496
协会	-1497
比赛	-1498
协议	-1499
科研	-1500
具备	-1501
固定	-1502
死了	-1503
给予	-1504
回到	-1505
或许	-1506
的方式	-1507
姑娘	-1508
更好的	-1509
中间	-1510
便是	-1511
思路	-1512
通过对	-1513
永远	-1514
注册	-1515
葡萄	-1516
不再	-1517
传感	-1518
动脉	-1519
昨天	-1520
依然	-1521
不起	-1522
减小	-1523
获取	-1524
突出	-1525
动力学	-1526
力学	-1527
地说	-1528
度和	-1529
的情况下	-1530
智慧	-1531
个月	-1532
进行分析	-1533
几年	-1534
自主	-1535
缺乏	-1536
让你	-1537
别的	-1538
名字	-1539
较好	-1540
辐射	-1541
有一个	-1542
人都	-1543
的有效	-1544
回答	-1545
忽然	-1546
的热	-1547
合金	-1548
油气	-1549
进步	-1550
令人	-1551
变成	-1552
敏感	-1553
队伍	-1554
序列	-1555
心中	-1556
文学	-1557
来到	-1558
附近	-1559
第一次	-1560
思考	-1561
父母	-1562
所有的	-1563
血管	-1564
那一	-1565
也就	-1566
见到	-1567
要是	-1568
休息	-1569
回归	-1570
显得	-1571
素质	-1572
输出	-1573
宝宝	-1574
求解	-1575
明显的	-1576
共享	-1577
通信	-1578
滤波	-1579
一体	-1580
人在	-1581
升高	-1582
情绪	-1583
加上	-1584
多个	-1585
权利	-1586
转型	-1587
地质	-1588
的老	-1589
覆盖	-1590
逐步	-1591
主要是	-1592
居民	-1593
成员	-1594
的技术	-1595
位于	-1596
动作	-1597
得出	-1598
探讨了	-1599
中医	-1600
充满	-1601
成立	-1602
照片	-1603
转换	-1604
▁王	-1605
▁首先	-1606
上述	-1607
每次	-1608
驱动	-1609
合适	-1610
产量	-1611
进而	-1612
人口	-1613
加大	-1614
▁其	-1615
不想	-1616
很好的	-1617
相结合	-1618
▁李	-1619
接着	-1620
渠道	-1621
高温	-1622
计算机	-1623
下面	-1624
单元	-1625
同志	-1626
思维	-1627
我想	-1628
房间	-1629
英语	-1630
要素	-1631
睡觉	-1632
隧道	-1633
▁新	-1634
作者	-1635
矛盾	-1636
至于	-1637
从事	-1638
海洋	-1639
路径	-1640
▁作为	-1641
的应用	-1642
转变	-1643
进程	-1644
▁这些	-1645
事故	-1646
框架	-1647
都能	-1648
做出	-1649
弹性	-1650
目光	-1651
的生活	-1652
国外	-1653
最大的	-1654
地下	-1655
才是	-1656
每一	-1657
主题	-1658
室内	-1659
担心	-1660
速率	-1661
通道	-1662
件事	-1663
加油	-1664
小说	-1665
并不是	-1666
▁可是	-1667
我在	-1668
文中	-1669
大部分	-1670
优质	-1671
合同	-1672
预防	-1673
更新	-1674
深刻	-1675
跟踪	-1676
治疗组	-1677
美的	-1678
观念	-1679
漂亮	-1680
路上	-1681
统计学	-1682
伦理	-1683
▁然而	-1684
呼吸	-1685
玩家	-1686
气候	-1687
还可以	-1688
电路	-1689
采集	-1690
马上	-1691
上市	-1692
女儿	-1693
法的	-1694
一家	-1695
战争	-1696
说是	-1697
的一些	-1698
正是	-1699
经理	-1700
前景	-1701
有效地	-1702
国的	-1703
感受	-1704
期的	-1705
低于	-1706
在线	-1707
基地	-1708
所谓	-1709
有限元	-1710
还没有	-1711
▁通过对	-1712
匹配	-1713
▁用	-1714
监控	-1715
初步	-1716
就业	-1717
的要求	-1718
文件	-1719
通常	-1720
不在	-1721
学会	-1722
模型的	-1723
中小	-1724
乡村	-1725
大鼠	-1726
说不	-1727
难道	-1728
了我	-1729
感情	-1730
突破	-1731
装备	-1732
寿命	-1733
断裂	-1734
来源	-1735
怎样	-1736
最小	-1737
优于	-1738
吃的	-1739
攻击	-1740
唯一	-1741
地面	-1742
专门	-1743
日子	-1744
沟通	-1745
门口	-1746
▁没有	-1747
电流	-1748
很有	-1749
概率	-1750
人士	-1751
必然	-1752
香港	-1753
刚才	-1754
支付	-1755
▁三	-1756
层的	-1757
丰富的	-1758
也在	-1759
变换	-1760
多样	-1761
扫描	-1762
接近	-1763
超声	-1764
打开	-1765
排放	-1766
你说	-1767
注射	-1768
耦合	-1769
表情	-1770
修复	-1771
森林	-1772
记忆	-1773
跟着	-1774
不见	-1775
所在	-1776
把握	-1777
群体	-1778
脂肪	-1779
做的	-1780
家具	-1781
犯罪	-1782
装饰	-1783
逻辑	-1784
遗传	-1785
前的	-1786
西方	-1787
很大的	-1788
寻找	-1789
我说	-1790
免费	-1791
适用于	-1792
既然	-1793
却是	-1794
的原因	-1795
不多	-1796
给他	-1797
),	-1798
优点	-1799
展开	-1800
代理	-1801
燃烧	-1802
密切	-1803
死亡	-1804
立刻	-1805
大大	-1806
其它	-1807
进去	-1808
部位	-1809
释放	-1810
四个	-1811
▁今天	-1812
家长	-1813
注重	-1814
山东	-1815
美丽	-1816
阅读	-1817
技术的	-1818
少年	-1819
时刻	-1820
种类	-1821
财政	-1822
▁将	-1823
产物	-1824
想象	-1825
带来的	-1826
激光	-1827
生存	-1828
众多	-1829
段时间	-1830
一只	-1831
传输	-1832
基层	-1833
情况下	-1834
▁就	-1835
从来	-1836
材料的	-1837
更为	-1838
网上	-1839
输入	-1840
防治	-1841
巨大的	-1842
后面	-1843
辅助	-1844
办公室	-1845
兄弟	-1846
到的	-1847
尺寸	-1848
布局	-1849
扩展	-1850
商务	-1851
电脑	-1852
加盟	-1853
定量	-1854
广州	-1855
▁此外	-1856
大于	-1857
的产品	-1858
较高的	-1859
··	-1860
上班	-1861
公式	-1862
有个	-1863
绿化	-1864
享受	-1865
大气	-1866
办理	-1867
口气	-1868
激励	-1869
而已	-1870
在这里	-1871
名的	-1872
管道	-1873
超过	-1874
可能会	-1875
发射	-1876
期待	-1877
结婚	-1878
存在的	-1879
创作	-1880
压缩	-1881
驾驶	-1882
我觉得	-1883
形势	-1884
边的	-1885
专业的	-1886
▁天	-1887
了吗	-1888
互动	-1889
件的	-1890
哲学	-1891
围绕	-1892
深化	-1893
电压	-1894
了起来	-1895
呵呵	-1896
边界	-1897
还会	-1898
相关的	-1899
战斗	-1900
收集	-1901
深圳	-1902
设计的	-1903
初始	-1904
学者	-1905
较低	-1906
为例	-1907
卫星	-1908
客观	-1909
此时	-1910
食物	-1911
▁当然	-1912
包含	-1913
尺度	-1914
补偿	-1915
人群	-1916
又是	-1917
阳光	-1918
体积	-1919
进行了分析	-1920
以下	-1921
分解	-1922
至少	-1923
节点	-1924
阐述了	-1925
熟悉	-1926
传递	-1927
进口	-1928
外面	-1929
强烈	-1930
矩阵	-1931
取得了	-1932
市场的	-1933
消失	-1934
典型	-1935
积累	-1936
认知	-1937
近平	-1938
了吧	-1939
病毒	-1940
的结果	-1941
想法	-1942
干燥	-1943
民主	-1944
鼓励	-1945
,,	-1946
借鉴	-1947
助于	-1948
整理	-1949
了一些	-1950
公开	-1951
地理	-1952
彻底	-1953
习近平	-1954
方法对	-1955
发动	-1956
房子	-1957
也就是	-1958
是有	-1959
一眼	-1960
提前	-1961
清晰	-1962
大多数	-1963
气体	-1964
精确	-1965
什么时候	-1966
瞬间	-1967
可能是	-1968
的关键	-1969
欧洲	-1970
荧光	-1971
▁中	-1972
广东	-1973
选取	-1974
伙伴	-1975
你要	-1976
进了	-1977
传感器	-1978
▁看	-1979
一旦	-1980
你就	-1981
危害	-1982
一样的	-1983
等问题	-1984
可爱	-1985
走到	-1986
▁高	-1987
上下	-1988
自行	-1989
在了	-1990
电动	-1991
▁它	-1992
▁等	-1993
上一	-1994
吃了	-1995
走向	-1996
还原	-1997
▁这种	-1998
因而	-1999
处的	-2000
多元	-2001
错误	-2002
适当	-2003
优良	-2004
渗透	-2005
并在	-2006
日益	-2007
有很多	-2008
▁下	-2009
公园	-2010
随后	-2011
三角	-2012
最优	-2013
水的	-2014
天的	-2015
某些	-2016
痛苦	-2017
相似	-2018
肿瘤	-2019
伤害	-2020
太太	-2021
人物	-2022
对应	-2023
盆地	-2024
观点	-2025
地产	-2026
女孩	-2027
融资	-2028
法规	-2029
直到	-2030
高兴	-2031
不但	-2032
党委	-2033
心情	-2034
应对	-2035
防止	-2036
供给	-2037
姐姐	-2038
简直	-2039
经济发展	-2040
党员	-2041
发出	-2042
您的	-2043
紧张	-2044
轻松	-2045
铁路	-2046
▁我也	-2047
当代	-2048
和社会	-2049
验证了	-2050
培育	-2051
了个	-2052
电力	-2053
笔者	-2054
集成	-2055
都可以	-2056
厚度	-2057
式的	-2058
当中	-2059
电机	-2060
的声音	-2061
一阵	-2062
实行	-2063
染色	-2064
▁一个	-2065
出版	-2066
加速	-2067
地球	-2068
位移	-2069
活力	-2070
讨论了	-2071
▁想	-2072
分享	-2073
工商	-2074
打算	-2075
地区的	-2076
发病	-2077
好多	-2078
模块	-2079
各地	-2080
虚拟	-2081
依法	-2082
发的	-2083
节能	-2084
不够	-2085
分数	-2086
力度	-2087
场的	-2088
实用	-2089
小心	-2090
()	-2091
公平	-2092
急性	-2093
董事	-2094
大量的	-2095
同一	-2096
内涵	-2097
定义	-2098
角色	-2099
贯彻	-2100
足够	-2101
信用	-2102
缺陷	-2103
超级	-2104
▁近年来	-2105
不出	-2106
会的	-2107
方位	-2108
甲基	-2109
经典	-2110
人体	-2111
十年	-2112
反而	-2113
各自	-2114
标志	-2115
边缘	-2116
为基础	-2117
可持续	-2118
部署	-2119
顺利	-2120
平面	-2121
巨大	-2122
▁公司	-2123
中国的	-2124
厉害	-2125
形状	-2126
早就	-2127
现有	-2128
望着	-2129
合理的	-2130
生活中	-2131
之下	-2132
协同	-2133
发光	-2134
早期	-2135
是对	-2136
负责人	-2137
味道	-2138
小姐	-2139
收益	-2140
采购	-2141
赶紧	-2142
人生	-2143
军事	-2144
女子	-2145
实的	-2146
统计学意义	-2147
将会	-2148
研究的	-2149
交换	-2150
少数	-2151
给出	-2152
现代化	-2153
同步	-2154
在一	-2155
药品	-2156
催化剂	-2157
像是	-2158
▁张	-2159
公众	-2160
▁你们	-2161
出现了	-2162
本质	-2163
爱情	-2164
化合物	-2165
旋转	-2166
血清	-2167
诸多	-2168
中药	-2169
表征	-2170
的那	-2171
这位	-2172
今后	-2173
提醒	-2174
轻轻	-2175
哪个	-2176
尝试	-2177
不动	-2178
了几	-2179
场景	-2180
雷达	-2181
分析和	-2182
十二	-2183
去除	-2184
司法	-2185
波动	-2186
生日	-2187
剂量	-2188
由此	-2189
一把	-2190
不然	-2191
可见	-2192
子上	-2193
得很	-2194
的社会	-2195
生态环境	-2196
知识产权	-2197
▁第	-2198
季节	-2199
感谢	-2200
细节	-2201
资格	-2202
主席	-2203
障碍	-2204
为您	-2205
大概	-2206
重复	-2207
每一个	-2208
显然	-2209
的光	-2210
维修	-2211
数据库	-2212
分散	-2213
发酵	-2214
天下	-2215
平时	-2216
法院	-2217
也很	-2218
多次	-2219
空调	-2220
怎么样	-2221
存在的问题	-2222
在大	-2223
外的	-2224
完了	-2225
将其	-2226
江苏	-2227
视觉	-2228
前后	-2229
反正	-2230
干净	-2231
发达	-2232
放弃	-2233
法和	-2234
笑道	-2235
贷款	-2236
关心	-2237
哥哥	-2238
玉米	-2239
重的	-2240
马克	-2241
▁再	-2242
个体	-2243
成的	-2244
最好的	-2245
专利	-2246
你不	-2247
在他	-2248
情感	-2249
成都	-2250
适用	-2251
他在	-2252
冲突	-2253
拓展	-2254
不上	-2255
格局	-2256
气的	-2257
听说	-2258
的对	-2259
薄膜	-2260
▁二	-2261
有没有	-2262
德国	-2263
点头	-2264
文化的	-2265
意味	-2266
航空	-2267
场所	-2268
样本	-2269
留下	-2270
舒适	-2271
诱导	-2272
投资者	-2273
机器人	-2274
的历史	-2275
的效果	-2276
的需求	-2277
配套	-2278
轨道	-2279
切实	-2280
的气	-2281
破碎	-2282
证据	-2283
▁然后	-2284
相关性	-2285
一位	-2286
建模	-2287
有时	-2288
也不会	-2289
关联	-2290
此次	-2291
出现在	-2292
有助于	-2293
信任	-2294
均有	-2295
天天	-2296
数值模拟	-2297
放心	-2298
杆菌	-2299
致力	-2300
也能	-2301
医学	-2302
塑料	-2303
定了	-2304
展现	-2305
属性	-2306
或是	-2307
百姓	-2308
维持	-2309
部的	-2310
重庆	-2311
麻烦	-2312
关节	-2313
摩擦	-2314
纷纷	-2315
织物	-2316
表现为	-2317
分辨	-2318
立即	-2319
集体	-2320
不良	-2321
依赖	-2322
适宜	-2323
可靠性	-2324
提出的	-2325
个性	-2326
工厂	-2327
推导	-2328
提出一种	-2329
举办	-2330
共产	-2331
含有	-2332
意的	-2333
服装	-2334
二次	-2335
作出	-2336
否则	-2337
文字	-2338
是指	-2339
浙江	-2340
补充	-2341
程度上	-2342
的中	-2343
示范	-2344
职工	-2345
的安全	-2346
两天	-2347
人力	-2348
他说	-2349
研制	-2350
护理	-2351
等级	-2352
色谱	-2353
大了	-2354
不对	-2355
社会的	-2356
哪些	-2357
罗斯	-2358
也不是	-2359
长时间	-2360
合法	-2361
定制	-2362
扩散	-2363
探测	-2364
更好地	-2365
不大	-2366
揭示	-2367
明的	-2368
酸盐	-2369
▁不是	-2370
不可能	-2371
你了	-2372
修正	-2373
太多	-2374
是要	-2375
进来	-2376
获得了	-2377
变量	-2378
在我	-2379
常常	-2380
幼儿	-2381
线的	-2382
方法的	-2383
原本	-2384
大力	-2385
▁另外	-2386
新时代	-2387
神经网络	-2388
仔细	-2389
反馈	-2390
的外	-2391
发生了	-2392
很多人	-2393
实例	-2394
形成了	-2395
解决方案	-2396
各级	-2397
宗教	-2398
细菌	-2399
色彩	-2400
降解	-2401
的分析	-2402
老板	-2403
苹果	-2404
见过	-2405
随时	-2406
东北	-2407
高压	-2408
的感觉	-2409
他是	-2410
则是	-2411
得了	-2412
财务	-2413
▁我的	-2414
▁近	-2415
公安	-2416
几何	-2417
起到	-2418
周边	-2419
看到了	-2420
后期	-2421
垂直	-2422
奇怪	-2423
法对	-2424
激发	-2425
皇帝	-2426
学生的	-2427
较大的	-2428
眼前	-2429
分钟	-2430
无人	-2431
案例	-2432
红外	-2433
红色	-2434
改性	-2435
污水	-2436
无论是	-2437
低温	-2438
力和	-2439
加热	-2440
单一	-2441
我都	-2442
▁这是	-2443
信息化	-2444
▁上	-2445
▁哎	-2446
反射	-2447
大陆	-2448
指挥	-2449
流体	-2450
类似	-2451
高质量	-2452
倒是	-2453
毫无	-2454
消除	-2455
应该是	-2456
最为	-2457
编码	-2458
制品	-2459
营造	-2460
鉴定	-2461
患者的	-2462
下午	-2463
跟我	-2464
一张	-2465
飞行	-2466
叶片	-2467
夫人	-2468
岗位	-2469
量为	-2470
面上	-2471
实体	-2472
水泥	-2473
形成的	-2474
尽量	-2475
腐蚀	-2476
铁矿	-2477
高等	-2478
实际上	-2479
自适应	-2480
类的	-2481
那是	-2482
▁就是	-2483
的样子	-2484
▁多	-2485
过程中的	-2486
一块	-2487
消耗	-2488
就有	-2489
挖掘	-2490
氨基	-2491
视角	-2492
面向	-2493
一系列	-2494
看起来	-2495
引发	-2496
无数	-2497
生理	-2498
老年	-2499
股份	-2500
节目	-2501
认可	-2502
顾客	-2503
幅度	-2504
方的	-2505
微生物	-2506
你在	-2507
使命	-2508
咖啡	-2509
商标	-2510
早上	-2511
树脂	-2512
的目的	-2513
启动	-2514
小编	-2515
我会	-2516
消防	-2517
理由	-2518
的美	-2519
积分	-2520
船舶	-2521
行性	-2522
那边	-2523
回顾	-2524
病的	-2525
还好	-2526
我去	-2527
清洗	-2528
西部	-2529
身子	-2530
三十	-2531
延长	-2532
成就	-2533
是由	-2534
饲料	-2535
▁可以	-2536
在这个	-2537
▁自	-2538
储层	-2539
术后	-2540
用来	-2541
观众	-2542
长度	-2543
新技术	-2544
▁刘	-2545
会计	-2546
四川	-2547
影像	-2548
选用	-2549
和发展	-2550
一路	-2551
双手	-2552
头的	-2553
查询	-2554
证券	-2555
了他	-2556
南京	-2557
桥梁	-2558
武器	-2559
飞机	-2560
并通过	-2561
致力于	-2562
一片	-2563
云南	-2564
在不同	-2565
爸爸	-2566
率和	-2567
货币	-2568
介质	-2569
旁边	-2570
演化	-2571
知名	-2572
笑着	-2573
说我	-2574
的能力	-2575
保留	-2576
害怕	-2577
校园	-2578
黑色	-2579
未来的	-2580
危机	-2581
微微	-2582
界面	-2583
引起的	-2584
马克思	-2585
不太	-2586
和平	-2587
男子	-2588
财产	-2589
领域的	-2590
▁白	-2591
图片	-2592
家人	-2593
通知	-2594
夏季	-2595
得到的	-2596
和我	-2597
引进	-2598
抓住	-2599
时尚	-2600
▁在此	-2601
的过程	-2602
竞争力	-2603
搭配	-2604
。。。。	-2605
例如	-2606
借助	-2607
粒子	-2608
等因素	-2609
上来	-2610
国有	-2611
大利	-2612
石油	-2613
笑了	-2614
问道	-2615
饱和	-2616
去看	-2617
家伙	-2618
着的	-2619
调研	-2620
现在的	-2621
生活的	-2622
▁第二	-2623
▁试验	-2624
已成为	-2625
最低	-2626
正式	-2627
精准	-2628
随便	-2629
凝胶	-2630
登记	-2631
粮食	-2632
舒服	-2633
真正的	-2634
一道	-2635
区别	-2636
威胁	-2637
权益	-2638
硬件	-2639
的内容	-2640
变革	-2641
羡慕	-2642
长江	-2643
义务	-2644
忘记	-2645
▁我是	-2646
不懂	-2647
们的	-2648
家族	-2649
带动	-2650
开口	-2651
成像	-2652
照顾	-2653
传承	-2654
对外	-2655
荷载	-2656
输送	-2657
首次	-2658
休闲	-2659
千万	-2660
台湾	-2661
流域	-2662
自觉	-2663
便宜	-2664
允许	-2665
养老	-2666
城镇	-2667
多么	-2668
太平	-2669
怀疑	-2670
林业	-2671
会上	-2672
化和	-2673
印象	-2674
律师	-2675
河南	-2676
等着	-2677
就好	-2678
燃料	-2679
干预	-2680
沥青	-2681
股票	-2682
中国特色	-2683
不行	-2684
大众	-2685
想着	-2686
才会	-2687
流的	-2688
眼神	-2689
跟你	-2690
健身	-2691
尊重	-2692
显微	-2693
算是	-2694
缓解	-2695
难题	-2696
▁而且	-2697
依旧	-2698
最新	-2699
案件	-2700
的脸	-2701
自治	-2702
和你	-2703
收敛	-2704
某种	-2705
至今	-2706
▁其中	-2707
出门	-2708
化工	-2709
十八	-2710
很少	-2711
手里	-2712
是以	-2713
清洁	-2714
英雄	-2715
转向	-2716
高端	-2717
事务	-2718
妇女	-2719
工资	-2720
发芽	-2721
拒绝	-2722
收获	-2723
筛选	-2724
国家的	-2725
想起	-2726
我还	-2727
也不能	-2728
的结构	-2729
一看	-2730
不及	-2731
气象	-2732
大学生	-2733
建设的	-2734
划分	-2735
矿山	-2736
▁为此	-2737
算法的	-2738
▁阿	-2739
城乡	-2740
小鼠	-2741
缺点	-2742
论文	-2743
陶瓷	-2744
行业的	-2745
设计了	-2746
加以	-2747
不停	-2748
制约	-2749
失败	-2750
的质量	-2751
修改	-2752
考核	-2753
裂缝	-2754
利润	-2755
动的	-2756
厚的	-2757
将军	-2758
小于	-2759
氨酸	-2760
脉冲	-2761
萃取	-2762
部件	-2763
程度的	-2764
下一	-2765
存储	-2766
渐渐	-2767
没想到	-2768
表现出	-2769
▁介绍了	-2770
仪器	-2771
即可	-2772
如下	-2773
生意	-2774
阻尼	-2775
项目的	-2776
不着	-2777
仅仅	-2778
保存	-2779
发作	-2780
同意	-2781
应变	-2782
替代	-2783
机遇	-2784
极大	-2785
等待	-2786
存在着	-2787
健全	-2788
前面	-2789
宏观	-2790
三种	-2791
体内	-2792
回复	-2793
并非	-2794
组的	-2795
让我们	-2796
▁来	-2797
居住	-2798
差距	-2799
意外	-2800
无线	-2801
穿着	-2802
实验室	-2803
的服务	-2804
解决了	-2805
的过程中	-2806
不开	-2807
反复	-2808
发表	-2809
让她	-2810
嘿嘿	-2811
并与	-2812
联盟	-2813
防护	-2814
▁仿真	-2815
为研究	-2816
去的	-2817
秩序	-2818
一会儿	-2819
的选择	-2820
当年	-2821
果然	-2822
树立	-2823
疲劳	-2824
一直在	-2825
的发生	-2826
在此基础上	-2827
▁马	-2828
▁林	-2829
合格	-2830
警察	-2831
▁嗯嗯	-2832
头上	-2833
应急	-2834
造型	-2835
作家	-2836
减肥	-2837
微信	-2838
把他	-2839
评分	-2840
系统中	-2841
他就	-2842
单纯	-2843
导向	-2844
的神	-2845
若是	-2846
!!!!	-2847
作了	-2848
委会	-2849
海外	-2850
网格	-2851
的环境	-2852
互相	-2853
偏差	-2854
层面	-2855
法国	-2856
较小	-2857
大数据	-2858
意味着	-2859
东南	-2860
信心	-2861
旅行	-2862
武汉	-2863
车的	-2864
俄罗斯	-2865
一句	-2866
不利	-2867
众人	-2868
损害	-2869
▁还有	-2870
的信息	-2871
两年	-2872
代谢	-2873
优先	-2874
技巧	-2875
两个人	-2876
控制器	-2877
这么多	-2878
一件	-2879
大会	-2880
执法	-2881
蔬菜	-2882
的角度	-2883
降低了	-2884
听见	-2885
聚集	-2886
高级	-2887
▁是的	-2888
▁该文	-2889
在中国	-2890
内心	-2891
如同	-2892
家居	-2893
引领	-2894
给了	-2895
绩效	-2896
一定会	-2897
▁研究结果表明	-2898
一名	-2899
全体	-2900
老人	-2901
工作人员	-2902
把我	-2903
率的	-2904
设立	-2905
诉讼	-2906
之处	-2907
外部	-2908
性格	-2909
演变	-2910
讲话	-2911
自动化	-2912
命运	-2913
床上	-2914
权力	-2915
秘密	-2916
载体	-2917
道理	-2918
口腔	-2919
可怕	-2920
对流	-2921
所得	-2922
同时也	-2923
净化	-2924
女生	-2925
早已	-2926
氛围	-2927
血液	-2928
西安	-2929
贫困	-2930
另一方面	-2931
▁陈	-2932
但在	-2933
星期	-2934
称为	-2935
诚信	-2936
饮食	-2937
设备的	-2938
进行了研究	-2939
下次	-2940
临界	-2941
公民	-2942
原始	-2943
接收	-2944
盯着	-2945
脑袋	-2946
量和	-2947
带来了	-2948
怎么办	-2949
是中国	-2950
▁别	-2951
买了	-2952
大人	-2953
正交	-2954
独特的	-2955
停止	-2956
对着	-2957
试图	-2958
可以在	-2959
手中	-2960
旨在	-2961
西南	-2962
都很	-2963
不得不	-2964
出来了	-2965
告诉我	-2966
的不同	-2967
经济效益	-2968
)。	-2969
你也	-2970
对策	-2971
极为	-2972
的就是	-2973
的相关	-2974
到达	-2975
强大	-2976
杭州	-2977
没事	-2978
邀请	-2979
▁哦	-2980
地层	-2981
对手	-2982
游客	-2983
潜力	-2984
确认	-2985
考生	-2986
调控	-2987
阐述	-2988
▁文中	-2989
服务的	-2990
经济的	-2991
专项	-2992
之上	-2993
交叉	-2994
提示	-2995
本地	-2996
每年	-2997
究竟	-2998
房地产	-2999
▁又	-3000
二维	-3001
灵活	-3002
看出	-3003
▁目的观察	-3004
之间的关系	-3005
全身	-3006
直播	-3007
看的	-3008
这时	-3009
锈钢	-3010
简单的	-3011
学员	-3012
实测	-3013
承认	-3014
而不	-3015
职责	-3016
那儿	-3017
差不多	-3018
这一点	-3019
十九	-3020
半年	-3021
国民	-3022
房屋	-3023
消化	-3024
被人	-3025
▁你是	-3026
强大的	-3027
不如	-3028
会员	-3029
去年	-3030
均衡	-3031
是你	-3032
淀粉	-3033
组分	-3034
背后	-3035
路线	-3036
▁是啊	-3037
以此	-3038
厨房	-3039
物料	-3040
电磁	-3041
简化	-3042
世界上	-3043
的最佳	-3044
▁啊	-3045
内在	-3046
十五	-3047
回头	-3048
过滤	-3049
阳性	-3050
▁分析	-3051
忍不住	-3052
的生产	-3053
而不是	-3054
▁为什么	-3055
作战	-3056
差别	-3057
栽培	-3058
重建	-3059
▁怎么	-3060
另一个	-3061
古代	-3062
完美	-3063
彼此	-3064
承载	-3065
论坛	-3066
只不过	-3067
孩子的	-3068
一场	-3069
会在	-3070
潜在	-3071
电商	-3072
露出	-3073
▁我想	-3074
使用的	-3075
回来了	-3076
每个人	-3077
造成的	-3078
发性	-3079
部队	-3080
不确定	-3081
大家都	-3082
是非常	-3083
证明了	-3084
中国特色社会主义	-3085
▁正	-3086
东方	-3087
做法	-3088
嘻嘻	-3089
慢性	-3090
热带	-3091
物品	-3092
的理论	-3093
冷却	-3094
对他	-3095
湿地	-3096
的时	-3097
纳入	-3098
▁于是	-3099
此刻	-3100
民间	-3101
碰撞	-3102
那就	-3103
水平的	-3104
水质	-3105
聚合	-3106
载荷	-3107
工作中	-3108
丈夫	-3109
妻子	-3110
很久	-3111
收费	-3112
水体	-3113
激烈	-3114
热情	-3115
线上	-3116
▁主要	-3117
主管	-3118
人为	-3119
印度	-3120
特定	-3121
翻译	-3122
组成部分	-3123
北方	-3124
对我	-3125
打击	-3126
这边	-3127
很容易	-3128
博士	-3129
市民	-3130
的天	-3131
磷酸	-3132
认同	-3133
远远	-3134
基础设施	-3135
了两	-3136
刚度	-3137
台风	-3138
摄影	-3139
梯度	-3140
研讨	-3141
课题	-3142
违法	-3143
能不能	-3144
蛋白质	-3145
依靠	-3146
成效	-3147
矿物	-3148
融入	-3149
表演	-3150
身后	-3151
▁结合	-3152
那么多	-3153
也不知道	-3154
▁请	-3155
伟大	-3156
并将	-3157
异性	-3158
有多	-3159
水分	-3160
不一样	-3161
和他	-3162
本次	-3163
灵魂	-3164
胜利	-3165
蒙古	-3166
你可以	-3167
年轻人	-3168
没什么	-3169
的一切	-3170
不变	-3171
乃至	-3172
克服	-3173
恐怕	-3174
是最	-3175
直径	-3176
自信	-3177
读书	-3178
说什么	-3179
孔隙	-3180
岩石	-3181
性与	-3182
所需	-3183
爆炸	-3184
风景	-3185
黄金	-3186
为核心	-3187
批评	-3188
拟合	-3189
暴雨	-3190
板的	-3191
生气	-3192
用药	-3193
继承	-3194
膨胀	-3195
情形	-3196
立法	-3197
青春	-3198
我现在	-3199
真的是	-3200
具有良好的	-3201
下载	-3202
团结	-3203
坐标	-3204
夏天	-3205
宿舍	-3206
流行	-3207
落地	-3208
难度	-3209
时间的	-3210
三年	-3211
掉了	-3212
发动机	-3213
▁实验结果表明	-3214
便利	-3215
忘了	-3216
信息的	-3217
孩子们	-3218
生产的	-3219
资源的	-3220
两者	-3221
中有	-3222
好久	-3223
姿态	-3224
股东	-3225
辛苦	-3226
关系的	-3227
出现的	-3228
▁前	-3229
布置	-3230
紧密	-3231
的市场	-3232
的空间	-3233
分析方法	-3234
一笑	-3235
电源	-3236
负荷	-3237
▁我国	-3238
充分发挥	-3239
▁周	-3240
减轻	-3241
收到	-3242
暂时	-3243
去找	-3244
妹妹	-3245
摇头	-3246
温暖	-3247
读者	-3248
透明	-3249
餐饮	-3250
不需要	-3251
控制系统	-3252
亲自	-3253
使其	-3254
本人	-3255
浪费	-3256
灾害	-3257
用量	-3258
这才	-3259
儿的	-3260
街道	-3261
访问	-3262
总经理	-3263
这件事	-3264
主人	-3265
出行	-3266
即将	-3267
多久	-3268
火车	-3269
螺旋	-3270
证实	-3271
辈子	-3272
常见的	-3273
▁哇	-3274
一大	-3275
公主	-3276
发电	-3277
哪儿	-3278
在家	-3279
对此	-3280
平等	-3281
紫外	-3282
这类	-3283
结构和	-3284
亚洲	-3285
倾向	-3286
制的	-3287
履行	-3288
梦想	-3289
横向	-3290
西北	-3291
▁杨	-3292
予以	-3293
事项	-3294
官方	-3295
新鲜	-3296
权的	-3297
空中	-3298
级的	-3299
解放	-3300
人们的	-3301
作用下	-3302
告诉你	-3303
数据的	-3304
这就是	-3305
举行	-3306
各国	-3307
峰值	-3308
职能	-3309
了你	-3310
各位	-3311
失去	-3312
容量	-3313
电极	-3314
负载	-3315
之所以	-3316
了下来	-3317
打电话	-3318
的特征	-3319
结果显示	-3320
坚决	-3321
对称	-3322
小学	-3323
▁该方法	-3324
优惠	-3325
尽快	-3326
延伸	-3327
扩张	-3328
策划	-3329
紧紧	-3330
肚子	-3331
制度的	-3332
中的应用	-3333
进行研究	-3334
随机分为	-3335
▁苏	-3336
创建	-3337
后续	-3338
奥运	-3339
射线	-3340
局限	-3341
恐怖	-3342
液体	-3343
肌肉	-3344
错了	-3345
▁那你	-3346
产生了	-3347
我们在	-3348
的功能	-3349
▁目的探讨	-3350
今日	-3351
期望	-3352
答应	-3353
缓缓	-3354
走进	-3355
韩国	-3356
的管理	-3357
▁我觉得	-3358
数学模型	-3359
人和	-3360
以往	-3361
已有	-3362
志愿	-3363
极其	-3364
起的	-3365
▁哈哈哈哈	-3366
处置	-3367
对该	-3368
▁赵	-3369
就行	-3370
斗争	-3371
的确	-3372
军队	-3373
召开	-3374
权威	-3375
素的	-3376
的朋友	-3377
▁还	-3378
住房	-3379
公益	-3380
婚姻	-3381
手指	-3382
模态	-3383
湖南	-3384
运作	-3385
都被	-3386
一下子	-3387
大规模	-3388
▁研究了	-3389
影响因素	-3390
其次	-3391
售后	-3392
国务	-3393
带领	-3394
更有	-3395
理性	-3396
疼痛	-3397
的临床	-3398
不去	-3399
再生	-3400
小区	-3401
平稳	-3402
年纪	-3403
开关	-3404
感知	-3405
新生	-3406
硫酸	-3407
线路	-3408
轨迹	-3409
基本上	-3410
三大	-3411
没人	-3412
节约	-3413
过于	-3414
是为了	-3415
的数据	-3416
计算结果	-3417
▁人	-3418
全力	-3419
协作	-3420
快递	-3421
档案	-3422
足球	-3423
锻炼	-3424
一体化	-3425
考虑到	-3426
让他们	-3427
大多	-3428
对待	-3429
州市	-3430
废水	-3431
白色	-3432
顿时	-3433
技术和	-3434
创意	-3435
勘探	-3436
南方	-3437
奶奶	-3438
安静	-3439
我了	-3440
明星	-3441
溶解	-3442
脸色	-3443
静脉	-3444
齿轮	-3445
外国	-3446
微观	-3447
明明	-3448
话说	-3449
的使用	-3450
确定了	-3451
自身的	-3452
吻合	-3453
正好	-3454
激动	-3455
着重	-3456
聪明	-3457
我知道	-3458
出席	-3459
区块	-3460
医药	-3461
天津	-3462
快的	-3463
步骤	-3464
粒径	-3465
院长	-3466
变成了	-3467
有时候	-3468
活动的	-3469
不清	-3470
之路	-3471
依托	-3472
单独	-3473
地域	-3474
定期	-3475
将来	-3476
扶贫	-3477
敌人	-3478
财富	-3479
道的	-3480
可能性	-3481
在一个	-3482
必要的	-3483
经济学	-3484
能力和	-3485
论述了	-3486
准则	-3487
哪怕	-3488
小波	-3489
把你	-3490
舞台	-3491
调度	-3492
显著性	-3493
的机会	-3494
▁哈哈哈哈哈哈	-3495
为一	-3496
历程	-3497
更高	-3498
灵敏	-3499
糖尿	-3500
话题	-3501
这儿	-3502
院校	-3503
管理的	-3504
分析表明	-3505
▁恩	-3506
不由	-3507
不说	-3508
与其	-3509
充电	-3510
坚定	-3511
开采	-3512
微波	-3513
放电	-3514
故意	-3515
新疆	-3516
无限	-3517
解析	-3518
合适的	-3519
并结合	-3520
显著的	-3521
组织的	-3522
即便	-3523
实质	-3524
工人	-3525
梳理	-3526
的双	-3527
秘书	-3528
节奏	-3529
购物	-3530
零售	-3531
▁最近	-3532
制造业	-3533
理论和	-3534
过程的	-3535
有一定的	-3536
▁研究表明	-3537
冬季	-3538
分割	-3539
拿着	-3540
水果	-3541
焊接	-3542
美好	-3543
认证	-3544
教育的	-3545
先后	-3546
回忆	-3547
士兵	-3548
奋斗	-3549
把它	-3550
气温	-3551
简要	-3552
芯片	-3553
赚钱	-3554
浓度的	-3555
类型的	-3556
性能的影响	-3557
▁四	-3558
作物	-3559
几次	-3560
化妆	-3561
取代	-3562
带的	-3563
得以	-3564
深深	-3565
缩短	-3566
转身	-3567
方法和	-3568
一人	-3569
争取	-3570
老婆	-3571
总书记	-3572
复合材料	-3573
审查	-3574
密封	-3575
我看	-3576
数的	-3577
起身	-3578
转速	-3579
正确的	-3580
考察了	-3581
较强的	-3582
全局	-3583
几种	-3584
回事	-3585
展望	-3586
缺少	-3587
▁我在	-3588
▁这样	-3589
稳定的	-3590
提供参考	-3591
一时	-3592
凝聚	-3593
出手	-3594
暴露	-3595
橡胶	-3596
越大	-3597
～～	-3598
不锈钢	-3599
安全性	-3600
环境的	-3601
反对	-3602
不容易	-3603
会不会	-3604
的前提	-3605
具有重要	-3606
值的	-3607
公交	-3608
只好	-3609
广阔	-3610
想想	-3611
挑选	-3612
水库	-3613
第一个	-3614
背景下	-3615
主导	-3616
地图	-3617
局面	-3618
担任	-3619
是从	-3620
是谁	-3621
死的	-3622
短期	-3623
美术	-3624
轴承	-3625
▁这一	-3626
可达	-3627
多糖	-3628
好吃	-3629
普及	-3630
画面	-3631
病人	-3632
顺序	-3633
价值观	-3634
有可能	-3635
一面	-3636
无疑	-3637
沉淀	-3638
超越	-3639
▁那个	-3640
▁总	-3641
临时	-3642
了的	-3643
写的	-3644
少女	-3645
排名	-3646
百度	-3647
血压	-3648
发生的	-3649
复杂的	-3650
能力的	-3651
到处	-3652
火焰	-3653
黑暗	-3654
农产品	-3655
主持	-3656
值为	-3657
几十	-3658
当初	-3659
球队	-3660
这就	-3661
▁后来	-3662
国务院	-3663
▁最	-3664
前期	-3665
含水	-3666
地形	-3667
导航	-3668
局长	-3669
承受	-3670
整改	-3671
校长	-3672
贵州	-3673
躺在	-3674
采访	-3675
长得	-3676
▁除了	-3677
增加了	-3678
是一家	-3679
两位	-3680
住宅	-3681
司机	-3682
性别	-3683
指示	-3684
相位	-3685
能在	-3686
要去	-3687
规格	-3688
但他	-3689
承诺	-3690
液压	-3691
相反	-3692
▁尽管	-3693
不喜欢	-3694
环境下	-3695
丙烯	-3696
买的	-3697
假如	-3698
入手	-3699
兴奋	-3700
带有	-3701
干嘛	-3702
朝着	-3703
清除	-3704
眼里	-3705
▁这么	-3706
不仅仅	-3707
严重的	-3708
注射液	-3709
的企业	-3710
▁谁	-3711
一代	-3712
只见	-3713
小组	-3714
师傅	-3715
模样	-3716
美食	-3717
默默	-3718
全方位	-3719
城市的	-3720
均为	-3721
机场	-3722
爷爷	-3723
着力	-3724
▁经过	-3725
越来越多	-3726
▁金	-3727
保健	-3728
出生	-3729
出血	-3730
后果	-3731
广播	-3732
当今	-3733
染料	-3734
界的	-3735
竞技	-3736
预期	-3737
人工智能	-3738
没有任何	-3739
▁黄	-3740
一段	-3741
人文	-3742
剂的	-3743
实证	-3744
工况	-3745
广场	-3746
种种	-3747
裂纹	-3748
锅炉	-3749
食用	-3750
事实上	-3751
处理的	-3752
更大的	-3753
治疗后	-3754
等特点	-3755
体会	-3756
剪切	-3757
小型	-3758
欣赏	-3759
留在	-3760
病理	-3761
笑容	-3762
纪念	-3763
迁移	-3764
部长	-3765
防水	-3766
▁运用	-3767
总结了	-3768
新能源	-3769
乙醇	-3770
体外	-3771
你看	-3772
委托	-3773
早点	-3774
纺织	-3775
给她	-3776
般的	-3777
认定	-3778
陷入	-3779
▁好吧	-3780
▁应用	-3781
共产党	-3782
▁本文从	-3783
可惜	-3784
和的	-3785
放大	-3786
离散	-3787
高中	-3788
数字化	-3789
业绩	-3790
两国	-3791
搭建	-3792
本书	-3793
重构	-3794
人大	-3795
凭借	-3796
前提	-3797
商家	-3798
晶体	-3799
更大	-3800
水中	-3801
白的	-3802
论述	-3803
遵循	-3804
门的	-3805
研究所	-3806
达到了	-3807
严肃	-3808
以便	-3809
官网	-3810
对接	-3811
彩票	-3812
感动	-3813
晚安	-3814
法治	-3815
演员	-3816
供应商	-3817
糖尿病	-3818
▁太	-3819
▁真	-3820
刑事	-3821
发行	-3822
市委	-3823
掺杂	-3824
板块	-3825
爆发	-3826
领先	-3827
▁你的	-3828
不断的	-3829
▁如	-3830
光学	-3831
十一	-3832
同事	-3833
成年	-3834
文艺	-3835
的抗	-3836
移民	-3837
量子	-3838
魅力	-3839
综述了	-3840
马克思主义	-3841
仪式	-3842
反演	-3843
安慰	-3844
犹豫	-3845
福建	-3846
什么的	-3847
或者是	-3848
上有	-3849
其在	-3850
又有	-3851
就没	-3852
河北	-3853
满了	-3854
用了	-3855
等人	-3856
???	-3857
一方面	-3858
其中的	-3859
的存在	-3860
前往	-3861
可怜	-3862
建造	-3863
推出	-3864
新兴	-3865
的长	-3866
统筹	-3867
发现了	-3868
转化为	-3869
交互	-3870
园区	-3871
广西	-3872
招聘	-3873
是他	-3874
检察	-3875
而在	-3876
隐患	-3877
不错的	-3878
起来了	-3879
今晚	-3880
你去	-3881
外交	-3882
大幅	-3883
有序	-3884
突变	-3885
采样	-3886
其他的	-3887
的行为	-3888
保温	-3889
地铁	-3890
看法	-3891
讨厌	-3892
走出	-3893
过渡	-3894
迭代	-3895
时代的	-3896
经济增长	-3897
........	-3898
不久	-3899
前进	-3900
喜爱	-3901
手的	-3902
见了	-3903
参数的	-3904
中华民族	-3905
经济社会	-3906
参观	-3907
器件	-3908
地板	-3909
对我国	-3910
提供的	-3911
尚未	-3912
矿床	-3913
视野	-3914
变化的	-3915
这也是	-3916
▁快	-3917
会长	-3918
导弹	-3919
开拓	-3920
搅拌	-3921
斯特	-3922
电缆	-3923
精细	-3924
结晶	-3925
就没有	-3926
的位置	-3927
极限	-3928
第四	-3929
聚焦	-3930
通风	-3931
静态	-3932
▁他的	-3933
世界的	-3934
了一声	-3935
价值的	-3936
和其他	-3937
等领域	-3938
该算法	-3939
具有一定的	-3940
▁现	-3941
不下	-3942
嘴里	-3943
▁只有	-3944
供应链	-3945
我还是	-3946
的目标	-3947
相色谱	-3948
东部	-3949
了啊	-3950
剖析	-3951
和高	-3952
毫不	-3953
产业链	-3954
不易	-3955
保养	-3956
分级	-3957
固体	-3958
地点	-3959
异的	-3960
忽视	-3961
果实	-3962
注入	-3963
男性	-3964
感觉到	-3965
成为了	-3966
改革开放	-3967
重要的是	-3968
两次	-3969
内外	-3970
寻求	-3971
尴尬	-3972
招生	-3973
清理	-3974
生素	-3975
病情	-3976
网友	-3977
说你	-3978
体系的	-3979
和分析	-3980
▁在此基础上	-3981
也好	-3982
初期	-3983
封闭	-3984
店铺	-3985
我和	-3986
等的	-3987
缓慢	-3988
聚类	-3989
阶级	-3990
为原料	-3991
那就是	-3992
位的	-3993
十六	-3994
听着	-3995
精彩	-3996
终端	-3997
实际情况	-3998
为研究对象	-3999
你还	-4000
向量	-4001
大声	-4002
审美	-4003
审计	-4004
弯曲	-4005
评论	-4006
试试	-4007
说着	-4008
身材	-4009
癫痫病	-4010
的文化	-4011
经历了	-4012
少数民族	-4013
以外	-4014
回应	-4015
实地	-4016
开启	-4017
抱着	-4018
机动	-4019
某个	-4020
水解	-4021
波长	-4022
消毒	-4023
矿石	-4024
社交	-4025
符号	-4026
路面	-4027
运转	-4028
是我国	-4029
专注	-4030
又不	-4031
可为	-4032
澳门	-4033
电梯	-4034
繁殖	-4035
能否	-4036
萌发	-4037
身影	-4038
和服务	-4039
氧化物	-4040
运动员	-4041
▁方法将	-4042
写作	-4043
安徽	-4044
最多	-4045
沉降	-4046
溶剂	-4047
用水	-4048
的我	-4049
防范	-4050
具体的	-4051
入口	-4052
分泌	-4053
成矿	-4054
检出	-4055
次数	-4056
真空	-4057
眼泪	-4058
纵向	-4059
著名	-4060
信号的	-4061
找不到	-4062
电子商务	-4063
?!	-4064
一份	-4065
主流	-4066
乙烯	-4067
停车	-4068
决心	-4069
半天	-4070
向前	-4071
大师	-4072
报纸	-4073
景言	-4074
温柔	-4075
用品	-4076
百分	-4077
等到	-4078
说法	-4079
间接	-4080
你怎么	-4081
感受到	-4082
的形式	-4083
冬天	-4084
发言	-4085
并发	-4086
的无	-4087
眼镜	-4088
租赁	-4089
请求	-4090
餐厅	-4091
▁谢谢	-4092
别人的	-4093
就好了	-4094
水资源	-4095
法测定	-4096
两只	-4097
传动	-4098
小麦	-4099
组和	-4100
见面	-4101
遗产	-4102
太阳能	-4103
我已经	-4104
这两个	-4105
相互作用	-4106
代价	-4107
周末	-4108
在对	-4109
山区	-4110
残留	-4111
爱好	-4112
的海	-4113
礼物	-4114
衰减	-4115
陌生	-4116
鼻子	-4117
意识到	-4118
的专业	-4119
一段时间	-4120
▁经	-4121
一口	-4122
优越	-4123
媒介	-4124
审核	-4125
浸出	-4126
课堂	-4127
发展和	-4128
的综合	-4129
身上的	-4130
业主	-4131
充填	-4132
心脏	-4133
性强	-4134
收缩	-4135
热点	-4136
眼光	-4137
视为	-4138
超市	-4139
送到	-4140
通用	-4141
都市	-4142
的基础	-4143
▁每	-4144
不成	-4145
五十	-4146
以期	-4147
你会	-4148
假设	-4149
引擎	-4150
正义	-4151
编辑	-4152
脚步	-4153
近期	-4154
对中国	-4155
客户提供	-4156
一百	-4157
增殖	-4158
夫妻	-4159
客人	-4160
打破	-4161
报名	-4162
是很	-4163
水稻	-4164
说过	-4165
远程	-4166
▁原来	-4167
实践中	-4168
市场上	-4169
信仰	-4170
询问	-4171
贮藏	-4172
喜欢的	-4173
产品质量	-4174
他也	-4175
切割	-4176
地表	-4177
场地	-4178
官员	-4179
并以	-4180
收拾	-4181
攻坚	-4182
整治	-4183
无比	-4184
电器	-4185
聚糖	-4186
在一定	-4187
▁我也是	-4188
▁亲	-4189
举措	-4190
从中	-4191
增多	-4192
平静	-4193
形貌	-4194
灯光	-4195
随意	-4196
高原	-4197
把自己	-4198
用户的	-4199
充分利用	-4200
了好	-4201
再说	-4202
商场	-4203
节省	-4204
贵的	-4205
那天	-4206
下来的	-4207
可用于	-4208
接下来	-4209
标准化	-4210
可以通过	-4211
高速公路	-4212
二手	-4213
将在	-4214
建成	-4215
正规	-4216
民众	-4217
活跃	-4218
男生	-4219
落在	-4220
模型和	-4221
的含量	-4222
给我们	-4223
▁结果显示	-4224
专用	-4225
之地	-4226
五个	-4227
你这	-4228
其余	-4229
抗菌	-4230
断层	-4231
湖泊	-4232
电阻	-4233
的有	-4234
范畴	-4235
许可	-4236
近代	-4237
▁不要	-4238
分辨率	-4239
制备了	-4240
多年的	-4241
机构的	-4242
的形成	-4243
啊啊啊啊	-4244
一是	-4245
主张	-4246
公布	-4247
列车	-4248
占据	-4249
印刷	-4250
它是	-4251
并未	-4252
康复	-4253
得多	-4254
时空	-4255
的面	-4256
若干	-4257
较少	-4258
过度	-4259
通讯	-4260
首要	-4261
▁一般	-4262
▁比如	-4263
知道了	-4264
等多种	-4265
二人	-4266
合并	-4267
命令	-4268
和对	-4269
拍摄	-4270
标记	-4271
流场	-4272
热水	-4273
电解	-4274
的风	-4275
论证	-4276
较多	-4277
问卷	-4278
▁如今	-4279
党中央	-4280
更高的	-4281
的现象	-4282
重金属	-4283
一批	-4284
代替	-4285
包裹	-4286
区分	-4287
建构	-4288
放下	-4289
球员	-4290
等多	-4291
致的	-4292
钢筋	-4293
青少年	-4294
不论	-4295
你想	-4296
材质	-4297
深受	-4298
溶性	-4299
男女	-4300
男孩	-4301
的三	-4302
石头	-4303
磨损	-4304
脖子	-4305
频繁	-4306
人力资源	-4307
▁去	-4308
农户	-4309
博物	-4310
屋里	-4311
气息	-4312
移植	-4313
高考	-4314
主义的	-4315
呈现出	-4316
聚合物	-4317
的有效性	-4318
上学	-4319
住院	-4320
办事	-4321
势力	-4322
品位	-4323
地址	-4324
山西	-4325
弟弟	-4326
给人	-4327
脱贫	-4328
▁真的	-4329
优质的	-4330
特色的	-4331
不安	-4332
又要	-4333
归纳	-4334
神秘	-4335
编制	-4336
菌株	-4337
蒸汽	-4338
典型的	-4339
显微镜	-4340
这个人	-4341
食品安全	-4342
为何	-4343
从未	-4344
加固	-4345
外观	-4346
帮忙	-4347
涂料	-4348
湖北	-4349
盈利	-4350
省委	-4351
稀土	-4352
胳膊	-4353
那位	-4354
黄河	-4355
▁当前	-4356
加速度	-4357
同学们	-4358
多样性	-4359
差异有	-4360
的中国	-4361
产业发展	-4362
▁秦	-4363
下游	-4364
剩余	-4365
她说	-4366
汇报	-4367
电站	-4368
的全	-4369
西医	-4370
▁无	-4371
他不	-4372
对你	-4373
小孩	-4374
成因	-4375
沉默	-4376
混沌	-4377
火锅	-4378
爱你	-4379
祝福	-4380
辅导	-4381
了很多	-4382
▁五	-4383
▁各	-4384
人与	-4385
半个	-4386
听了	-4387
就被	-4388
微笑	-4389
换热	-4390
重组	-4391
队长	-4392
黄色	-4393
体现了	-4394
的高度	-4395
于一	-4396
十几	-4397
恐惧	-4398
我家	-4399
是大	-4400
民营	-4401
海域	-4402
缺血	-4403
耳朵	-4404
聊天	-4405
语音	-4406
政府的	-4407
条件的	-4408
男朋友	-4409
的精神	-4410
不断提高	-4411
专题	-4412
信道	-4413
刺激	-4414
客厅	-4415
屏幕	-4416
批准	-4417
模具	-4418
舆论	-4419
试点	-4420
阈值	-4421
靠近	-4422
高层	-4423
完成了	-4424
的趋势	-4425
让自己	-4426
设计和	-4427
人了	-4428
原子	-4429
塑性	-4430
点了	-4431
确立	-4432
粗糙	-4433
老爷	-4434
▁呵呵	-4435
副主任	-4436
太平洋	-4437
指出了	-4438
目标的	-4439
相对于	-4440
▁早	-4441
喝酒	-4442
密集	-4443
帮你	-4444
方针	-4445
昨晚	-4446
白天	-4447
肩膀	-4448
▁笔者	-4449
氨基酸	-4450
一股	-4451
传媒	-4452
前来	-4453
协助	-4454
在那	-4455
富集	-4456
心灵	-4457
恋爱	-4458
批发	-4459
综述	-4460
赋予	-4461
并利用	-4462
是我们	-4463
▁吴	-4464
之时	-4465
展览	-4466
总部	-4467
湿度	-4468
的两	-4469
看过	-4470
立足	-4471
繁荣	-4472
航天	-4473
鲁棒	-4474
了一眼	-4475
增加而	-4476
的生长	-4477
偶尔	-4478
只会	-4479
就把	-4480
并用	-4481
我没	-4482
真心	-4483
窗口	-4484
立体	-4485
群落	-4486
要把	-4487
走去	-4488
这条	-4489
一个月	-4490
了出来	-4491
标准的	-4492
的方向	-4493
不像	-4494
变异	-4495
对话	-4496
弟子	-4497
报警	-4498
放假	-4499
柴油	-4500
狭窄	-4501
用途	-4502
著作	-4503
负担	-4504
的思想	-4505
的核心	-4506
的概念	-4507
已经成为	-4508
提出了一种基于	-4509
出于	-4510
到来	-4511
四周	-4512
格式	-4513
氯化	-4514
碱性	-4515
资讯	-4516
准确性	-4517
影响到	-4518
从小	-4519
当下	-4520
月份	-4521
沿着	-4522
福利	-4523
精力	-4524
精密	-4525
累积	-4526
运算	-4527
抗氧化	-4528
看上去	-4529
▁不知道	-4530
消费者的	-4531
▁吃	-4532
》,	-4533
人心	-4534
他人	-4535
分化	-4536
污泥	-4537
的女	-4538
为中心	-4539
到现在	-4540
区块链	-4541
和技术	-4542
意大利	-4543
智能化	-4544
出台	-4545
宝贝	-4546
纪律	-4547
讲解	-4548
间隙	-4549
为主要	-4550
影响的	-4551
模式的	-4552
人民群众	-4553
▁刚	-4554
共振	-4555
平安	-4556
生育	-4557
疯狂	-4558
病变	-4559
衍射	-4560
赔偿	-4561
近似	-4562
钢铁	-4563
陕西	-4564
青岛	-4565
预警	-4566
博物馆	-4567
影响力	-4568
控制的	-4569
▁全	-4570
▁您	-4571
▁把	-4572
审批	-4573
比为	-4574
沙发	-4575
管的	-4576
精心	-4577
精矿	-4578
罢了	-4579
附加	-4580
一部分	-4581
学校的	-4582
觉得自己	-4583
之内	-4584
也将	-4585
天地	-4586
杂交	-4587
校正	-4588
球菌	-4589
理财	-4590
观的	-4591
那时	-4592
量化	-4593
除尘	-4594
▁北京	-4595
客户的	-4596
我自己	-4597
计算方法	-4598
三天	-4599
情的	-4600
电网	-4601
睡着	-4602
艾滋	-4603
花岗	-4604
遥感	-4605
做什么	-4606
浓度为	-4607
研究生	-4608
都知道	-4609
这个问题	-4610
一套	-4611
传来	-4612
出租	-4613
受力	-4614
子和	-4615
木有	-4616
查看	-4617
检索	-4618
百年	-4619
能耗	-4620
轻易	-4621
预算	-4622
风机	-4623
在我国	-4624
必须要	-4625
成功的	-4626
等相关	-4627
起来的	-4628
具有较好的	-4629
▁叶	-4630
中午	-4631
二者	-4632
公正	-4633
功效	-4634
大哥	-4635
村民	-4636
涂层	-4637
看得	-4638
这两	-4639
感兴趣	-4640
的表达	-4641
▁和	-4642
忽略	-4643
而出	-4644
花园	-4645
优秀的	-4646
先进的	-4647
正相关	-4648
沉积物	-4649
这个时候	-4650
广泛应用于	-4651
▁长	-4652
不受	-4653
好处	-4654
度为	-4655
形的	-4656
我有	-4657
气氛	-4658
淡淡	-4659
答案	-4660
边坡	-4661
进攻	-4662
酸性	-4663
防火	-4664
隐藏	-4665
非法	-4666
面试	-4667
▁只是	-4668
一个个	-4669
董事长	-4670
上市公司	-4671
二级	-4672
失效	-4673
水下	-4674
江湖	-4675
理事	-4676
竞赛	-4677
股权	-4678
跟他	-4679
▁那么	-4680
模型对	-4681
的孩子	-4682
给自己	-4683
越来越多的	-4684
中介	-4685
倾斜	-4686
南海	-4687
去做	-4688
地在	-4689
我一	-4690
支架	-4691
无聊	-4692
架构	-4693
步伐	-4694
活着	-4695
牙齿	-4696
看你	-4697
睡了	-4698
补贴	-4699
有关部门	-4700
条件下的	-4701
没有什么	-4702
▁美	-4703
传染	-4704
变迁	-4705
婴儿	-4706
宇宙	-4707
嵌入	-4708
担当	-4709
招呼	-4710
白云	-4711
着他	-4712
缺失	-4713
证书	-4714
频道	-4715
性分析	-4716
是怎么	-4717
偷偷	-4718
共和	-4719
当事	-4720
情景	-4721
想的	-4722
懂得	-4723
火灾	-4724
热闹	-4725
物业	-4726
该文	-4727
说到	-4728
货物	-4729
进化	-4730
重量	-4731
野生	-4732
队的	-4733
▁很多	-4734
尽可能	-4735
的力量	-4736
农药	-4737
减弱	-4738
后者	-4739
在中	-4740
城区	-4741
抬起	-4742
有力	-4743
浑身	-4744
等你	-4745
脾气	-4746
酰胺	-4747
难点	-4748
▁就在	-4749
全面的	-4750
劳动力	-4751
失去了	-4752
如果你	-4753
学研究	-4754
的眼睛	-4755
依次	-4756
便捷	-4757
和大	-4758
差点	-4759
热的	-4760
百万	-4761
安全的	-4762
完善的	-4763
极大的	-4764
的优势	-4765
▁结果表明在	-4766
上课	-4767
养护	-4768
取消	-4769
在她	-4770
孤独	-4771
无奈	-4772
有益	-4773
流速	-4774
而成	-4775
胶囊	-4776
要么	-4777
阻止	-4778
▁美国	-4779
▁这时	-4780
到时候	-4781
天然气	-4782
对自己	-4783
温度的	-4784
好吧	-4785
并行	-4786
的分	-4787
眼中	-4788
石墨	-4789
空白	-4790
而又	-4791
而来	-4792
为大家	-4793
实在是	-4794
我们要	-4795
人民政府	-4796
可持续发展	-4797
光照	-4798
向上	-4799
味的	-4800
复兴	-4801
女士	-4802
平常	-4803
挤压	-4804
探究	-4805
接口	-4806
泡沫	-4807
灰色	-4808
说他	-4809
分析法	-4810
污染物	-4811
需要的	-4812
▁本文以	-4813
▁云	-4814
不高	-4815
中所	-4816
任意	-4817
利率	-4818
塑造	-4819
岩浆	-4820
很高	-4821
提到	-4822
极端	-4823
难得	-4824
分布式	-4825
的那个	-4826
作为一种	-4827
伸手	-4828
帮我	-4829
影视	-4830
成型	-4831
扰动	-4832
教练	-4833
硬度	-4834
饮料	-4835
他们在	-4836
现有的	-4837
研究院	-4838
还需要	-4839
▁黑	-4840
一脸	-4841
了大	-4842
协商	-4843
常用	-4844
性状	-4845
悄悄	-4846
施肥	-4847
电镜	-4848
街上	-4849
霉素	-4850
黄酮	-4851
▁感觉	-4852
一个小	-4853
▁西	-4854
主办	-4855
和小	-4856
患儿	-4857
感冒	-4858
放松	-4859
更换	-4860
有钱	-4861
阻力	-4862
随之	-4863
▁看到	-4864
这句话	-4865
一级	-4866
单体	-4867
回报	-4868
性地	-4869
配方	-4870
防御	-4871
条件为	-4872
面临的	-4873
试验结果	-4874
乡镇	-4875
俱乐	-4876
好吗	-4877
必定	-4878
批判	-4879
退休	-4880
一般的	-4881
理论的	-4882
看了看	-4883
科学的	-4884
给大家	-4885
为止	-4886
付出	-4887
团体	-4888
场合	-4889
帝国	-4890
干旱	-4891
弱的	-4892
微博	-4893
惊讶	-4894
截面	-4895
散射	-4896
晓得	-4897
缓冲	-4898
营业	-4899
政策的	-4900
的原则	-4901
万一	-4902
传说	-4903
全是	-4904
单身	-4905
困境	-4906
失望	-4907
微分	-4908
快捷	-4909
愉快	-4910
拿出	-4911
有趣	-4912
油田	-4913
▁对啊	-4914
特殊的	-4915
环境中	-4916
第三方	-4917
人才培养	-4918
▁南	-4919
▁同	-4920
十三	-4921
半夜	-4922
各大	-4923
境界	-4924
弥补	-4925
抬头	-4926
拍照	-4927
教训	-4928
民生	-4929
流通	-4930
电气	-4931
配件	-4932
鸡蛋	-4933
▁大家	-4934
进行的	-4935
进行比较	-4936
习近平总书记	-4937
▁朱	-4938
▁由	-4939
功夫	-4940
可在	-4941
得知	-4942
景区	-4943
照明	-4944
爱国	-4945
要在	-4946
隔离	-4947
风速	-4948
它们的	-4949
完整的	-4950
已经是	-4951
的态度	-4952
▁江	-4953
买卖	-4954
债务	-4955
多项	-4956
战场	-4957
承包	-4958
振荡	-4959
棋牌	-4960
气流	-4961
美容	-4962
设定	-4963
这场	-4964
▁至于	-4965
在地上	-4966
找到了	-4967
研究和	-4968
美好的	-4969
快速发展	-4970
我们可以	-4971
一线	-4972
想去	-4973
植被	-4974
河道	-4975
浮选	-4976
现金	-4977
着手	-4978
社保	-4979
经销	-4980
行驶	-4981
解读	-4982
请你	-4983
遭遇	-4984
▁好的	-4985
发生在	-4986
和国家	-4987
培养基	-4988
相同的	-4989
▁分析了	-4990
一番	-4991
五年	-4992
全省	-4993
勇气	-4994
区间	-4995
无关	-4996
水产	-4997
穿过	-4998
等效	-4999
统治	-5000
话语	-5001
达成	-5002
难受	-5003
不断地	-5004
再加上	-5005
受到了	-5006
和方法	-5007
常用的	-5008
葡萄糖	-5009
里面的	-5010
具有重要的	-5011
中最	-5012
善良	-5013
权重	-5014
柔性	-5015
水利	-5016
海南	-5017
狠狠	-5018
纠纷	-5019
练习	-5020
编程	-5021
鱼类	-5022
什么都	-5023
在那里	-5024
有一些	-5025
的女人	-5026
过去了	-5027
这些人	-5028
采用了	-5029
不必	-5030
之人	-5031
他对	-5032
体重	-5033
利亚	-5034
处罚	-5035
开的	-5036
戏剧	-5037
拉伸	-5038
提交	-5039
日的	-5040
段的	-5041
源岩	-5042
火山	-5043
用手	-5044
简便	-5045
老公	-5046
艰难	-5047
账户	-5048
▁只要	-5049
▁面对	-5050
可以说	-5051
和管理	-5052
技术在	-5053
空间的	-5054
观察组	-5055
酶活性	-5056
▁明	-5057
▁过	-5058
业内	-5059
作风	-5060
弹簧	-5061
心思	-5062
意志	-5063
赛事	-5064
非洲	-5065
与其他	-5066
以上的	-5067
回收率	-5068
幼儿园	-5069
时间和	-5070
的意思	-5071
表面的	-5072
说不定	-5073
▁被	-5074
一丝	-5075
信念	-5076
助力	-5077
啦啦	-5078
嘴唇	-5079
妹子	-5080
潮流	-5081
的上	-5082
老化	-5083
见的	-5084
资质	-5085
车间	-5086
地看着	-5087
开展了	-5088
能有效	-5089
艾滋病	-5090
设计师	-5091
▁本研究	-5092
不禁	-5093
原油	-5094
成品	-5095
手续	-5096
激素	-5097
说得	-5098
配备	-5099
可行的	-5100
我也是	-5101
电化学	-5102
的人物	-5103
的经济	-5104
能够在	-5105
对比分析	-5106
的前提下	-5107
上门	-5108
军的	-5109
双眼	-5110
嘴巴	-5111
器官	-5112
年夜	-5113
想了	-5114
片的	-5115
监察	-5116
集群	-5117
二氧化	-5118
北京市	-5119
反映了	-5120
因为他	-5121
获得的	-5122
找个	-5123
活化	-5124
痕迹	-5125
腐败	-5126
落后	-5127
蓝色	-5128
谈话	-5129
明白了	-5130
正常的	-5131
▁仿真结果表明	-5132
也被	-5133
交往	-5134
到位	-5135
反思	-5136
好奇	-5137
强制	-5138
我这	-5139
排除	-5140
推行	-5141
播种	-5142
汉语	-5143
硫化	-5144
遗憾	-5145
▁第一	-5146
减少了	-5147
构建了	-5148
生日快乐	-5149
信赖	-5150
倡导	-5151
十四	-5152
厕所	-5153
古典	-5154
名称	-5155
后悔	-5156
武术	-5157
气质	-5158
留学	-5159
疫苗	-5160
睡眠	-5161
禁止	-5162
粉碎	-5163
防腐	-5164
利用率	-5165
品牌的	-5166
改革的	-5167
设计中	-5168
一对	-5169
也可	-5170
会被	-5171
天空	-5172
子女	-5173
学历	-5174
富有	-5175
师范	-5176
期货	-5177
用地	-5178
甲醛	-5179
篮球	-5180
约为	-5181
肌肤	-5182
要点	-5183
足以	-5184
人员的	-5185
你自己	-5186
例患者	-5187
已经被	-5188
并对其	-5189
是影响	-5190
此同时	-5191
没有人	-5192
目的是	-5193
预处理	-5194
一来	-5195
上前	-5196
公子	-5197
共识	-5198
加权	-5199
开车	-5200
拿到	-5201
支部	-5202
效能	-5203
木材	-5204
玩笑	-5205
粉末	-5206
观赏	-5207
这话	-5208
遵守	-5209
▁这里	-5210
主要的	-5211
全新的	-5212
可行性	-5213
的控制	-5214
细胞的	-5215
传统文化	-5216
分手	-5217
心肌	-5218
态势	-5219
无需	-5220
杂志	-5221
沿海	-5222
疑问	-5223
窗户	-5224
还得	-5225
物联网	-5226
都不会	-5227
▁若	-5228
▁除	-5229
▁额	-5230
从业	-5231
口服	-5232
图案	-5233
基准	-5234
实习	-5235
心态	-5236
意愿	-5237
报价	-5238
无机	-5239
有害	-5240
本土	-5241
桌子	-5242
淋巴	-5243
精品	-5244
走的	-5245
转让	-5246
醒了	-5247
龙江	-5248
▁希望	-5249
▁昨天	-5250
功能的	-5251
国际化	-5252
技术对	-5253
的人生	-5254
不好意思	-5255
显著高于	-5256
研究成果	-5257
高度重视	-5258
关怀	-5259
受伤	-5260
媳妇	-5261
我很	-5262
战士	-5263
扶持	-5264
改良	-5265
既有	-5266
牙周	-5267
相机	-5268
算例	-5269
美观	-5270
下一步	-5271
建设和	-5272
我国的	-5273
▁本文对	-5274
数据进行	-5275
重要作用	-5276
▁试验结果表明	-5277
不怕	-5278
业的	-5279
悬浮	-5280
执政	-5281
教材	-5282
明了	-5283
标本	-5284
直线	-5285
耐药	-5286
钢管	-5287
▁明天	-5288
一开始	-5289
工程师	-5290
▁沈	-5291
修炼	-5292
初心	-5293
台上	-5294
围岩	-5295
容器	-5296
负面	-5297
远处	-5298
与发展	-5299
伴随着	-5300
加强对	-5301
区域的	-5302
强烈的	-5303
性能和	-5304
手中的	-5305
蛋白酶	-5306
优化设计	-5307
试验研究	-5308
一半	-5309
上涨	-5310
乙酸	-5311
别墅	-5312
可行	-5313
城的	-5314
密码	-5315
底下	-5316
燃气	-5317
税收	-5318
要有	-5319
透过	-5320
队员	-5321
面包	-5322
充满了	-5323
广泛的	-5324
建筑物	-5325
的新型	-5326
管理和	-5327
第一时间	-5328
领导干部	-5329
▁唐	-5330
中学	-5331
促使	-5332
南北	-5333
学家	-5334
实话	-5335
性好	-5336
担保	-5337
时光	-5338
比我	-5339
游泳	-5340
玩的	-5341
车上	-5342
阵列	-5343
随即	-5344
龙头	-5345
有机会	-5346
的故事	-5347
组成的	-5348
最重要的	-5349
一遍	-5350
亮的	-5351
你有	-5352
剧情	-5353
剧烈	-5354
动手	-5355
占有	-5356
大脑	-5357
年度	-5358
广义	-5359
录取	-5360
损坏	-5361
摄像	-5362
浪漫	-5363
激活	-5364
羟基	-5365
耐心	-5366
茶叶	-5367
这事	-5368
▁我要	-5369
了不少	-5370
作用的	-5371
在他的	-5372
所谓的	-5373
注意到	-5374
实际应用	-5375
贯彻落实	-5376
▁华	-5377
一同	-5378
低的	-5379
侵权	-5380
全都	-5381
得好	-5382
混乱	-5383
班子	-5384
维度	-5385
规矩	-5386
集聚	-5387
一定是	-5388
在使用	-5389
城市化	-5390
小时候	-5391
温度为	-5392
的不足	-5393
主管部门	-5394
作为一个	-5395
不止	-5396
亲戚	-5397
人事	-5398
介入	-5399
在高	-5400
客服	-5401
排水	-5402
最初	-5403
月的	-5404
机床	-5405
条款	-5406
率高	-5407
珍惜	-5408
皇上	-5409
算了	-5410
精英	-5411
远的	-5412
长大	-5413
奠定了	-5414
毕业生	-5415
江苏省	-5416
的状态	-5417
等优点	-5418
纤维素	-5419
自由基	-5420
股份有限公司	-5421
▁两	-5422
口的	-5423
基质	-5424
大桥	-5425
对面	-5426
情报	-5427
找我	-5428
没了	-5429
河流	-5430
环流	-5431
素养	-5432
胁迫	-5433
订单	-5434
走在	-5435
齐全	-5436
▁第三	-5437
一句话	-5438
就是要	-5439
▁安	-5440
▁红	-5441
中美	-5442
剩下	-5443
叠加	-5444
四十	-5445
在地	-5446
垄断	-5447
师生	-5448
微量	-5449
支出	-5450
楼梯	-5451
版本	-5452
粉丝	-5453
产业化	-5454
决定了	-5455
有一种	-5456
她在	-5457
对的	-5458
待遇	-5459
接种	-5460
政协	-5461
来讲	-5462
模板	-5463
海水	-5464
稍微	-5465
穿越	-5466
蛋糕	-5467
谈判	-5468
▁此次	-5469
全球化	-5470
我们就	-5471
行为的	-5472
过去的	-5473
▁水	-5474
为此	-5475
也都	-5476
凹陷	-5477
变动	-5478
在其	-5479
延续	-5480
数控	-5481
涵盖	-5482
病例	-5483
红的	-5484
节日	-5485
萝卜	-5486
过头	-5487
我没有	-5488
运动的	-5489
并提出了	-5490
不来	-5491
不等	-5492
为人	-5493
为你	-5494
产能	-5495
初中	-5496
加拿	-5497
医师	-5498
厦门	-5499
增益	-5500
文本	-5501
方差	-5502
海上	-5503
着急	-5504
行程	-5505
连忙	-5506
酸钠	-5507
些什么	-5508
俱乐部	-5509
准确地	-5510
又不是	-5511
影响了	-5512
的一次	-5513
离不开	-5514
系统和	-5515
园林绿化	-5516
理论依据	-5517
具有重要意义	-5518
一手	-5519
两侧	-5520
之力	-5521
从此	-5522
假的	-5523
光纤	-5524
凋亡	-5525
动了	-5526
北部	-5527
取向	-5528
宽度	-5529
情节	-5530
扮演	-5531
易于	-5532
离婚	-5533
要想	-5534
这款	-5535
连锁	-5536
镜头	-5537
脂肪酸	-5538
差异有统计学意义	-5539
▁孙	-5540
▁很	-5541
上次	-5542
厂商	-5543
吉林	-5544
在新	-5545
外界	-5546
外科	-5547
年前	-5548
废弃	-5549
收购	-5550
本科	-5551
温室	-5552
▁会议	-5553
不稳定	-5554
你们的	-5555
特征的	-5556
的一项	-5557
计算了	-5558
▁我现在	-5559
法律法规	-5560
科技创新	-5561
不让	-5562
主观	-5563
争议	-5564
再去	-5565
台阶	-5566
坏了	-5567
心疼	-5568
把她	-5569
立场	-5570
肝脏	-5571
脑子	-5572
脱离	-5573
郑州	-5574
顾问	-5575
▁不管	-5576
就不会	-5577
平台的	-5578
有一定	-5579
的具体	-5580
结果与	-5581
要求的	-5582
▁罗	-5583
一根	-5584
一生	-5585
三人	-5586
也为	-5587
代码	-5588
全市	-5589
回了	-5590
怀里	-5591
护士	-5592
没法	-5593
流水	-5594
短信	-5595
砂岩	-5596
签订	-5597
▁按照	-5598
不出来	-5599
干什么	-5600
并发症	-5601
很好地	-5602
我可以	-5603
治疗前	-5604
温度和	-5605
市场经济	-5606
便于	-5607
口味	-5608
国产	-5609
基底	-5610
头脑	-5611
尸体	-5612
市长	-5613
无所	-5614
未能	-5615
树种	-5616
碰到	-5617
私人	-5618
计量	-5619
间隔	-5620
▁本次	-5621
一直是	-5622
含量为	-5623
女朋友	-5624
是没有	-5625
自行车	-5626
质量和	-5627
什么样的	-5628
的一部分	-5629
上帝	-5630
会对	-5631
判定	-5632
区内	-5633
愤怒	-5634
我对	-5635
我才	-5636
气旋	-5637
焦虑	-5638
甘肃	-5639
纠结	-5640
线下	-5641
调制	-5642
醒来	-5643
了解到	-5644
就已经	-5645
是可以	-5646
模型组	-5647
详细的	-5648
中小企业	-5649
▁唉	-5650
▁并	-5651
不时	-5652
修饰	-5653
充足	-5654
制冷	-5655
力气	-5656
发送	-5657
右手	-5658
大豆	-5659
定向	-5660
对付	-5661
库存	-5662
总统	-5663
投影	-5664
授权	-5665
收藏	-5666
液中	-5667
玫瑰	-5668
简称	-5669
紧急	-5670
线索	-5671
谨慎	-5672
赢得	-5673
路的	-5674
迫切	-5675
页面	-5676
▁他说	-5677
人民币	-5678
促进了	-5679
实现对	-5680
很高的	-5681
意义的	-5682
时间内	-5683
的价值	-5684
等方式	-5685
售后服务	-5686
▁都	-5687
一支	-5688
一行	-5689
东亚	-5690
以其	-5691
你好	-5692
商量	-5693
幸运	-5694
延迟	-5695
断了	-5696
映射	-5697
爆破	-5698
着她	-5699
衡量	-5700
、、、	-5701
有一天	-5702
电视剧	-5703
离开了	-5704
网络的	-5705
要注意	-5706
抑制作用	-5707
评价指标	-5708
上午	-5709
中共	-5710
中文	-5711
估算	-5712
分工	-5713
动画	-5714
控股	-5715
概括	-5716
温馨	-5717
烧结	-5718
眉头	-5719
考验	-5720
花的	-5721
▁也许	-5722
▁建立	-5723
人们对	-5724
并进行	-5725
广东省	-5726
特性的	-5727
站起来	-5728
质量的	-5729
这时候	-5730
集中在	-5731
为您提供	-5732
实验结果	-5733
▁到	-5734
何况	-5735
你能	-5736
光伏	-5737
双重	-5738
发了	-5739
四大	-5740
增值	-5741
奖励	-5742
宗旨	-5743
户外	-5744
推理	-5745
救援	-5746
有过	-5747
火箭	-5748
越高	-5749
违反	-5750
钱的	-5751
其他人	-5752
的政治	-5753
科学院	-5754
全程	-5755
办学	-5756
却不	-5757
取决	-5758
向着	-5759
宣布	-5760
抵抗	-5761
振兴	-5762
料的	-5763
油藏	-5764
独自	-5765
突发	-5766
者和	-5767
记载	-5768
跟随	-5769
透露	-5770
的艺术	-5771
▁我知道	-5772
合作伙伴	-5773
显著提高	-5774
▁先	-5775
伤心	-5776
住在	-5777
公寓	-5778
夜里	-5779
好友	-5780
就连	-5781
径向	-5782
恭喜	-5783
打了	-5784
拉斯	-5785
比值	-5786
牛肉	-5787
甲醇	-5788
的啊	-5789
花费	-5790
被动	-5791
角落	-5792
过后	-5793
这座	-5794
遭受	-5795
门外	-5796
▁关于	-5797
一点点	-5798
中国人	-5799
几个人	-5800
有效性	-5801
的人们	-5802
适当的	-5803
安全生产	-5804
七八	-5805
党建	-5806
加载	-5807
大约	-5808
建材	-5809
拿起	-5810
桌上	-5811
焦点	-5812
配送	-5813
▁当时	-5814
▁有些	-5815
了许多	-5816
产业的	-5817
烃源岩	-5818
的世界	-5819
的各种	-5820
经销商	-5821
的可行性	-5822
▁海	-5823
互补	-5824
发明	-5825
哈尔	-5826
啤酒	-5827
固化	-5828
坐下	-5829
新区	-5830
构件	-5831
气管	-5832
演出	-5833
用力	-5834
的了	-5835
等地	-5836
缩小	-5837
远离	-5838
中医药	-5839
了一句	-5840
你知道	-5841
副书记	-5842
含量的	-5843
啥时候	-5844
我就是	-5845
改变了	-5846
了一会儿	-5847
保守	-5848
切换	-5849
大批	-5850
巩固	-5851
无可	-5852
树木	-5853
江南	-5854
语气	-5855
身的	-5856
阿尔	-5857
不仅是	-5858
同样的	-5859
品质的	-5860
的标准	-5861
这一切	-5862
事业单位	-5863
的重要性	-5864
管理部门	-5865
具有较高的	-5866
咳嗽	-5867
均可	-5868
我又	-5869
暴力	-5870
点儿	-5871
简介	-5872
经费	-5873
美元	-5874
蒸发	-5875
装配	-5876
象征	-5877
违规	-5878
▁你要	-5879
会出现	-5880
取决于	-5881
国家和	-5882
多年来	-5883
已经在	-5884
并提出	-5885
较好地	-5886
还是要	-5887
速度快	-5888
管理系统	-5889
▁方法采用	-5890
的主要原因	-5891
中等	-5892
分层	-5893
剖面	-5894
华北	-5895
坐着	-5896
客气	-5897
弘扬	-5898
数十	-5899
期刊	-5900
欧盟	-5901
清醒	-5902
玩具	-5903
等我	-5904
趋于	-5905
主要有	-5906
工业化	-5907
无明显	-5908
特异性	-5909
的经验	-5910
的表情	-5911
显著差异	-5912
金融机构	-5913
一动	-5914
三次	-5915
之际	-5916
值和	-5917
光滑	-5918
分支	-5919
卧室	-5920
同位	-5921
在水	-5922
宠物	-5923
成人	-5924
树林	-5925
浮游	-5926
润滑	-5927
磁性	-5928
绘画	-5929
脱硫	-5930
貌似	-5931
跑到	-5932
轮廓	-5933
静静	-5934
▁这次	-5935
不愿意	-5936
对应的	-5937
睡不着	-5938
第二天	-5939
你来	-5940
使他	-5941
口碑	-5942
回波	-5943
奉献	-5944
导电	-5945
开设	-5946
房产	-5947
提起	-5948
港口	-5949
省级	-5950
观看	-5951
这件	-5952
▁既然	-5953
与社会	-5954
保证了	-5955
有力的	-5956
有机质	-5957
滤波器	-5958
医院感染	-5959
重要的作用	-5960
一群	-5961
事的	-5962
几点	-5963
半径	-5964
友好	-5965
夜晚	-5966
对抗	-5967
就来	-5968
手上	-5969
手法	-5970
的书	-5971
着眼	-5972
而去	-5973
职务	-5974
起点	-5975
链接	-5976
阿里	-5977
▁不同	-5978
▁什么	-5979
▁今年	-5980
对不同	-5981
的教育	-5982
规定的	-5983
一流	-5984
下颌	-5985
两大	-5986
人性	-5987
人数	-5988
债券	-5989
加深	-5990
南部	-5991
叶绿	-5992
大地	-5993
巴黎	-5994
幼苗	-5995
当作	-5996
愿望	-5997
数目	-5998
既是	-5999
柔软	-6000
池塘	-6001
治愈	-6002
源于	-6003
要不	-6004
语文	-6005
跨越	-6006
鉴于	-6007
及相关	-6008
地下水	-6009
怎么会	-6010
的价格	-6011
肯定是	-6012
非常的	-6013
从来没有	-6014
越来越大	-6015
进行了比较	-6016
▁因	-6017
一座	-6018
一顿	-6019
两条	-6020
了么	-6021
加剧	-6022
十字	-6023
国王	-6024
婚礼	-6025
座谈	-6026
春天	-6027
班牙	-6028
界定	-6029
病原	-6030
粒度	-6031
绝望	-6032
英文	-6033
道教	-6034
遭到	-6035
限度	-6036
专业化	-6037
了口气	-6038
出一个	-6039
是一款	-6040
的人才	-6041
的大小	-6042
的学生	-6043
真的很	-6044
造成了	-6045
一会	-6046
一头	-6047
事物	-6048
人说	-6049
他又	-6050
例子	-6051
再来	-6052
利于	-6053
可用	-6054
可视	-6055
城里	-6056
干涉	-6057
总量	-6058
抗震	-6059
摆脱	-6060
春节	-6061
牺牲	-6062
真相	-6063
花生	-6064
草原	-6065
这也	-6066
风暴	-6067
饲养	-6068
关注的	-6069
原来的	-6070
在内的	-6071
得出了	-6072
理想的	-6073
的因素	-6074
看不到	-6075
花岗岩	-6076
超声波	-6077
阶段的	-6078
面临着	-6079
公共服务	-6080
无统计学意义	-6081
一带	-6082
丝毫	-6083
交给	-6084
依照	-6085
却又	-6086
太大	-6087
姿势	-6088
想吃	-6089
此类	-6090
牛奶	-6091
笔记	-6092
网页	-6093
表层	-6094
身心	-6095
辽宁	-6096
难免	-6097
▁以上	-6098
▁我不	-6099
在哪里	-6100
新型的	-6101
灵敏度	-6102
的风险	-6103
力学性能	-6104
实验结果表明	-6105
提出一种基于	-6106
▁听	-6107
一项	-6108
元件	-6109
博弈	-6110
大事	-6111
对她	-6112
张力	-6113
来得	-6114
种群	-6115
至关	-6116
转动	-6117
辨识	-6118
做出了	-6119
各样的	-6120
合理性	-6121
就这样	-6122
时间为	-6123
理论与	-6124
秘书长	-6125
考虑了	-6126
那时候	-6127
使用寿命	-6128
中期	-6129
乳化	-6130
人不	-6131
区和	-6132
就去	-6133
山的	-6134
平原	-6135
成形	-6136
护栏	-6137
水性	-6138
炎症	-6139
的车	-6140
盐酸	-6141
级别	-6142
进度	-6143
难过	-6144
不管是	-6145
物质的	-6146
说明了	-6147
低频	-6148
体质	-6149
分开	-6150
发型	-6151
叫我	-6152
吃过	-6153
品的	-6154
嘴角	-6155
流失	-6156
物种	-6157
石英	-6158
▁上海	-6159
不存在	-6160
企业在	-6161
好吃的	-6162
想不到	-6163
时期的	-6164
来进行	-6165
的身体	-6166
技术创新	-6167
液相色谱	-6168
率分别为	-6169
一副	-6170
冒险	-6171
冷静	-6172
分量	-6173
卓越	-6174
又能	-6175
变更	-6176
审判	-6177
家电	-6178
导演	-6179
就说	-6180
恶性	-6181
斯坦	-6182
景点	-6183
毒性	-6184
等于	-6185
良性	-6186
零件	-6187
骑兵	-6188
▁使用	-6189
▁看着	-6190
▁那些	-6191
个人的	-6192
个性化	-6193
历史上	-6194
壳聚糖	-6195
工作者	-6196
很多的	-6197
没办法	-6198
研究中	-6199
污水处理	-6200
分析结果表明	-6201
一双	-6202
原创	-6203
变了	-6204
在外	-6205
填充	-6206
子轩	-6207
扎实	-6208
挣扎	-6209
方才	-6210
春季	-6211
是被	-6212
标签	-6213
泰国	-6214
派出	-6215
的内	-6216
直流	-6217
矢量	-6218
过分	-6219
返回	-6220
重力	-6221
为代表	-6222
他已经	-6223
你现在	-6224
却没有	-6225
只需要	-6226
合成了	-6227
总有效	-6228
看到的	-6229
结果的	-6230
了一系列	-6231
文献资料	-6232
红外光谱	-6233
设计方法	-6234
的重要组成部分	-6235
)、	-6236
了对	-6237
值与	-6238
养生	-6239
制得	-6240
卡尔	-6241
启示	-6242
女的	-6243
家中	-6244
惊喜	-6245
接待	-6246
文物	-6247
片刻	-6248
狗狗	-6249
的吗	-6250
看向	-6251
税务	-6252
评定	-6253
说完	-6254
还将	-6255
选矿	-6256
那张	-6257
▁随后	-6258
为中国	-6259
什么事	-6260
同位素	-6261
的认识	-6262
的需要	-6263
着一个	-6264
▁《	-6265
二是	-6266
化解	-6267
地基	-6268
就很	-6269
工序	-6270
总裁	-6271
战术	-6272
放置	-6273
晚期	-6274
烘干	-6275
番茄	-6276
育苗	-6277
行情	-6278
衔接	-6279
跑步	-6280
较差	-6281
运气	-6282
鉴别	-6283
隐私	-6284
预计	-6285
▁其次	-6286
一致性	-6287
和研究	-6288
处理后	-6289
揭示了	-6290
临床疗效	-6291
线性关系	-6292
▁做	-6293
▁能	-6294
仪表	-6295
光的	-6296
号码	-6297
告知	-6298
地把	-6299
型号	-6300
小康	-6301
带上	-6302
帽子	-6303
成藏	-6304
放射	-6305
正当	-6306
每日	-6307
的白	-6308
真诚	-6309
矿区	-6310
较强	-6311
长了	-6312
阿姨	-6313
为企业	-6314
以及对	-6315
共和国	-6316
划分为	-6317
太多了	-6318
并根据	-6319
并采用	-6320
建立的	-6321
很强的	-6322
认识到	-6323
问题是	-6324
这样一个	-6325
▁开	-6326
不堪	-6327
也得	-6328
产出	-6329
价比	-6330
份额	-6331
伤口	-6332
信噪	-6333
匆匆	-6334
化为	-6335
在你	-6336
开辟	-6337
找出	-6338
指定	-6339
明年	-6340
普勒	-6341
民俗	-6342
物资	-6343
申报	-6344
硬化	-6345
磁场	-6346
苏联	-6347
荣誉	-6348
裤子	-6349
记住	-6350
过多	-6351
他自己	-6352
大利亚	-6353
的公司	-6354
的城市	-6355
的日子	-6356
的治疗	-6357
西班牙	-6358
澳大利亚	-6359
高等教育	-6360
上游	-6361
为其	-6362
交代	-6363
人对	-6364
信誉	-6365
公务	-6366
声道	-6367
复制	-6368
大门	-6369
子宫	-6370
尤为	-6371
工会	-6372
情人	-6373
排列	-6374
欺负	-6375
江西	-6376
舞蹈	-6377
视线	-6378
言语	-6379
说出	-6380
▁看来	-6381
了一次	-6382
取得的	-6383
就知道	-6384
比较了	-6385
的目光	-6386
过来的	-6387
环境保护	-6388
▁胡	-6389
一一	-6390
上看	-6391
举报	-6392
入了	-6393
勉强	-6394
听得	-6395
堆积	-6396
差分	-6397
常识	-6398
抽象	-6399
教堂	-6400
杀了	-6401
永久	-6402
煤炭	-6403
犹如	-6404
过敏	-6405
▁我还	-6406
制备的	-6407
多元化	-6408
市场化	-6409
形式的	-6410
足够的	-6411
选择了	-6412
射线衍射	-6413
提出了基于	-6414
主意	-6415
仍是	-6416
从前	-6417
侵蚀	-6418
口袋	-6419
只想	-6420
太子	-6421
她是	-6422
少的	-6423
干脆	-6424
影子	-6425
日报	-6426
活率	-6427
版权	-6428
着头	-6429
离心	-6430
结局	-6431
质疑	-6432
不是很	-6433
了一条	-6434
多少钱	-6435
方案的	-6436
服务器	-6437
生物学	-6438
的速度	-6439
美丽的	-6440
遗传算法	-6441
高新技术	-6442
一本	-6443
仓库	-6444
但也	-6445
前沿	-6446
双向	-6447
就得	-6448
平行	-6449
强者	-6450
本事	-6451
证件	-6452
追踪	-6453
▁下次	-6454
加拿大	-6455
敏感性	-6456
条件和	-6457
的最大	-6458
的表现	-6459
真实的	-6460
该模型	-6461
发展趋势	-6462
研究表明	-6463
一日	-6464
书法	-6465
全民	-6466
华为	-6467
固有	-6468
头像	-6469
好评	-6470
携带	-6471
灌注	-6472
物体	-6473
生化	-6474
的后	-6475
讲究	-6476
赛季	-6477
起伏	-6478
起床	-6479
路由	-6480
问你	-6481
阻碍	-6482
高频	-6483
▁如何	-6484
给他们	-6485
适应性	-6486
▁陆	-6487
中部	-6488
仓储	-6489
受益	-6490
和水	-6491
图形	-6492
基督	-6493
少了	-6494
屋顶	-6495
当天	-6496
彩色	-6497
核桃	-6498
自从	-6499
装箱	-6500
降温	-6501
高手	-6502
内容的	-6503
及其他	-6504
因为我	-6505
普通的	-6506
老百姓	-6507
而且还	-6508
选择性	-6509
那样的	-6510
都需要	-6511
关键技术	-6512
转型升级	-6513
▁外	-6514
▁清	-6515
中对	-6516
其对	-6517
制剂	-6518
加密	-6519
原谅	-6520
听力	-6521
损耗	-6522
排序	-6523
接到	-6524
整齐	-6525
正面	-6526
深处	-6527
网的	-6528
致使	-6529
苏州	-6530
黑的	-6531
各方面	-6532
导致的	-6533
就开始	-6534
开发的	-6535
当事人	-6536
方式的	-6537
生物量	-6538
积极性	-6539
这一次	-6540
高血压	-6541
密切相关	-6542
就是一个	-6543
明显高于	-6544
都不知道	-6545
的研究进展	-6546
三分	-6547
严峻	-6548
以免	-6549
传奇	-6550
冷的	-6551
利的	-6552
古老	-6553
向他	-6554
在不	-6555
小子	-6556
屁股	-6557
店的	-6558
强迫	-6559
很小	-6560
感应	-6561
扭转	-6562
担忧	-6563
武装	-6564
流变	-6565
玛丽	-6566
瘦了	-6567
系的	-6568
老实	-6569
耐磨	-6570
讲述	-6571
钥匙	-6572
门槛	-6573
顺着	-6574
风的	-6575
关键词	-6576
分析的	-6577
十九大	-6578
志愿者	-6579
是通过	-6580
需求的	-6581
不仅可以	-6582
也就是说	-6583
管理工作	-6584
▁女	-6585
人人	-6586
但我	-6587
分成	-6588
安置	-6589
岩体	-6590
带宽	-6591
很不	-6592
找你	-6593
显现	-6594
晚饭	-6595
朝鲜	-6596
渴望	-6597
能为	-6598
豆腐	-6599
走廊	-6600
过年	-6601
这对	-6602
全世界	-6603
性价比	-6604
才知道	-6605
满意的	-6606
综合征	-6607
自然的	-6608
都已经	-6609
模型进行	-6610
▁也	-6611
▁打	-6612
▁爱	-6613
一轮	-6614
中毒	-6615
为啥	-6616
么么	-6617
享有	-6618
叫做	-6619
哪有	-6620
失眠	-6621
她就	-6622
岁的	-6623
往前	-6624
村庄	-6625
此前	-6626
济南	-6627
溶胶	-6628
演讲	-6629
瓶颈	-6630
生动	-6631
甲酸	-6632
稳健	-6633
越多	-6634
伟大的	-6635
健康的	-6636
准确的	-6637
坚持以	-6638
就这么	-6639
我们会	-6640
整个人	-6641
理论上	-6642
的一致	-6643
美国的	-6644
著名的	-6645
黑龙江	-6646
▁本文在	-6647
回收率为	-6648
下班	-6649
不定	-6650
储备	-6651
十足	-6652
吩咐	-6653
块钱	-6654
大笑	-6655
好啊	-6656
巡视	-6657
差不	-6658
市政	-6659
招商	-6660
服饰	-6661
未知	-6662
本钱	-6663
水汽	-6664
焙烧	-6665
的名	-6666
石的	-6667
秸秆	-6668
老头	-6669
那只	-6670
酵母	-6671
长久	-6672
▁国家	-6673
▁毕竟	-6674
在我们	-6675
应用的	-6676
强度的	-6677
服务业	-6678
真实性	-6679
结束后	-6680
起到了	-6681
对其进行	-6682
相关部门	-6683
下雨	-6684
丢失	-6685
他还	-6686
低压	-6687
保安	-6688
冠军	-6689
包容	-6690
同类	-6691
听取	-6692
圆柱	-6693
学位	-6694
常务	-6695
彰显	-6696
往下	-6697
抑菌	-6698
拓扑	-6699
暗示	-6700
枢纽	-6701
泽东	-6702
淘宝	-6703
热量	-6704
的金	-6705
花钱	-6706
解剖	-6707
设想	-6708
语义	-6709
轴向	-6710
风味	-6711
了一套	-6712
内蒙古	-6713
分布在	-6714
可以用	-6715
改进的	-6716
是真的	-6717
的一般	-6718
碳酸盐	-6719
开发利用	-6720
提供依据	-6721
优于对照组	-6722
进一步提高	-6723
一颗	-6724
两岸	-6725
会使	-6726
体检	-6727
储存	-6728
出资	-6729
只需	-6730
嫉妒	-6731
已被	-6732
我来	-6733
打着	-6734
抓好	-6735
换了	-6736
旅客	-6737
有用	-6738
柠檬	-6739
流转	-6740
率先	-6741
相处	-6742
相干	-6743
稀疏	-6744
精致	-6745
而后	-6746
贵族	-6747
问我	-6748
题材	-6749
颤抖	-6750
骄傲	-6751
为目标	-6752
主要为	-6753
和完善	-6754
是目前	-6755
特有的	-6756
生产线	-6757
要不要	-6758
生态系统	-6759
科技有限公司	-6760
不忘	-6761
人是	-6762
他那	-6763
仙女	-6764
光明	-6765
公告	-6766
县委	-6767
各界	-6768
和尚	-6769
够了	-6770
手臂	-6771
招标	-6772
排队	-6773
时机	-6774
比你	-6775
汇聚	-6776
浏览	-6777
生殖	-6778
病虫	-6779
皇后	-6780
真菌	-6781
祖国	-6782
稳态	-6783
管控	-6784
粉尘	-6785
身为	-6786
门诊	-6787
青睐	-6788
页岩	-6789
骨折	-6790
高峰	-6791
▁此时	-6792
增大而	-6793
小小的	-6794
性能的	-6795
有必要	-6796
满意度	-6797
自治区	-6798
信息系统	-6799
健康发展	-6800
▁韩	-6801
万元	-6802
与之	-6803
分裂	-6804
动机	-6805
原有	-6806
发放	-6807
吓得	-6808
和新	-6809
国防	-6810
大夫	-6811
天线	-6812
导师	-6813
我能	-6814
散发	-6815
植入	-6816
烟气	-6817
的下	-6818
给药	-6819
联动	-6820
薄弱	-6821
▁每天	-6822
不利于	-6823
可靠的	-6824
和文化	-6825
唯一的	-6826
就算是	-6827
所以在	-6828
毛泽东	-6829
的建设	-6830
相关系	-6831
该系统	-6832
信息技术	-6833
地球化学	-6834
还有一个	-6835
争论	-6836
人格	-6837
做得	-6838
兴起	-6839
华南	-6840
巴巴	-6841
底部	-6842
整天	-6843
最早	-6844
法定	-6845
玩法	-6846
登录	-6847
终究	-6848
老子	-6849
肠道	-6850
血糖	-6851
退出	-6852
野外	-6853
间距	-6854
集合	-6855
频谱	-6856
验收	-6857
▁以后	-6858
不同于	-6859
不过是	-6860
企业和	-6861
分布的	-6862
可爱的	-6863
方法在	-6864
是一项	-6865
人民法院	-6866
党委书记	-6867
▁哈哈哈哈哈	-6868
不容	-6869
但却	-6870
冶金	-6871
就想	-6872
感的	-6873
才有	-6874
暑假	-6875
极化	-6876
残疾	-6877
毛病	-6878
深层	-6879
破裂	-6880
色素	-6881
莫名	-6882
被告	-6883
辉煌	-6884
选购	-6885
鲜明	-6886
个方面	-6887
和应用	-6888
效率和	-6889
状态下	-6890
生命的	-6891
的性能	-6892
笑了笑	-6893
这不是	-6894
产业结构	-6895
深入研究	-6896
的一个重要	-6897
▁克	-6898
一向	-6899
一方	-6900
事儿	-6901
低头	-6902
剂对	-6903
勇敢	-6904
困扰	-6905
在上	-6906
坚强	-6907
常态	-6908
开门	-6909
得意	-6910
必将	-6911
感和	-6912
慈善	-6913
拉着	-6914
拓宽	-6915
持久	-6916
格外	-6917
波形	-6918
注视	-6919
点和	-6920
等对	-6921
细致	-6922
诊疗	-6923
贯穿	-6924
雕塑	-6925
▁产品	-6926
任何人	-6927
体现在	-6928
女人的	-6929
就是在	-6930
引起了	-6931
活动中	-6932
甚至是	-6933
积极的	-6934
高科技	-6935
搜索引擎	-6936
▁风	-6937
一层	-6938
不愿	-6939
优雅	-6940
传达	-6941
供电	-6942
农田	-6943
千年	-6944
去吧	-6945
发起	-6946
变的	-6947
含义	-6948
呜呜	-6949
唱歌	-6950
在意	-6951
大致	-6952
将他	-6953
岁月	-6954
得上	-6955
念头	-6956
报考	-6957
服用	-6958
模量	-6959
欲望	-6960
比的	-6961
用人	-6962
病害	-6963
起码	-6964
逼近	-6965
门前	-6966
▁作者	-6967
▁自己	-6968
受不了	-6969
媒体的	-6970
对不起	-6971
性问题	-6972
漂亮的	-6973
统一的	-6974
与对照组	-6975
不觉	-6976
中外	-6977
京东	-6978
佛教	-6979
你家	-6980
共赢	-6981
加重	-6982
动员	-6983
十七	-6984
参照	-6985
受众	-6986
可谓	-6987
器械	-6988
处在	-6989
姐妹	-6990
委屈	-6991
封信	-6992
少量	-6993
放到	-6994
断面	-6995
月亮	-6996
梗死	-6997
滞后	-6998
牵引	-6999
电信	-7000
笑话	-7001
糊涂	-7002
约定	-7003
纯粹	-7004
美学	-7005
起着	-7006
车子	-7007
车站	-7008
三角洲	-7009
出版社	-7010
在国内	-7011
所有人	-7012
织物的	-7013
身体的	-7014
科学技术	-7015
计算公式	-7016
在一定程度上	-7017
▁宋	-7018
一身	-7019
举动	-7020
了呢	-7021
偏偏	-7022
冷冻	-7023
出售	-7024
同行	-7025
声响	-7026
大胆	-7027
定价	-7028
对了	-7029
屋子	-7030
很是	-7031
折磨	-7032
此外	-7033
满脸	-7034
相近	-7035
组装	-7036
苗木	-7037
说说	-7038
闪烁	-7039
除非	-7040
▁一直	-7041
叶绿素	-7042
大家的	-7043
学习的	-7044
小孩子	-7045
我一直	-7046
我怎么	-7047
朋友们	-7048
特征和	-7049
的国家	-7050
的大型	-7051
研究区	-7052
等离子	-7053
▁你怎么	-7054
医疗机构	-7055
可以说是	-7056
故障诊断	-7057
无论如何	-7058
综合考虑	-7059
▁于	-7060
一辆	-7061
严厉	-7062
个别	-7063
传热	-7064
冲动	-7065
凤凰	-7066
处处	-7067
多孔	-7068
孵化	-7069
家乡	-7070
密的	-7071
岩性	-7072
怀孕	-7073
手工	-7074
打印	-7075
拼命	-7076
新颖	-7077
热烈	-7078
签名	-7079
纯化	-7080
组件	-7081
走过	-7082
这家	-7083
重重	-7084
降雨	-7085
▁本来	-7086
▁计算	-7087
▁还是	-7088
一辈子	-7089
可以为	-7090
浙江省	-7091
环境和	-7092
老年人	-7093
这两种	-7094
相关系数	-7095
等方面的	-7096
统计分析	-7097
高质量发展	-7098
▁东	-7099
不肯	-7100
他把	-7101
偏移	-7102
偶然	-7103
几句	-7104
制动	-7105
名单	-7106
大厅	-7107
大战	-7108
嫌疑	-7109
得太	-7110
恶劣	-7111
我好	-7112
扩增	-7113
拳头	-7114
是用	-7115
油的	-7116
波浪	-7117
点击	-7118
烦恼	-7119
疗法	-7120
粘结	-7121
纪委	-7122
跨国	-7123
与传统	-7124
奥运会	-7125
必要性	-7126
的事实	-7127
看不见	-7128
该如何	-7129
这么说	-7130
都不是	-7131
▁事实上	-7132
质量分数	-7133
的临床疗效	-7134
兼顾	-7135
叔叔	-7136
变质	-7137
员的	-7138
宾馆	-7139
带头	-7140
房的	-7141
拉克	-7142
指引	-7143
挥发	-7144
村里	-7145
民警	-7146
淘汰	-7147
现行	-7148
股市	-7149
起步	-7150
那你	-7151
那我	-7152
镜子	-7153
长沙	-7154
为主的	-7155
本身的	-7156
神经元	-7157
进程中	-7158
选择的	-7159
不良反应	-7160
为核心的	-7161
发达国家	-7162
新时代中国特色社会主义	-7163
严谨	-7164
丧失	-7165
二元	-7166
关闭	-7167
刚好	-7168
制药	-7169
和不	-7170
和她	-7171
商店	-7172
墙上	-7173
备案	-7174
头部	-7175
年间	-7176
忠诚	-7177
所能	-7178
是的	-7179
标识	-7180
疑惑	-7181
脑海	-7182
萧炎	-7183
行人	-7184
角的	-7185
运移	-7186
量大	-7187
金刚	-7188
阻燃	-7189
露天	-7190
顺便	-7191
▁系统	-7192
以提高	-7193
党组织	-7194
参加了	-7195
告诉他	-7196
图像的	-7197
女孩子	-7198
机械化	-7199
显著降低	-7200
亲切	-7201
他会	-7202
再到	-7203
司令	-7204
各方	-7205
和非	-7206
在前	-7207
完毕	-7208
尾矿	-7209
常数	-7210
必需	-7211
无效	-7212
某一	-7213
残余	-7214
水文	-7215
猪肉	-7216
电厂	-7217
类别	-7218
纹理	-7219
肺炎	-7220
能让	-7221
词汇	-7222
酶解	-7223
问问	-7224
食堂	-7225
马车	-7226
▁学校	-7227
▁建议	-7228
函数的	-7229
多普勒	-7230
房间里	-7231
的人都	-7232
科学家	-7233
自由度	-7234
速度和	-7235
高效的	-7236
显著影响	-7237
进行了探讨	-7238
不吃	-7239
不当	-7240
不算	-7241
凸显	-7242
出入	-7243
升降	-7244
可使	-7245
吃完	-7246
周知	-7247
和中	-7248
形容	-7249
是为	-7250
有空	-7251
格尔	-7252
模仿	-7253
洗衣	-7254
液的	-7255
纽约	-7256
这点	-7257
逐年	-7258
陆续	-7259
面板	-7260
鱼的	-7261
▁嘿嘿	-7262
▁那我	-7263
▁难道	-7264
之类的	-7265
会导致	-7266
合作社	-7267
山东省	-7268
庞大的	-7269
慢慢地	-7270
变化规律	-7271
理论分析	-7272
▁许	-7273
不该	-7274
丽的	-7275
修为	-7276
做过	-7277
出水	-7278
启发	-7279
壮大	-7280
室温	-7281
寻常	-7282
导体	-7283
把手	-7284
杀人	-7285
杂质	-7286
水位	-7287
着我	-7288
累了	-7289
西亚	-7290
这份	-7291
邮件	-7292
陪伴	-7293
静电	-7294
骨头	-7295
不停地	-7296
中心的	-7297
之前的	-7298
亲爱的	-7299
原有的	-7300
水平和	-7301
维生素	-7302
设计与	-7303
▁我已经	-7304
主要包括	-7305
检测方法	-7306
二乘	-7307
价钱	-7308
侵犯	-7309
光度	-7310
光电	-7311
几分	-7312
司马	-7313
同情	-7314
哭了	-7315
四种	-7316
在哪	-7317
多层	-7318
家属	-7319
左手	-7320
总会	-7321
早餐	-7322
机组	-7323
标题	-7324
正经	-7325
渔业	-7326
湍流	-7327
满的	-7328
环氧	-7329
畸形	-7330
线条	-7331
胖子	-7332
通行	-7333
门窗	-7334
香气	-7335
▁我说	-7336
优良的	-7337
可有效	-7338
就行了	-7339
的心情	-7340
破碎机	-7341
背后的	-7342
避免了	-7343
集装箱	-7344
▁是不是	-7345
正交试验	-7346
集团公司	-7347
▁万	-7348
▁眼	-7349
▁顾	-7350
个小	-7351
全新	-7352
四季	-7353
寂寞	-7354
并购	-7355
开花	-7356
惩罚	-7357
想过	-7358
打量	-7359
早晨	-7360
灾难	-7361
自家	-7362
行李	-7363
调试	-7364
转子	-7365
还未	-7366
闪电	-7367
阻抗	-7368
题目	-7369
骑士	-7370
▁介绍	-7371
体系和	-7372
做一个	-7373
成熟的	-7374
有许多	-7375
来到了	-7376
正确性	-7377
没有了	-7378
综合性	-7379
直接影响	-7380
看了一眼	-7381
▁徐	-7382
为我	-7383
书的	-7384
分的	-7385
圆形	-7386
地里	-7387
均值	-7388
大国	-7389
它在	-7390
察觉	-7391
屏蔽	-7392
板上	-7393
沈阳	-7394
煤矿	-7395
电位	-7396
真理	-7397
端的	-7398
耕地	-7399
血流	-7400
血浆	-7401
邻居	-7402
酶的	-7403
信噪比	-7404
创新的	-7405
剂量组	-7406
可能的	-7407
哈尔滨	-7408
如果是	-7409
完美的	-7410
挺好的	-7411
比较好	-7412
的最新	-7413
知道的	-7414
等情况	-7415
了一定的	-7416
地方政府	-7417
市场需求	-7418
并给出了	-7419
▁青	-7420
买到	-7421
供水	-7422
契机	-7423
常委	-7424
开来	-7425
总局	-7426
披露	-7427
指向	-7428
撞击	-7429
教室	-7430
旗下	-7431
海岸	-7432
浸泡	-7433
热解	-7434
的山	-7435
硕士	-7436
站着	-7437
诉求	-7438
车型	-7439
长远	-7440
阴影	-7441
▁到了	-7442
不明显	-7443
严格的	-7444
主要由	-7445
企业家	-7446
我们将	-7447
注意力	-7448
添加剂	-7449
生产和	-7450
目前的	-7451
规范化	-7452
预应力	-7453
为一体的	-7454
为什么要	-7455
控制方法	-7456
等一系列	-7457
问卷调查	-7458
一杯	-7459
了下	-7460
但对	-7461
再也	-7462
军人	-7463
四处	-7464
图的	-7465
场上	-7466
堵塞	-7467
太后	-7468
头顶	-7469
好事	-7470
对虾	-7471
少爷	-7472
尾巴	-7473
干了	-7474
植株	-7475
欢乐	-7476
比对	-7477
特意	-7478
的低	-7479
的的	-7480
直至	-7481
绿地	-7482
能的	-7483
落到	-7484
解答	-7485
诗人	-7486
调动	-7487
▁对此	-7488
▁已经	-7489
▁现代	-7490
可不是	-7491
好不好	-7492
并不能	-7493
推导了	-7494
有哪些	-7495
来源于	-7496
热处理	-7497
红色的	-7498
不断提升	-7499
土地利用	-7500
扫描电镜	-7501
的条件下	-7502
不同程度的	-7503
一部	-7504
乐趣	-7505
你呢	-7506
修行	-7507
几位	-7508
前所	-7509
压器	-7510
同期	-7511
噪音	-7512
心想	-7513
感慨	-7514
抑郁	-7515
支护	-7516
无声	-7517
朝廷	-7518
根源	-7519
特种	-7520
珍珠	-7521
田间	-7522
的日	-7523
的自	-7524
看他	-7525
缺损	-7526
罗马	-7527
这项	-7528
都快	-7529
阴阳	-7530
饭店	-7531
···	-7532
中存在	-7533
单因素	-7534
参数对	-7535
在全国	-7536
就像是	-7537
白色的	-7538
的第一	-7539
的话题	-7540
表达式	-7541
都不能	-7542
园林景观	-7543
研究中心	-7544
设计方案	-7545
▁方	-7546
中原	-7547
主的	-7548
加坡	-7549
受体	-7550
在该	-7551
境内	-7552
学和	-7553
拍的	-7554
擅长	-7555
操纵	-7556
根管	-7557
法制	-7558
登陆	-7559
落的	-7560
被他	-7561
见他	-7562
赶快	-7563
还真	-7564
高产	-7565
一个是	-7566
一点儿	-7567
一起来	-7568
与中国	-7569
但由于	-7570
回来的	-7571
在北京	-7572
复杂度	-7573
大城市	-7574
所说的	-7575
疾病的	-7576
种子的	-7577
精度的	-7578
蓄电池	-7579
持续发展	-7580
绝大多数	-7581
这些问题	-7582
设计了一种	-7583
伦敦	-7584
使我	-7585
养成	-7586
功耗	-7587
友谊	-7588
固醇	-7589
处方	-7590
外资	-7591
多重	-7592
大军	-7593
奇异	-7594
定性	-7595
开挖	-7596
感激	-7597
拍卖	-7598
指着	-7599
指纹	-7600
政务	-7601
救助	-7602
无力	-7603
时时	-7604
本体	-7605
泄漏	-7606
温和	-7607
用心	-7608
畜牧	-7609
笑声	-7610
终身	-7611
维奇	-7612
葫芦	-7613
访谈	-7614
贝尔	-7615
▁人家	-7616
▁没事	-7617
▁由此	-7618
不清楚	-7619
历史的	-7620
各部门	-7621
强度和	-7622
有针对	-7623
生产力	-7624
电视台	-7625
等多个	-7626
范围为	-7627
赢得了	-7628
了自己的	-7629
数据处理	-7630
解决问题	-7631
之心	-7632
他和	-7633
减速	-7634
压制	-7635
因其	-7636
大肠	-7637
学问	-7638
尽力	-7639
度假	-7640
座位	-7641
房里	-7642
手下	-7643
收率	-7644
欺骗	-7645
比重	-7646
水准	-7647
浓缩	-7648
牢固	-7649
神话	-7650
经纪	-7651
脚下	-7652
解除	-7653
试样	-7654
质谱	-7655
里斯	-7656
预备	-7657
不好的	-7658
了中国	-7659
你不是	-7660
可通过	-7661
样品的	-7662
脸上的	-7663
艺术家	-7664
配合物	-7665
管理制度	-7666
进行了表征	-7667
下巴	-7668
不已	-7669
伴随	-7670
使人	-7671
例外	-7672
入侵	-7673
几百	-7674
判别	-7675
厂房	-7676
团的	-7677
增高	-7678
大道	-7679
工夫	-7680
已是	-7681
并从	-7682
往后	-7683
投标	-7684
摩尔	-7685
机体	-7686
欧美	-7687
款式	-7688
深的	-7689
石材	-7690
笑的	-7691
菩萨	-7692
走势	-7693
面部	-7694
▁企业	-7695
到一个	-7696
可溶性	-7697
工程的	-7698
当时的	-7699
我喜欢	-7700
分布特征	-7701
▁只	-7702
▁更	-7703
仍旧	-7704
光芒	-7705
内地	-7706
写字	-7707
判决	-7708
利斯	-7709
前列	-7710
发热	-7711
喷雾	-7712
大海	-7713
大赛	-7714
就诊	-7715
希腊	-7716
年级	-7717
开创	-7718
得更	-7719
性及	-7720
打的	-7721
是其	-7722
是想	-7723
曲面	-7724
有无	-7725
极了	-7726
比亚	-7727
波的	-7728
盲目	-7729
看完	-7730
纠正	-7731
老了	-7732
轮胎	-7733
辣椒	-7734
▁那是	-7735
不显著	-7736
会影响	-7737
体系中	-7738
你这个	-7739
到这里	-7740
原材料	-7741
就需要	-7742
才能够	-7743
熟悉的	-7744
男人的	-7745
的学习	-7746
的特性	-7747
相当于	-7748
葡萄酒	-7749
软件对	-7750
铝合金	-7751
高精度	-7752
促进作用	-7753
具有较强的	-7754
经济发展的	-7755
▁像	-7756
三级	-7757
不平	-7758
乐观	-7759
克斯	-7760
去过	-7761
县级	-7762
发掘	-7763
受了	-7764
变为	-7765
否认	-7766
孕妇	-7767
小镇	-7768
投诉	-7769
携手	-7770
早日	-7771
未必	-7772
杀菌	-7773
正向	-7774
比特	-7775
白癜	-7776
看似	-7777
短暂	-7778
粘度	-7779
膜的	-7780
花卉	-7781
选拔	-7782
造林	-7783
首席	-7784
高低	-7785
▁她的	-7786
▁记者	-7787
了过去	-7788
油气藏	-7789
的政策	-7790
的现状	-7791
了一口气	-7792
就可以了	-7793
工艺条件	-7794
资本主义	-7795
高效液相色谱	-7796
交联	-7797
他想	-7798
切入	-7799
可不	-7800
各有	-7801
向往	-7802
基苯	-7803
多多	-7804
奶牛	-7805
子弹	-7806
得不	-7807
振幅	-7808
摩托	-7809
昆明	-7810
晚了	-7811
照射	-7812
的红	-7813
石膏	-7814
神奇	-7815
胡子	-7816
虚假	-7817
行走	-7818
警方	-7819
货架	-7820
走上	-7821
退火	-7822
陛下	-7823
隐隐	-7824
雨水	-7825
领袖	-7826
高铁	-7827
分别是	-7828
化妆品	-7829
可作为	-7830
好看的	-7831
市政府	-7832
是比较	-7833
留下了	-7834
的新闻	-7835
生产经营	-7836
综合评价	-7837
这种情况	-7838
▁柳	-7839
买房	-7840
互联	-7841
假期	-7842
做事	-7843
出国	-7844
前者	-7845
可信	-7846
夜间	-7847
并联	-7848
情境	-7849
拥抱	-7850
指令	-7851
日后	-7852
电容	-7853
留意	-7854
监狱	-7855
组建	-7856
胚胎	-7857
腾讯	-7858
蓬勃	-7859
诞生	-7860
防控	-7861
鲜血	-7862
上面的	-7863
不小心	-7864
发电机	-7865
在自己	-7866
大学的	-7867
平台上	-7868
提取物	-7869
河南省	-7870
的出现	-7871
计算的	-7872
▁综述了	-7873
发展战略	-7874
实验研究	-7875
工作原理	-7876
管理人员	-7877
▁哈	-7878
▁求	-7879
丫头	-7880
刑法	-7881
制导	-7882
匹克	-7883
各组	-7884
好人	-7885
学界	-7886
并为	-7887
搬家	-7888
服从	-7889
杀死	-7890
民事	-7891
特朗	-7892
第五	-7893
绝缘	-7894
让您	-7895
豪华	-7896
跟她	-7897
这段	-7898
银子	-7899
销量	-7900
闭环	-7901
▁即使	-7902
了过来	-7903
国家级	-7904
我也不	-7905
方式和	-7906
最后的	-7907
未成年	-7908
每一位	-7909
独立的	-7910
的差异	-7911
说出来	-7912
主题教育	-7913
合法权益	-7914
工程建设	-7915
广泛应用	-7916
指导意义	-7917
这是一个	-7918
▁夏	-7919
▁楚	-7920
一周	-7921
乾隆	-7922
了她	-7923
伙子	-7924
你别	-7925
你又	-7926
修订	-7927
冰箱	-7928
在下	-7929
头痛	-7930
奠定	-7931
实木	-7932
平板	-7933
心病	-7934
恶化	-7935
惯性	-7936
抗体	-7937
整整	-7938
无意	-7939
智力	-7940
机电	-7941
滑动	-7942
滚动	-7943
狮子	-7944
的在	-7945
监视	-7946
秉承	-7947
金额	-7948
▁在这	-7949
一切都	-7950
了一点	-7951
另一种	-7952
因素对	-7953
存在于	-7954
年轻的	-7955
活性炭	-7956
的增加	-7957
的热点	-7958
系统在	-7959
身份证	-7960
不确定性	-7961
▁与此同时	-7962
▁本文通过	-7963
哈哈哈哈哈	-7964
与他	-7965
但其	-7966
保鲜	-7967
做梦	-7968
像个	-7969
农机	-7970
制成	-7971
可知	-7972
安心	-7973
层序	-7974
市的	-7975
带给	-7976
底层	-7977
得分	-7978
悲伤	-7979
斜拉	-7980
板材	-7981
游离	-7982
目录	-7983
相继	-7984
群的	-7985
联邦	-7986
蕴含	-7987
虽说	-7988
见证	-7989
设有	-7990
转过	-7991
迎接	-7992
遇见	-7993
金的	-7994
门店	-7995
限于	-7996
风吹	-7997
风雨	-7998
马来	-7999
▁以前	-8000
不明白	-8001
专注于	-8002
为自己	-8003
今后的	-8004
你还是	-8005
公司在	-8006
很可能	-8007
抬起头	-8008
是否有	-8009
点点头	-8010
的看着	-8011
第二次	-8012
艺术的	-8013
不仅仅是	-8014
成为一个	-8015
电动汽车	-8016
质量浓度	-8017
▁本文通过对	-8018
新时代中国特色社会主义思想	-8019
▁后	-8020
▁石	-8021
八卦	-8022
口水	-8023
国庆	-8024
墙面	-8025
展会	-8026
当成	-8027
快点	-8028
意图	-8029
来回	-8030
眼的	-8031
破了	-8032
磨牙	-8033
细化	-8034
职位	-8035
货运	-8036
资助	-8037
路边	-8038
追究	-8039
造山	-8040
重心	-8041
钢琴	-8042
阐释	-8043
院的	-8044
三个月	-8045
发芽率	-8046
的人员	-8047
认为是	-8048
都不敢	-8049
▁建立了	-8050
两组患者	-8051
最小二乘	-8052
相结合的	-8053
脱贫攻坚	-8054
表面活性	-8055
一款	-8056
中了	-8057
之道	-8058
倘若	-8059
共有	-8060
到大	-8061
动静	-8062
华人	-8063
参赛	-8064
增进	-8065
复发	-8066
多彩	-8067
宪法	-8068
尼亚	-8069
指南	-8070
摆放	-8071
景象	-8072
有望	-8073
洗澡	-8074
清新	-8075
火的	-8076
的钱	-8077
的非	-8078
的黑	-8079
知晓	-8080
纯度	-8081
联络	-8082
肥料	-8083
试剂	-8084
诠释	-8085
跟前	-8086
里有	-8087
高档	-8088
▁你在	-8089
▁接着	-8090
人民的	-8091
会产生	-8092
去除率	-8093
大幅度	-8094
导致了	-8095
意义上	-8096
才发现	-8097
教育部	-8098
来实现	-8099
深刻的	-8100
特定的	-8101
着他的	-8102
纤维的	-8103
结构性	-8104
微量元素	-8105
技术人员	-8106
结合起来	-8107
▁回	-8108
三四	-8109
不满	-8110
之为	-8111
交谈	-8112
人间	-8113
信托	-8114
军官	-8115
到我	-8116
助理	-8117
包围	-8118
又说	-8119
受害	-8120
合力	-8121
响起	-8122
在本	-8123
实物	-8124
忍受	-8125
投放	-8126
攻略	-8127
更能	-8128
树的	-8129
梦见	-8130
消极	-8131
清单	-8132
生涯	-8133
相差	-8134
相邻	-8135
着脸	-8136
这部	-8137
铸造	-8138
问他	-8139
首都	-8140
▁突然	-8141
不平衡	-8142
去看看	-8143
可分为	-8144
很快就	-8145
更容易	-8146
特朗普	-8147
秦子轩	-8148
网站的	-8149
作用下的	-8150
下手	-8151
乳酸	-8152
十万	-8153
口中	-8154
商会	-8155
墙壁	-8156
增添	-8157
尽的	-8158
急忙	-8159
插值	-8160
智商	-8161
术前	-8162
构筑	-8163
标定	-8164
源的	-8165
灌溉	-8166
的血	-8167
碎片	-8168
碳酸	-8169
简洁	-8170
绘制	-8171
考研	-8172
联赛	-8173
行使	-8174
议论	-8175
身旁	-8176
高炉	-8177
▁并且	-8178
▁请问	-8179
东南亚	-8180
为我们	-8181
剩下的	-8182
单位的	-8183
受欢迎	-8184
周围的	-8185
实用性	-8186
已有的	-8187
怎么说	-8188
是由于	-8189
流动性	-8190
游戏中	-8191
满足了	-8192
肯定会	-8193
这几天	-8194
▁据了解	-8195
▁该算法	-8196
文化遗产	-8197
环境污染	-8198
现代化的	-8199
▁目的研究	-8200
经济社会发展	-8201
(,	-8202
▁双	-8203
一处	-8204
仍在	-8205
减排	-8206
县城	-8207
口感	-8208
后再	-8209
唯有	-8210
器和	-8211
固然	-8212
土的	-8213
在内	-8214
学业	-8215
实惠	-8216
所致	-8217
打扮	-8218
承办	-8219
排出	-8220
接入	-8221
有好	-8222
有待	-8223
未经	-8224
活的	-8225
浓郁	-8226
破产	-8227
破解	-8228
老大	-8229
范式	-8230
蔓延	-8231
西瓜	-8232
要做	-8233
走路	-8234
践行	-8235
还想	-8236
采矿	-8237
阀门	-8238
阴性	-8239
▁例如	-8240
也需要	-8241
基本的	-8242
文化和	-8243
是一件	-8244
组织中	-8245
能力强	-8246
负相关	-8247
都是在	-8248
▁你可以	-8249
中的作用	-8250
日常生活	-8251
一类	-8252
一趟	-8253
中子	-8254
中年	-8255
为他	-8256
从不	-8257
分段	-8258
却被	-8259
叫你	-8260
复习	-8261
多酚	-8262
太过	-8263
嫌弃	-8264
学期	-8265
情怀	-8266
折射	-8267
时段	-8268
清晨	-8269
演唱	-8270
石灰	-8271
穿上	-8272
纳税	-8273
长老	-8274
震动	-8275
面子	-8276
一起去	-8277
动脉瘤	-8278
在国际	-8279
增强了	-8280
然后再	-8281
的反应	-8282
睡着了	-8283
等信息	-8284
经验和	-8285
身边的	-8286
还不是	-8287
交通运输	-8288
可以根据	-8289
监督管理	-8290
科学发展	-8291
▁北	-8292
共聚	-8293
原型	-8294
固相	-8295
地对	-8296
她也	-8297
威力	-8298
婆婆	-8299
崩溃	-8300
并无	-8301
木质	-8302
楼上	-8303
欧阳	-8304
毒素	-8305
深部	-8306
潮湿	-8307
热爱	-8308
王的	-8309
球迷	-8310
生死	-8311
神的	-8312
科创	-8313
脆弱	-8314
色泽	-8315
上海市	-8316
人类的	-8317
关系到	-8318
合法性	-8319
根本上	-8320
每一次	-8321
的合作	-8322
可以有效	-8323
的可能性	-8324
这个世界	-8325
▁另一方面	-8326
▁研究发现	-8327
技术的发展	-8328
▁花	-8329
一旁	-8330
两相	-8331
从严	-8332
传导	-8333
住宿	-8334
侧面	-8335
修士	-8336
停留	-8337
崇拜	-8338
巅峰	-8339
成岩	-8340
捕捉	-8341
插入	-8342
梁的	-8343
法人	-8344
牢记	-8345
生根	-8346
画的	-8347
的和	-8348
艰苦	-8349
装的	-8350
裙子	-8351
评审	-8352
过高	-8353
送给	-8354
都想	-8355
酒吧	-8356
充分的	-8357
几个月	-8358
同一个	-8359
我给你	-8360
提升了	-8361
有关的	-8362
溶液中	-8363
留下的	-8364
的人群	-8365
的患者	-8366
看见了	-8367
纳米管	-8368
进入了	-8369
鲁棒性	-8370
于一体的	-8371
什么东西	-8372
应用价值	-8373
应用前景	-8374
身体健康	-8375
具有明显的	-8376
发展的重要	-8377
不妨	-8378
不应	-8379
不爱	-8380
但这	-8381
住的	-8382
使之	-8383
写了	-8384
刚性	-8385
加班	-8386
压电	-8387
又在	-8388
大局	-8389
存款	-8390
弹道	-8391
强力	-8392
抓紧	-8393
斯基	-8394
族的	-8395
最有	-8396
未见	-8397
此事	-8398
波段	-8399
潜水	-8400
猜测	-8401
珠宝	-8402
电场	-8403
画家	-8404
疗程	-8405
真好	-8406
睁开	-8407
码头	-8408
要紧	-8409
近日	-8410
通量	-8411
骨干	-8412
高空	-8413
▁两个	-8414
▁依据	-8415
▁反正	-8416
一次性	-8417
不能再	-8418
业务的	-8419
优化的	-8420
农民工	-8421
半导体	-8422
各自的	-8423
回去了	-8424
我只是	-8425
方向的	-8426
的实际	-8427
知识的	-8428
等方法	-8429
胆固醇	-8430
附近的	-8431
▁你不是	-8432
最大限度	-8433
研究进展	-8434
▁结果治疗组	-8435
▁原	-8436
主机	-8437
人脸	-8438
侦查	-8439
动能	-8440
史上	-8441
吃点	-8442
命题	-8443
奶茶	-8444
孔径	-8445
屏障	-8446
强势	-8447
快要	-8448
怪物	-8449
恶意	-8450
拥挤	-8451
教会	-8452
是将	-8453
气动	-8454
熬夜	-8455
的说	-8456
结算	-8457
菌的	-8458
见识	-8459
解的	-8460
过得	-8461
选手	-8462
那人	-8463
附属	-8464
▁他在	-8465
▁可能	-8466
也不敢	-8467
从而使	-8468
可视化	-8469
城镇化	-8470
开发了	-8471
心理学	-8472
我不是	-8473
无人机	-8474
等行业	-8475
资料的	-8476
较低的	-8477
重大的	-8478
各项工作	-8479
如果没有	-8480
数据分析	-8481
计算模型	-8482
控制系统的	-8483
▁梁	-8484
▁的	-8485
》、	-8486
一分	-8487
不顾	-8488
世上	-8489
乘客	-8490
也让	-8491
优选	-8492
体力	-8493
你可	-8494
公里	-8495
六个	-8496
删除	-8497
单片	-8498
名为	-8499
喝了	-8500
国土	-8501
宁波	-8502
宁静	-8503
层层	-8504
崛起	-8505
强国	-8506
所提	-8507
最强	-8508
有意	-8509
水源	-8510
汇率	-8511
沉重	-8512
泪水	-8513
生病	-8514
监护	-8515
确切	-8516
秋季	-8517
经贸	-8518
衬衫	-8519
要比	-8520
要看	-8521
诱发	-8522
车道	-8523
进取	-8524
透射	-8525
雕刻	-8526
颜值	-8527
香味	-8528
高达	-8529
▁人们	-8530
▁有的	-8531
但是在	-8532
可以让	-8533
将成为	-8534
当地的	-8535
思想的	-8536
我们也	-8537
技术与	-8538
是如何	-8539
朋友圈	-8540
董事会	-8541
资源和	-8542
还是在	-8543
速度的	-8544
经济的发展	-8545
差异无统计学意义	-8546
▁文	-8547
一听	-8548
上级	-8549
不信	-8550
乙酯	-8551
伸缩	-8552
低碳	-8553
充实	-8554
养分	-8555
切削	-8556
变频	-8557
可供	-8558
命的	-8559
善于	-8560
坚守	-8561
外形	-8562
妊娠	-8563
小米	-8564
废物	-8565
忙碌	-8566
思索	-8567
我把	-8568
折腾	-8569
据说	-8570
教导	-8571
法在	-8572
深远	-8573
直观	-8574
督导	-8575
祝你	-8576
考古	-8577
而非	-8578
肥胖	-8579
金钱	-8580
附着	-8581
首选	-8582
▁我就	-8583
▁无论	-8584
为我国	-8585
发生率	-8586
家里的	-8587
希望能	-8588
开始了	-8589
您可以	-8590
或者说	-8591
的比例	-8592
相比较	-8593
经营者	-8594
过氧化	-8595
还不如	-8596
还是很	-8597
这里的	-8598
社会保障	-8599
进行对比	-8600
有限元分析	-8601
的影响因素	-8602
久了	-8603
争夺	-8604
先行	-8605
分组	-8606
动着	-8607
卒中	-8608
受损	-8609
叹息	-8610
嘉宾	-8611
增量	-8612
师父	-8613
干的	-8614
幽默	-8615
我只	-8616
所述	-8617
播放	-8618
收取	-8619
数码	-8620
永恒	-8621
沙漠	-8622
法官	-8623
然的	-8624
王爷	-8625
生机	-8626
美女	-8627
致密	-8628
财经	-8629
过大	-8630
▁那就	-8631
不符合	-8632
公安局	-8633
出了一	-8634
前所未	-8635
反应器	-8636
合作的	-8637
大面积	-8638
常委会	-8639
总体上	-8640
整体的	-8641
最新的	-8642
,	-8643
的	-8644
▁	-8645
。	-8646
了	-8647
一	-8648
、	-8649
是	-8650
不	-8651
在	-8652
有	-8653
我	-8654
和	-8655
人	-8656
为	-8657
中	-8658
对	-8659
大	-8660
这	-8661
个	-8662
用	-8663
要	-8664
以	-8665
上	-8666
来	-8667
能	-8668
时	-8669
生	-8670
发	-8671
分	-8672
到	-8673
他	-8674
出	-8675
地	-8676
性	-8677
你	-8678
行	-8679
可	-8680
方	-8681
会	-8682
过	-8683
就	-8684
化	-8685
进	-8686
0	-8687
好	-8688
国	-8689
法	-8690
下	-8691
作	-8692
成	-8693
也	-8694
理	-8695
于	-8696
学	-8697
们	-8698
子	-8699
.	-8700
多	-8701
业	-8702
度	-8703
现	-8704
高	-8705
动	-8706
体	-8707
后	-8708
实	-8709
着	-8710
得	-8711
自	-8712
面	-8713
与	-8714
合	-8715
力	-8716
结	-8717
工	-8718
说	-8719
1	-8720
家	-8721
都	-8722
定	-8723
经	-8724
等	-8725
量	-8726
提	-8727
种	-8728
同	-8729
而	-8730
机	-8731
那	-8732
还	-8733
产	-8734
2	-8735
小	-8736
应	-8737
么	-8738
道	-8739
系	-8740
果	-8741
制	-8742
本	-8743
水	-8744
看	-8745
及	-8746
其	-8747
心	-8748
没	-8749
明	-8750
年	-8751
间	-8752
主	-8753
开	-8754
重	-8755
天	-8756
关	-8757
数	-8758
点	-8759
之	-8760
去	-8761
相	-8762
新	-8763
表	-8764
然	-8765
前	-8766
展	-8767
加	-8768
基	-8769
里	-8770
全	-8771
物	-8772
最	-8773
通	-8774
文	-8775
!	-8776
并	-8777
设	-8778
长	-8779
程	-8780
因	-8781
所	-8782
想	-8783
品	-8784
建	-8785
电	-8786
很	-8787
起	-8788
公	-8789
计	-8790
事	-8791
部	-8792
内	-8793
特	-8794
研	-8795
从	-8796
型	-8797
比	-8798
样	-8799
者	-8800
统	-8801
变	-8802
效	-8803
意	-8804
如	-8805
她	-8806
市	-8807
质	-8808
组	-8809
平	-8810
情	-8811
模	-8812
:	-8813
当	-8814
气	-8815
些	-8816
区	-8817
信	-8818
3	-8819
究	-8820
外	-8821
管	-8822
但	-8823
5	-8824
手	-8825
问	-8826
无	-8827
?	-8828
将	-8829
哈	-8830
术	-8831
位	-8832
解	-8833
利	-8834
场	-8835
式	-8836
保	-8837
更	-8838
正	-8839
流	-8840
只	-8841
目	-8842
资	-8843
构	-8844
知	-8845
身	-8846
影	-8847
析	-8848
题	-8849
两	-8850
活	-8851
向	-8852
入	-8853
技	-8854
务	-8855
常	-8856
强	-8857
己	-8858
件	-8859
较	-8860
使	-8861
三	-8862
形	-8863
回	-8864
次	-8865
率	-8866
给	-8867
别	-8868
此	-8869
期	-8870
真	-8871
代	-8872
感	-8873
算	-8874
测	-8875
具	-8876
验	-8877
头	-8878
安	-8879
4	-8880
据	-8881
响	-8882
论	-8883
各	-8884
教	-8885
已	-8886
处	-8887
原	-8888
该	-8889
接	-8890
网	-8891
色	-8892
运	-8893
把	-8894
金	-8895
服	-8896
被	-8897
传	-8898
民	-8899
做	-8900
标	-8901
导	-8902
光	-8903
料	-8904
老	-8905
政	-8906
车	-8907
求	-8908
立	-8909
显	-8910
路	-8911
线	-8912
风	-8913
采	-8914
由	-8915
治	-8916
又	-8917
让	-8918
值	-8919
直	-8920
类	-8921
美	-8922
带	-8923
规	-8924
优	-8925
什	-8926
门	-8927
或	-8928
口	-8929
9	-8930
环	-8931
社	-8932
态	-8933
6	-8934
需	-8935
造	-8936
低	-8937
见	-8938
空	-8939
啊	-8940
增	-8941
单	-8942
交	-8943
二	-8944
话	-8945
调	-8946
指	-8947
价	-8948
司	-8949
少	-8950
改	-8951
才	-8952
员	-8953
8	-8954
受	-8955
打	-8956
试	-8957
反	-8958
育	-8959
白	-8960
西	-8961
日	-8962
确	-8963
儿	-8964
快	-8965
海	-8966
几	-8967
科	-8968
放	-8969
观	-8970
取	-8971
条	-8972
素	-8973
完	-8974
转	-8975
再	-8976
十	-8977
速	-8978
像	-8979
器	-8980
觉	-8981
选	-8982
整	-8983
供	-8984
非	-8985
备	-8986
层	-8987
源	-8988
持	-8989
先	-8990
精	-8991
总	-8992
收	-8993
认	-8994
东	-8995
太	-8996
息	-8997
证	-8998
步	-8999
企	-9000
病	-9001
女	-9002
城	-9003
考	-9004
准	-9005
控	-9006
任	-9007
义	-9008
热	-9009
近	-9010
候	-9011
复	-9012
深	-9013
达	-9014
随	-9015
走	-9016
7	-9017
商	-9018
格	-9019
声	-9020
且	-9021
边	-9022
神	-9023
吃	-9024
存	-9025
装	-9026
参	-9027
集	-9028
根	-9029
专	-9030
差	-9031
推	-9032
清	-9033
眼	-9034
干	-9035
识	-9036
山	-9037
思	-9038
断	-9039
它	-9040
温	-9041
名	-9042
第	-9043
境	-9044
压	-9045
创	-9046
功	-9047
离	-9048
越	-9049
容	-9050
广	-9051
细	-9052
况	-9053
节	-9054
界	-9055
养	-9056
济	-9057
联	-9058
示	-9059
领	-9060
便	-9061
布	-9062
难	-9063
院	-9064
均	-9065
注	-9066
决	-9067
施	-9068
级	-9069
视	-9070
疗	-9071
域	-9072
包	-9073
极	-9074
师	-9075
台	-9076
世	-9077
状	-9078
维	-9079
降	-9080
战	-9081
户	-9082
共	-9083
照	-9084
引	-9085
积	-9086
医	-9087
书	-9088
南	-9089
何	-9090
报	-9091
段	-9092
消	-9093
势	-9094
配	-9095
图	-9096
营	-9097
花	-9098
记	-9099
今	-9100
权	-9101
吧	-9102
土	-9103
微	-9104
检	-9105
项	-9106
材	-9107
际	-9108
农	-9109
适	-9110
护	-9111
油	-9112
爱	-9113
每	-9114
至	-9115
月	-9116
易	-9117
林	-9118
游	-9119
药	-9120
异	-9121
例	-9122
费	-9123
支	-9124
住	-9125
满	-9126
四	-9127
北	-9128
听	-9129
致	-9130
客	-9131
够	-9132
马	-9133
象	-9134
必	-9135
预	-9136
周	-9137
校	-9138
置	-9139
石	-9140
血	-9141
查	-9142
评	-9143
防	-9144
足	-9145
续	-9146
升	-9147
办	-9148
站	-9149
跟	-9150
张	-9151
元	-9152
片	-9153
连	-9154
含	-9155
则	-9156
—	-9157
切	-9158
酸	-9159
望	-9160
础	-9161
却	-9162
怎	-9163
房	-9164
球	-9165
策	-9166
限	-9167
波	-9168
艺	-9169
范	-9170
征	-9171
景	-9172
局	-9173
红	-9174
始	-9175
案	-9176
失	-9177
投	-9178
找	-9179
围	-9180
未	-9181
除	-9182
角	-9183
习	-9184
织	-9185
早	-9186
火	-9187
亲	-9188
探	-9189
双	-9190
修	-9191
乐	-9192
许	-9193
命	-9194
群	-9195
落	-9196
减	-9197
吗	-9198
队	-9199
依	-9200
死	-9201
语	-9202
板	-9203
笑	-9204
～	-9205
助	-9206
王	-9207
历	-9208
轻	-9209
超	-9210
喜	-9211
军	-9212
排	-9213
食	-9214
远	-9215
往	-9216
团	-9217
稳	-9218
号	-9219
介	-9220
呢	-9221
议	-9222
拉	-9223
益	-9224
属	-9225
密	-9226
党	-9227
省	-9228
监	-9229
字	-9230
青	-9231
欢	-9232
尔	-9233
众	-9234
德	-9235
告	-9236
善	-9237
矿	-9238
射	-9239
液	-9240
斯	-9241
;	-9242
友	-9243
划	-9244
孩	-9245
吸	-9246
刚	-9247
讨	-9248
述	-9249
充	-9250
半	-9251
华	-9252
培	-9253
言	-9254
险	-9255
律	-9256
五	-9257
即	-9258
剂	-9259
良	-9260
念	-9261
简	-9262
约	-9263
买	-9264
换	-9265
择	-9266
针	-9267
突	-9268
村	-9269
音	-9270
仅	-9271
严	-9272
互	-9273
融	-9274
获	-9275
族	-9276
钱	-9277
阳	-9278
核	-9279
移	-9280
底	-9281
临	-9282
黑	-9283
首	-9284
络	-9285
黄	-9286
克	-9287
哪	-9288
终	-9289
患	-9290
察	-9291
染	-9292
史	-9293
争	-9294
责	-9295
承	-9296
著	-9297
聚	-9298
职	-9299
委	-9300
健	-9301
害	-9302
列	-9303
似	-9304
男	-9305
室	-9306
破	-9307
脸	-9308
云	-9309
晚	-9310
请	-9311
初	-9312
百	-9313
江	-9314
协	-9315
频	-9316
抗	-9317
木	-9318
园	-9319
留	-9320
士	-9321
负	-9322
紧	-9323
冲	-9324
万	-9325
富	-9326
伤	-9327
略	-9328
床	-9329
冷	-9330
牌	-9331
河	-9332
星	-9333
输	-9334
府	-9335
错	-9336
皮	-9337
般	-9338
岩	-9339
康	-9340
宝	-9341
混	-9342
故	-9343
序	-9344
智	-9345
您	-9346
激	-9347
铁	-9348
革	-9349
州	-9350
杂	-9351
菌	-9352
树	-9353
虽	-9354
亚	-9355
综	-9356
植	-9357
玩	-9358
载	-9359
酒	-9360
送	-9361
演	-9362
尽	-9363
叶	-9364
块	-9365
普	-9366
米	-9367
沉	-9368
刻	-9369
销	-9370
缺	-9371
坚	-9372
兴	-9373
叫	-9374
阶	-9375
古	-9376
脑	-9377
索	-9378
免	-9379
居	-9380
帮	-9381
飞	-9382
店	-9383
氧	-9384
固	-9385
损	-9386
拟	-9387
击	-9388
散	-9389
睡	-9390
李	-9391
背	-9392
味	-9393
英	-9394
绍	-9395
独	-9396
软	-9397
坐	-9398
写	-9399
股	-9400
静	-9401
径	-9402
京	-9403
衣	-9404
障	-9405
短	-9406
纳	-9407
称	-9408
端	-9409
待	-9410
胞	-9411
按	-9412
讲	-9413
穿	-9414
怕	-9415
灵	-9416
久	-9417
母	-9418
夫	-9419
绿	-9420
急	-9421
乎	-9422
促	-9423
须	-9424
课	-9425
香	-9426
官	-9427
拿	-9428
粉	-9429
希	-9430
假	-9431
份	-9432
绝	-9433
龙	-9434
训	-9435
谢	-9436
仿	-9437
蛋	-9438
钢	-9439
鱼	-9440
某	-9441
浓	-9442
福	-9443
(	-9444
补	-9445
靠	-9446
厂	-9447
慢	-9448
戏	-9449
粒	-9450
估	-9451
武	-9452
旅	-9453
卫	-9454
继	-9455
肉	-9456
曲	-9457
)	-9458
脱	-9459
架	-9460
画	-9461
班	-9462
副	-9463
银	-9464
阿	-9465
款	-9466
虑	-9467
志	-9468
·	-9469
顾	-9470
朋	-9471
倒	-9472
举	-9473
播	-9474
另	-9475
诉	-9476
纪	-9477
财	-9478
振	-9479
购	-9480
草	-9481
概	-9482
巴	-9483
罗	-9484
筑	-9485
污	-9486
奇	-9487
担	-9488
阵	-9489
止	-9490
读	-9491
夜	-9492
甲	-9493
弹	-9494
括	-9495
套	-9496
震	-9497
毛	-9498
偏	-9499
八	-9500
妈	-9501
挥	-9502
赛	-9503
啦	-9504
货	-9505
季	-9506
否	-9507
藏	-9508
编	-9509
汽	-9510
牙	-9511
毒	-9512
误	-9513
谁	-9514
苏	-9515
千	-9516
附	-9517
谱	-9518
亮	-9519
逐	-9520
愿	-9521
甚	-9522
湖	-9523
雨	-9524
姐	-9525
批	-9526
父	-9527
丰	-9528
透	-9529
竞	-9530
哥	-9531
扩	-9532
膜	-9533
渐	-9534
竟	-9535
六	-9536
孔	-9537
停	-9538
章	-9539
顺	-9540
轮	-9541
裂	-9542
松	-9543
凝	-9544
胶	-9545
遇	-9546
乡	-9547
县	-9548
糖	-9549
苦	-9550
呀	-9551
键	-9552
骨	-9553
若	-9554
卡	-9555
杀	-9556
售	-9557
谈	-9558
痛	-9559
沙	-9560
操	-9561
句	-9562
印	-9563
溶	-9564
洗	-9565
饭	-9566
既	-9567
楼	-9568
丝	-9569
审	-9570
借	-9571
博	-9572
熟	-9573
释	-9574
脉	-9575
馆	-9576
趋	-9577
阻	-9578
兵	-9579
令	-9580
彩	-9581
追	-9582
判	-9583
呈	-9584
露	-9585
措	-9586
缓	-9587
脚	-9588
余	-9589
库	-9590
喝	-9591
仍	-9592
弱	-9593
练	-9594
剧	-9595
朝	-9596
厚	-9597
牛	-9598
退	-9599
劳	-9600
执	-9601
菜	-9602
顶	-9603
》	-9604
座	-9605
《	-9606
缩	-9607
航	-9608
距	-9609
典	-9610
拍	-9611
享	-9612
危	-9613
码	-9614
践	-9615
曾	-9616
坏	-9617
斗	-9618
占	-9619
春	-9620
镇	-9621
招	-9622
链	-9623
症	-9624
归	-9625
侧	-9626
船	-9627
困	-9628
七	-9629
储	-9630
贵	-9631
跑	-9632
献	-9633
桥	-9634
警	-9635
延	-9636
夏	-9637
硬	-9638
束	-9639
酶	-9640
雪	-9641
田	-9642
盘	-9643
录	-9644
玉	-9645
烟	-9646
泛	-9647
茶	-9648
敢	-9649
汉	-9650
惊	-9651
巨	-9652
烧	-9653
兰	-9654
陈	-9655
佳	-9656
卖	-9657
肥	-9658
楚	-9659
掉	-9660
仪	-9661
庭	-9662
丽	-9663
雷	-9664
磨	-9665
耐	-9666
池	-9667
湿	-9668
答	-9669
刘	-9670
托	-9671
盖	-9672
封	-9673
陆	-9674
票	-9675
闻	-9676
脂	-9677
付	-9678
纯	-9679
威	-9680
燃	-9681
梁	-9682
衡	-9683
乱	-9684
殖	-9685
隐	-9686
疑	-9687
婚	-9688
左	-9689
拥	-9690
怀	-9691
避	-9692
九	-9693
诊	-9694
纸	-9695
肯	-9696
鲜	-9697
纤	-9698
符	-9699
嘴	-9700
盐	-9701
笔	-9702
呼	-9703
媒	-9704
梦	-9705
毕	-9706
镜	-9707
守	-9708
抓	-9709
握	-9710
尼	-9711
攻	-9712
烈	-9713
泥	-9714
虚	-9715
洋	-9716
麻	-9717
休	-9718
皇	-9719
哦	-9720
嘛	-9721
版	-9722
宽	-9723
抑	-9724
派	-9725
械	-9726
弟	-9727
滑	-9728
礼	-9729
醒	-9730
额	-9731
掌	-9732
敏	-9733
词	-9734
累	-9735
尤	-9736
忙	-9737
暴	-9738
宣	-9739
峰	-9740
旋	-9741
耳	-9742
暗	-9743
努	-9744
寻	-9745
晶	-9746
爷	-9747
描	-9748
幸	-9749
奶	-9750
宁	-9751
磁	-9752
触	-9753
遗	-9754
屋	-9755
右	-9756
圆	-9757
欧	-9758
炎	-9759
秀	-9760
救	-9761
野	-9762
伴	-9763
永	-9764
嗯	-9765
餐	-9766
狗	-9767
折	-9768
佛	-9769
爆	-9770
翻	-9771
杨	-9772
幅	-9773
圈	-9774
恶	-9775
箱	-9776
娘	-9777
碳	-9778
刀	-9779
予	-9780
缘	-9781
墙	-9782
街	-9783
冰	-9784
净	-9785
赶	-9786
途	-9787
宗	-9788
尚	-9789
挑	-9790
灯	-9791
灰	-9792
督	-9793
隔	-9794
堂	-9795
怪	-9796
疾	-9797
睛	-9798
宜	-9799
洲	-9800
歌	-9801
央	-9802
岁	-9803
啥	-9804
荷	-9805
零	-9806
奥	-9807
阴	-9808
询	-9809
旧	-9810
宫	-9811
耗	-9812
薄	-9813
齐	-9814
苗	-9815
浪	-9816
乙	-9817
帝	-9818
伸	-9819
颗	-9820
遍	-9821
废	-9822
抱	-9823
碎	-9824
迎	-9825
趣	-9826
绩	-9827
港	-9828
鼠	-9829
陷	-9830
映	-9831
塑	-9832
伙	-9833
童	-9834
罪	-9835
鉴	-9836
滤	-9837
窗	-9838
颜	-9839
忽	-9840
潜	-9841
跳	-9842
贸	-9843
尺	-9844
懂	-9845
浮	-9846
替	-9847
闭	-9848
轴	-9849
蓝	-9850
杆	-9851
扰	-9852
旁	-9853
饮	-9854
午	-9855
岛	-9856
壤	-9857
伦	-9858
妹	-9859
胜	-9860
启	-9861
淡	-9862
摆	-9863
税	-9864
糊	-9865
盟	-9866
申	-9867
纹	-9868
乳	-9869
顿	-9870
壁	-9871
暖	-9872
涉	-9873
循	-9874
犯	-9875
繁	-9876
忘	-9877
访	-9878
诚	-9879
妇	-9880
扬	-9881
汇	-9882
贴	-9883
井	-9884
励	-9885
胡	-9886
饰	-9887
递	-9888
尾	-9889
钟	-9890
私	-9891
粗	-9892
迹	-9893
授	-9894
冬	-9895
抽	-9896
柱	-9897
席	-9898
登	-9899
详	-9900
庆	-9901
煤	-9902
末	-9903
塞	-9904
函	-9905
扫	-9906
卷	-9907
刺	-9908
恩	-9909
轨	-9910
摇	-9911
秘	-9912
默	-9913
剑	-9914
辆	-9915
潮	-9916
残	-9917
沿	-9918
舞	-9919
喷	-9920
挺	-9921
鼓	-9922
贫	-9923
舒	-9924
腐	-9925
涂	-9926
洞	-9927
鸡	-9928
塔	-9929
豆	-9930
纷	-9931
跨	-9932
搭	-9933
龄	-9934
催	-9935
蒙	-9936
厅	-9937
肌	-9938
签	-9939
赵	-9940
彻	-9941
铜	-9942
猪	-9943
闪	-9944
横	-9945
迷	-9946
泡	-9947
沟	-9948
寒	-9949
咱	-9950
森	-9951
袋	-9952
矩	-9953
噪	-9954
氨	-9955
虫	-9956
川	-9957
焦	-9958
秋	-9959
诸	-9960
腿	-9961
秦	-9962
壳	-9963
洁	-9964
灾	-9965
呵	-9966
败	-9967
莫	-9968
坡	-9969
尘	-9970
疫	-9971
忍	-9972
殊	-9973
雄	-9974
润	-9975
堆	-9976
弃	-9977
紫	-9978
恐	-9979
哭	-9980
添	-9981
搜	-9982
阐	-9983
覆	-9984
惯	-9985
醇	-9986
炉	-9987
奖	-9988
幼	-9989
滴	-9990
肠	-9991
倾	-9992
侵	-9993
爸	-9994
肿	-9995
挂	-9996
剪	-9997
尊	-9998
肤	-9999
迅	-10000
炼	-10001
柔	-10002
诺	-10003
亡	-10004
砂	-10005
绕	-10006
盆	-10007
巧	-10008
雅	-10009
株	-10010
貌	-10011
拓	-10012
唐	-10013
汤	-10014
圣	-10015
硫	-10016
鬼	-10017
摩	-10018
驱	-10019
缝	-10020
墨	-10021
洛	-10022
辅	-10023
迫	-10024
鲁	-10025
丁	-10026
弄	-10027
胖	-10028
枪	-10029
桌	-10030
珠	-10031
撑	-10032
磷	-10033
韩	-10034
昨	-10035
禁	-10036
盛	-10037
齿	-10038
麦	-10039
浸	-10040
铺	-10041
粘	-10042
丹	-10043
扶	-10044
尖	-10045
恢	-10046
摄	-10047
唱	-10048
梯	-10049
姑	-10050
烦	-10051
胸	-10052
孙	-10053
庄	-10054
魔	-10055
租	-10056
荣	-10057
摸	-10058
腔	-10059
违	-10060
仙	-10061
锅	-10062
唯	-10063
倍	-10064
吉	-10065
浆	-10066
驾	-10067
诗	-10068
填	-10069
灭	-10070
吴	-10071
玻	-10072
碰	-10073
贡	-10074
订	-10075
舍	-10076
贝	-10077
偿	-10078
搞	-10079
棒	-10080
渗	-10081
璃	-10082
岗	-10083
谷	-10084
插	-10085
匹	-10086
脏	-10087
毫	-10088
凡	-10089
刷	-10090
谐	-10091
闲	-10092
弯	-10093
氏	-10094
梅	-10095
踪	-10096
漂	-10097
稀	-10098
瘤	-10099
漫	-10100
斜	-10101
伟	-10102
贯	-10103
惠	-10104
扎	-10105
瘦	-10106
兄	-10107
撞	-10108
涵	-10109
杯	-10110
氮	-10111
蚀	-10112
敌	-10113
勇	-10114
辨	-10115
尿	-10116
甘	-10117
羊	-10118
湾	-10119
奋	-10120
偷	-10121
寿	-10122
幕	-10123
诱	-10124
阅	-10125
逃	-10126
乏	-10127
朱	-10128
赞	-10129
祖	-10130
纵	-10131
伊	-10132
疼	-10133
聊	-10134
锁	-10135
慧	-10136
赢	-10137
灌	-10138
忆	-10139
页	-10140
岸	-10141
肝	-10142
擦	-10143
册	-10144
君	-10145
敬	-10146
赖	-10147
冒	-10148
冠	-10149
割	-10150
腾	-10151
辑	-10152
鼻	-10153
偶	-10154
币	-10155
苯	-10156
屏	-10157
胆	-10158
恒	-10159
粮	-10160
垂	-10161
截	-10162
腰	-10163
戴	-10164
瓶	-10165
伍	-10166
迁	-10167
螺	-10168
匀	-10169
泽	-10170
碱	-10171
羽	-10172
闹	-10173
婆	-10174
猫	-10175
乘	-10176
抬	-10177
隙	-10178
抢	-10179
挖	-10180
烯	-10181
铝	-10182
逆	-10183
驶	-10184
凉	-10185
徐	-10186
炸	-10187
谓	-10188
祝	-10189
宋	-10190
腹	-10191
讯	-10192
刑	-10193
雾	-10194
骑	-10195
拔	-10196
辐	-10197
辛	-10198
酯	-10199
隆	-10200
姓	-10201
饱	-10202
框	-10203
档	-10204
虎	-10205
甜	-10206
俗	-10207
盾	-10208
债	-10209
叠	-10210
旗	-10211
晓	-10212
瞬	-10213
厉	-10214
荡	-10215
劲	-10216
蒸	-10217
泰	-10218
妻	-10219
愈	-10220
迟	-10221
眉	-10222
伏	-10223
剩	-10224
帅	-10225
拼	-10226
陪	-10227
狂	-10228
凭	-10229
宿	-10230
悉	-10231
衰	-10232
胃	-10233
魂	-10234
赏	-10235
瓜	-10236
竹	-10237
遭	-10238
肩	-10239
囊	-10240
丙	-10241
斑	-10242
绪	-10243
肺	-10244
陶	-10245
鞋	-10246
篇	-10247
棉	-10248
宇	-10249
泪	-10250
旦	-10251
牢	-10252
枝	-10253
冻	-10254
壮	-10255
浅	-10256
贷	-10257
咨	-10258
悬	-10259
芽	-10260
滚	-10261
尝	-10262
钻	-10263
珍	-10264
荐	-10265
抵	-10266
哲	-10267
乌	-10268
硅	-10269
董	-10270
吹	-10271
漏	-10272
寸	-10273
沈	-10274
跃	-10275
恋	-10276
吐	-10277
癫	-10278
伯	-10279
挤	-10280
勒	-10281
欲	-10282
碍	-10283
娱	-10284
骂	-10285
孤	-10286
宏	-10287
番	-10288
渠	-10289
夹	-10290
葡	-10291
账	-10292
捷	-10293
柳	-10294
胎	-10295
胺	-10296
券	-10297
猛	-10298
豪	-10299
惜	-10300
柜	-10301
亦	-10302
届	-10303
悲	-10304
喊	-10305
谋	-10306
杰	-10307
拜	-10308
怒	-10309
哎	-10310
艾	-10311
氯	-10312
嘿	-10313
骗	-10314
疏	-10315
痫	-10316
俄	-10317
朗	-10318
邻	-10319
叔	-10320
津	-10321
莱	-10322
慕	-10323
仔	-10324
裁	-10325
臂	-10326
辈	-10327
洪	-10328
孕	-10329
癌	-10330
桃	-10331
旨	-10332
兼	-10333
奔	-10334
姿	-10335
曼	-10336
萨	-10337
哇	-10338
挡	-10339
拖	-10340
迪	-10341
署	-10342
暂	-10343
槽	-10344
淀	-10345
剖	-10346
澳	-10347
垃	-10348
扭	-10349
瓷	-10350
丢	-10351
俩	-10352
吓	-10353
筛	-10354
藻	-10355
辣	-10356
筹	-10357
圾	-10358
芯	-10359
妙	-10360
锋	-10361
揭	-10362
阔	-10363
仁	-10364
稍	-10365
氢	-10366
狠	-10367
瓦	-10368
矛	-10369
肾	-10370
呆	-10371
埋	-10372
扣	-10373
搬	-10374
饲	-10375
萄	-10376
晨	-10377
萌	-10378
誉	-10379
杜	-10380
召	-10381
恨	-10382
凤	-10383
纠	-10384
腺	-10385
坦	-10386
栽	-10387
隧	-10388
傅	-10389
忧	-10390
掘	-10391
欣	-10392
乃	-10393
遥	-10394
串	-10395
仓	-10396
叹	-10397
忠	-10398
犹	-10399
厨	-10400
扑	-10401
涨	-10402
汗	-10403
牵	-10404
炮	-10405
燥	-10406
颈	-10407
凌	-10408
泉	-10409
疲	-10410
址	-10411
逻	-10412
译	-10413
宾	-10414
捕	-10415
泵	-10416
耦	-10417
酵	-10418
朵	-10419
炭	-10420
穷	-10421
赚	-10422
滋	-10423
郑	-10424
辉	-10425
筋	-10426
娜	-10427
巡	-10428
瑞	-10429
疯	-10430
勤	-10431
叉	-10432
咬	-10433
绘	-10434
仰	-10435
厌	-10436
胀	-10437
氛	-10438
霉	-10439
览	-10440
遵	-10441
彼	-10442
酮	-10443
鸟	-10444
嘻	-10445
兽	-10446
嘉	-10447
滞	-10448
肚	-10449
裤	-10450
奏	-10451
咋	-10452
赋	-10453
宅	-10454
踏	-10455
刊	-10456
徒	-10457
淋	-10458
焊	-10459
阀	-10460
毁	-10461
牧	-10462
漆	-10463
罚	-10464
抛	-10465
晰	-10466
玄	-10467
胁	-10468
稻	-10469
拒	-10470
爬	-10471
逼	-10472
赤	-10473
眠	-10474
猜	-10475
衍	-10476
肪	-10477
萧	-10478
纺	-10479
乔	-10480
虾	-10481
御	-10482
翼	-10483
吊	-10484
狼	-10485
聘	-10486
郁	-10487
卓	-10488
喂	-10489
栏	-10490
吻	-10491
悠	-10492
援	-10493
渣	-10494
玛	-10495
拳	-10496
姆	-10497
菲	-10498
烷	-10499
躺	-10500
莲	-10501
夺	-10502
柴	-10503
椅	-10504
馈	-10505
畅	-10506
拆	-10507
坛	-10508
烤	-10509
醉	-10510
钠	-10511
恰	-10512
窝	-10513
饿	-10514
堵	-10515
肃	-10516
屈	-10517
荧	-10518
圳	-10519
飘	-10520
撒	-10521
碗	-10522
纱	-10523
渡	-10524
履	-10525
盒	-10526
荒	-10527
寄	-10528
幻	-10529
辞	-10530
丈	-10531
浙	-10532
返	-10533
廉	-10534
扇	-10535
耕	-10536
钙	-10537
抖	-10538
桩	-10539
允	-10540
妆	-10541
坑	-10542
雕	-10543
羡	-10544
锌	-10545
琴	-10546
罢	-10547
埃	-10548
芳	-10549
锈	-10550
臣	-10551
削	-10552
盈	-10553
咯	-10554
箭	-10555
涌	-10556
霸	-10557
唇	-10558
黏	-10559
躲	-10560
疆	-10561
熊	-10562
奉	-10563
硝	-10564
辩	-10565
嫌	-10566
卵	-10567
邮	-10568
娃	-10569
泄	-10570
衬	-10571
烃	-10572
赔	-10573
酰	-10574
佩	-10575
筒	-10576
蜜	-10577
袭	-10578
悄	-10579
掺	-10580
烂	-10581
辰	-10582
驻	-10583
桑	-10584
皱	-10585
邀	-10586
妖	-10587
殿	-10588
砖	-10589
燕	-10590
脆	-10591
俱	-10592
痕	-10593
弥	-10594
慰	-10595
欠	-10596
伪	-10597
勘	-10598
傻	-10599
携	-10600
晒	-10601
杭	-10602
咖	-10603
奈	-10604
惑	-10605
夸	-10606
蓄	-10607
幽	-10608
盯	-10609
醛	-10610
嫁	-10611
晋	-10612
惨	-10613
晕	-10614
劣	-10615
籍	-10616
熔	-10617
凶	-10618
尸	-10619
涡	-10620
鸣	-10621
崇	-10622
艰	-10623
酚	-10624
滨	-10625
丑	-10626
黎	-10627
旱	-10628
昌	-10629
窄	-10630
臭	-10631
舌	-10632
亏	-10633
怜	-10634
欺	-10635
邦	-10636
锦	-10637
婴	-10638
祥	-10639
桂	-10640
吞	-10641
泊	-10642
契	-10643
摘	-10644
赫	-10645
郭	-10646
篮	-10647
戒	-10648
抹	-10649
耀	-10650
脾	-10651
舰	-10652
帽	-10653
懒	-10654
锐	-10655
亿	-10656
纽	-10657
梳	-10658
袖	-10659
滩	-10660
聪	-10661
晃	-10662
浩	-10663
迈	-10664
敛	-10665
悦	-10666
萃	-10667
郎	-10668
沥	-10669
姜	-10670
悟	-10671
苹	-10672
跌	-10673
宠	-10674
浴	-10675
闷	-10676
浑	-10677
皆	-10678
凸	-10679
瞧	-10680
伐	-10681
汁	-10682
遮	-10683
堡	-10684
哼	-10685
啡	-10686
蛇	-10687
饼	-10688
恭	-10689
慌	-10690
盗	-10691
凯	-10692
吕	-10693
怨	-10694
慎	-10695
霍	-10696
棋	-10697
罐	-10698
兔	-10699
蔬	-10700
卧	-10701
塘	-10702
丧	-10703
岭	-10704
庞	-10705
掩	-10706
蜂	-10707
蟹	-10708
陌	-10709
轩	-10710
罩	-10711
昏	-10712
勾	-10713
姨	-10714
魏	-10715
苷	-10716
贮	-10717
膨	-10718
艳	-10719
舶	-10720
扯	-10721
渔	-10722
扮	-10723
俊	-10724
嵌	-10725
慈	-10726
抚	-10727
绳	-10728
娇	-10729
缆	-10730
苍	-10731
挣	-10732
哟	-10733
芒	-10734
昆	-10735
炒	-10736
膀	-10737
昂	-10738
笼	-10739
辽	-10740
铸	-10741
爹	-10742
颤	-10743
徽	-10744
氟	-10745
膏	-10746
颇	-10747
骤	-10748
劝	-10749
敲	-10750
旺	-10751
糕	-10752
裙	-10753
秒	-10754
酷	-10755
惧	-10756
秩	-10757
莉	-10758
颖	-10759
仇	-10760
轰	-10761
扔	-10762
谨	-10763
耶	-10764
坝	-10765
垫	-10766
拾	-10767
盲	-10768
蒂	-10769
忌	-10770
搅	-10771
乖	-10772
桶	-10773
淘	-10774
倡	-10775
裹	-10776
铅	-10777
妥	-10778
锻	-10779
魅	-10780
孟	-10781
堪	-10782
穴	-10783
逸	-10784
凹	-10785
愉	-10786
蛮	-10787
悔	-10788
畜	-10789
披	-10790
斤	-10791
曹	-10792
丘	-10793
愤	-10794
溪	-10795
唤	-10796
阁	-10797
丸	-10798
熬	-10799
稿	-10800
弧	-10801
恼	-10802
橡	-10803
焰	-10804
狱	-10805
溜	-10806
碑	-10807
凑	-10808
煮	-10809
猎	-10810
棚	-10811
颌	-10812
泳	-10813
绵	-10814
傲	-10815
喘	-10816
押	-10817
芦	-10818
讼	-10819
役	-10820
歧	-10821
脖	-10822
吵	-10823
邪	-10824
勃	-10825
奴	-10826
拌	-10827
狭	-10828
巾	-10829
豫	-10830
匆	-10831
唉	-10832
肖	-10833
巷	-10834
廊	-10835
奠	-10836
嫩	-10837
枯	-10838
栓	-10839
脊	-10840
咳	-10841
寂	-10842
赌	-10843
咽	-10844
弗	-10845
侯	-10846
泌	-10847
胚	-10848
迭	-10849
拨	-10850
髓	-10851
冯	-10852
拱	-10853
溢	-10854
竭	-10855
屁	-10856
肢	-10857
撤	-10858
叙	-10859
睁	-10860
烘	-10861
陵	-10862
哒	-10863
洒	-10864
姻	-10865
竖	-10866
愣	-10867
漠	-10868
榜	-10869
丛	-10870
鸭	-10871
缴	-10872
跪	-10873
鹿	-10874
卸	-10875
钛	-10876
羞	-10877
廷	-10878
缠	-10879
拦	-10880
犬	-10881
蕴	-10882
贺	-10883
乾	-10884
剥	-10885
爵	-10886
腻	-10887
硕	-10888
莎	-10889
锡	-10890
葛	-10891
摊	-10892
鸿	-10893
寺	-10894
厦	-10895
崩	-10896
怖	-10897
耍	-10898
妃	-10899
弘	-10900
沫	-10901
薯	-10902
镀	-10903
坊	-10904
捉	-10905
蔽	-10906
屑	-10907
帕	-10908
溃	-10909
爽	-10910
朴	-10911
畸	-10912
缸	-10913
碧	-10914
摔	-10915
撕	-10916
卢	-10917
孢	-10918
铃	-10919
谦	-10920
亭	-10921
诞	-10922
儒	-10923
歇	-10924
冶	-10925
邓	-10926
贼	-10927
靶	-10928
喉	-10929
薪	-10930
椒	-10931
酱	-10932
寨	-10933
卜	-10934
峡	-10935
砸	-10936
萝	-10937
趁	-10938
阈	-10939
矢	-10940
逛	-10941
钾	-10942
帐	-10943
淮	-10944
猴	-10945
舆	-10946
弓	-10947
贤	-10948
衫	-10949
韵	-10950
颅	-10951
庙	-10952
陕	-10953
晴	-10954
栅	-10955
霜	-10956
挨	-10957
弦	-10958
惹	-10959
羟	-10960
锂	-10961
侦	-10962
墓	-10963
瞎	-10964
侍	-10965
浇	-10966
哀	-10967
贾	-10968
矮	-10969
绒	-10970
翠	-10971
闯	-10972
呜	-10973
渊	-10974
捏	-10975
歪	-10976
茫	-10977
呗	-10978
茎	-10979
菊	-10980
刮	-10981
吼	-10982
斥	-10983
渴	-10984
夕	-10985
柄	-10986
糙	-10987
芝	-10988
擎	-10989
锚	-10990
孝	-10991
匠	-10992
暑	-10993
潘	-10994
塌	-10995
岳	-10996
愁	-10997
桐	-10998
柏	-10999
袁	-11000
贪	-11001
镁	-11002
坪	-11003
痰	-11004
梗	-11005
籽	-11006
蓬	-11007
踩	-11008
丫	-11009
唑	-11010
尬	-11011
烫	-11012
钉	-11013
删	-11014
戚	-11015
矫	-11016
镍	-11017
鹏	-11018
寓	-11019
惩	-11020
梨	-11021
灶	-11022
糟	-11023
馨	-11024
斩	-11025
芬	-11026
韦	-11027
仲	-11028
舱	-11029
仗	-11030
巢	-11031
廓	-11032
戈	-11033
瑟	-11034
畏	-11035
畴	-11036
纲	-11037
抄	-11038
琳	-11039
帘	-11040
柯	-11041
秉	-11042
膝	-11043
袍	-11044
辱	-11045
醋	-11046
祸	-11047
舅	-11048
辖	-11049
宪	-11050
帆	-11051
肽	-11052
枚	-11053
踢	-11054
韧	-11055
捧	-11056
掏	-11057
枢	-11058
甩	-11059
粪	-11060
蜡	-11061
汪	-11062
鹅	-11063
尴	-11064
瞪	-11065
锤	-11066
椎	-11067
玲	-11068
卑	-11069
拐	-11070
枫	-11071
衔	-11072
逗	-11073
沃	-11074
锥	-11075
敦	-11076
辟	-11077
勉	-11078
闸	-11079
驰	-11080
伞	-11081
枕	-11082
艇	-11083
鞭	-11084
棵	-11085
穗	-11086
蒋	-11087
薛	-11088
赁	-11089
钥	-11090
簧	-11091
彰	-11092
歉	-11093
茄	-11094
裕	-11095
逢	-11096
妨	-11097
涛	-11098
瓣	-11099
胳	-11100
膊	-11101
僵	-11102
搏	-11103
趟	-11104
霞	-11105
凋	-11106
狐	-11107
蹲	-11108
雀	-11109
赴	-11110
侠	-11111
杏	-11112
砍	-11113
纬	-11114
呐	-11115
宙	-11116
牲	-11117
舟	-11118
堤	-11119
狮	-11120
浦	-11121
茂	-11122
焙	-11123
绑	-11124
颠	-11125
吟	-11126
愧	-11127
擅	-11128
沌	-11129
衷	-11130
媳	-11131
嫂	-11132
俯	-11133
厕	-11134
噢	-11135
泼	-11136
腊	-11137
隶	-11138
枣	-11139
棍	-11140
谅	-11141
妮	-11142
樱	-11143
祭	-11144
绣	-11145
宴	-11146
皂	-11147
鼎	-11148
兆	-11149
劫	-11150
盼	-11151
穆	-11152
茅	-11153
煎	-11154
躁	-11155
岂	-11156
垄	-11157
攀	-11158
毅	-11159
爪	-11160
刹	-11161
挽	-11162
翔	-11163
蔡	-11164
鹤	-11165
俺	-11166
垒	-11167
憾	-11168
沸	-11169
湘	-11170
姚	-11171
媚	-11172
敷	-11173
酬	-11174
慨	-11175
郊	-11176
卒	-11177
禽	-11178
躯	-11179
鳞	-11180
蝶	-11181
痴	-11182
窑	-11183
藤	-11184
喃	-11185
婷	-11186
葬	-11187
兹	-11188
哩	-11189
弊	-11190
铵	-11191
愚	-11192
捡	-11193
讶	-11194
咸	-11195
墩	-11196
匪	-11197
奢	-11198
杠	-11199
婉	-11200
痘	-11201
翅	-11202
誓	-11203
壶	-11204
扁	-11205
挠	-11206
虹	-11207
谊	-11208
铭	-11209
酿	-11210
叛	-11211
墅	-11212
腕	-11213
裴	-11214
诈	-11215
轿	-11216
峻	-11217
瘀	-11218
曝	-11219
栋	-11220
玫	-11221
娶	-11222
佐	-11223
瑶	-11224
粥	-11225
陀	-11226
寡	-11227
捞	-11228
瑰	-11229
卿	-11230
栗	-11231
薇	-11232
钩	-11233
逝	-11234
兑	-11235
募	-11236
沼	-11237
逊	-11238
骄	-11239
仆	-11240
兜	-11241
杉	-11242
煌	-11243
嘲	-11244
淑	-11245
眸	-11246
笨	-11247
咐	-11248
咪	-11249
沾	-11250
涤	-11251
澡	-11252
秆	-11253
葱	-11254
嘱	-11255
颁	-11256
掀	-11257
粹	-11258
胰	-11259
宰	-11260
涯	-11261
滥	-11262
蹈	-11263
敞	-11264
钼	-11265
鹰	-11266
龟	-11267
捐	-11268
刃	-11269
蠢	-11270
褐	-11271
轧	-11272
巩	-11273
帖	-11274
怡	-11275
熙	-11276
痒	-11277
砌	-11278
泻	-11279
磺	-11280
蜗	-11281
厢	-11282
吡	-11283
咕	-11284
彭	-11285
橙	-11286
罕	-11287
絮	-11288
肆	-11289
赠	-11290
揉	-11291
熏	-11292
聋	-11293
吾	-11294
茨	-11295
萍	-11296
菇	-11297
诶	-11298
钓	-11299
绞	-11300
耻	-11301
莹	-11302
蔓	-11303
咒	-11304
庸	-11305
灿	-11306
吩	-11307
榴	-11308
颊	-11309
啤	-11310
噬	-11311
屠	-11312
蚁	-11313
魄	-11314
匙	-11315
蔗	-11316
贩	-11317
饥	-11318
嗓	-11319
嗽	-11320
垢	-11321
瞒	-11322
雇	-11323
倦	-11324
坤	-11325
沐	-11326
簇	-11327
妒	-11328
弈	-11329
秸	-11330
趴	-11331
驳	-11332
哄	-11333
殷	-11334
毯	-11335
淤	-11336
冥	-11337
掠	-11338
疹	-11339
菩	-11340
赐	-11341
锆	-11342
溯	-11343
琼	-11344
窃	-11345
肋	-11346
裸	-11347
叮	-11348
哗	-11349
涩	-11350
郡	-11351
卦	-11352
哑	-11353
亩	-11354
蚊	-11355
咧	-11356
啧	-11357
遣	-11358
锰	-11359
孵	-11360
挪	-11361
浊	-11362
侣	-11363
崖	-11364
拘	-11365
翰	-11366
饶	-11367
澄	-11368
虐	-11369
喔	-11370
喻	-11371
宵	-11372
搁	-11373
醚	-11374
雌	-11375
嘟	-11376
甫	-11377
柠	-11378
汰	-11379
棕	-11380
鄂	-11381
顽	-11382
粤	-11383
坠	-11384
熵	-11385
碌	-11386
伺	-11387
嫉	-11388
牺	-11389
荆	-11390
嚼	-11391
坟	-11392
懈	-11393
萎	-11394
昔	-11395
翘	-11396
卤	-11397
屡	-11398
琐	-11399
凰	-11400
啶	-11401
姬	-11402
崔	-11403
莞	-11404
蹭	-11405
凳	-11406
捆	-11407
昭	-11408
檬	-11409
汀	-11410
僧	-11411
劈	-11412
巫	-11413
潭	-11414
甸	-11415
冀	-11416
哮	-11417
浏	-11418
淹	-11419
潇	-11420
贞	-11421
湍	-11422
渍	-11423
烁	-11424
喇	-11425
槛	-11426
炫	-11427
绸	-11428
蕾	-11429
仑	-11430
陡	-11431
冈	-11432
瘫	-11433
篷	-11434
闺	-11435
侨	-11436
啸	-11437
寝	-11438
怔	-11439
寞	-11440
朕	-11441
栖	-11442
泣	-11443
眯	-11444
睿	-11445
祈	-11446
纶	-11447
蒜	-11448
嘎	-11449
宛	-11450
癜	-11451
遂	-11452
梭	-11453
瞻	-11454
雁	-11455
婶	-11456
捂	-11457
豹	-11458
倘	-11459
巅	-11460
溴	-11461
夷	-11462
尹	-11463
睐	-11464
溅	-11465
眨	-11466
蛛	-11467
吁	-11468
斌	-11469
焚	-11470
耸	-11471
坎	-11472
拽	-11473
棺	-11474
椭	-11475
稚	-11476
佣	-11477
恳	-11478
瞅	-11479
蹄	-11480
驴	-11481
勋	-11482
憋	-11483
煞	-11484
讽	-11485
陛	-11486
靖	-11487
卉	-11488
挫	-11489
歹	-11490
氰	-11491
佬	-11492
烛	-11493
珊	-11494
饺	-11495
傍	-11496
冤	-11497
哨	-11498
嗜	-11499
谣	-11500
栈	-11501
瞄	-11502
菱	-11503
蹦	-11504
乞	-11505
恍	-11506
剔	-11507
扛	-11508
拢	-11509
诡	-11510
贿	-11511
钦	-11512
嗨	-11513
奸	-11514
旭	-11515
洼	-11516
祁	-11517
脓	-11518
鲍	-11519
妄	-11520
磊	-11521
聂	-11522
谎	-11523
鄙	-11524
琪	-11525
腥	-11526
尧	-11527
沧	-11528
烹	-11529
眩	-11530
缔	-11531
驼	-11532
伽	-11533
娅	-11534
崛	-11535
惟	-11536
撼	-11537
焕	-11538
缕	-11539
铬	-11540
阮	-11541
吨	-11542
紊	-11543
膛	-11544
葫	-11545
亨	-11546
嚷	-11547
棘	-11548
棱	-11549
窦	-11550
筝	-11551
艘	-11552
麟	-11553
洽	-11554
羧	-11555
蚕	-11556
诵	-11557
厘	-11558
喧	-11559
姥	-11560
盏	-11561
磕	-11562
蒲	-11563
撰	-11564
梢	-11565
骆	-11566
叨	-11567
廖	-11568
辊	-11569
凄	-11570
湛	-11571
牡	-11572
瘾	-11573
耿	-11574
葵	-11575
饵	-11576
旬	-11577
睹	-11578
蠕	-11579
亟	-11580
怯	-11581
橘	-11582
耽	-11583
锯	-11584
硼	-11585
窜	-11586
绽	-11587
缚	-11588
吏	-11589
翁	-11590
呦	-11591
笋	-11592
蛙	-11593
呃	-11594
啪	-11595
楠	-11596
涅	-11597
诠	-11598
鑫	-11599
钨	-11600
阱	-11601
揽	-11602
沪	-11603
灼	-11604
稠	-11605
腈	-11606
鲤	-11607
搂	-11608
渤	-11609
秃	-11610
褶	-11611
遏	-11612
垦	-11613
岔	-11614
摧	-11615
蜀	-11616
钝	-11617
祛	-11618
禀	-11619
筷	-11620
佑	-11621
溉	-11622
舵	-11623
橱	-11624
禄	-11625
袜	-11626
镖	-11627
昧	-11628
祷	-11629
邵	-11630
妊	-11631
彬	-11632
桨	-11633
狸	-11634
蓉	-11635
谭	-11636
哺	-11637
悍	-11638
撩	-11639
昊	-11640
汛	-11641
胱	-11642
铲	-11643
灸	-11644
酪	-11645
钧	-11646
咔	-11647
瑜	-11648
馏	-11649
兮	-11650
呕	-11651
噻	-11652
娠	-11653
疮	-11654
窥	-11655
芸	-11656
跋	-11657
吖	-11658
弛	-11659
拧	-11660
槐	-11661
礁	-11662
禅	-11663
酥	-11664
霾	-11665
鞍	-11666
攒	-11667
窟	-11668
陋	-11669
倚	-11670
娟	-11671
帧	-11672
榄	-11673
糯	-11674
贬	-11675
辜	-11676
辫	-11677
妞	-11678
揣	-11679
淫	-11680
夯	-11681
桔	-11682
琢	-11683
躬	-11684
鸦	-11685
冗	-11686
噗	-11687
幔	-11688
彦	-11689
澜	-11690
硒	-11691
缀	-11692
龈	-11693
嗦	-11694
尉	-11695
帜	-11696
扒	-11697
睫	-11698
碘	-11699
秧	-11700
莓	-11701
镶	-11702
黔	-11703
胤	-11704
詹	-11705
「	-11706
滇	-11707
绅	-11708
苔	-11709
逮	-11710
骚	-11711
【	-11712
倩	-11713
啃	-11714
喀	-11715
惕	-11716
蕉	-11717
钴	-11718
掐	-11719
撇	-11720
砾	-11721
蚂	-11722
诀	-11723
霄	-11724
媛	-11725
猝	-11726
疡	-11727
笛	-11728
舔	-11729
铂	-11730
靴	-11731
戊	-11732
瘟	-11733
腮	-11734
芋	-11735
黛	-11736
凿	-11737
吱	-11738
榨	-11739
碾	-11740
肘	-11741
膳	-11742
衙	-11743
屯	-11744
渝	-11745
匿	-11746
茬	-11747
谜	-11748
郝	-11749
叭	-11750
嗅	-11751
嗷	-11752
芙	-11753
闽	-11754
俞	-11755
垮	-11756
惶	-11757
熄	-11758
狄	-11759
绎	-11760
蝎	-11761
侈	-11762
喵	-11763
嫣	-11764
橄	-11765
疤	-11766
瞥	-11767
缅	-11768
唧	-11769
囚	-11770
幂	-11771
颂	-11772
馒	-11773
岚	-11774
惫	-11775
拂	-11776
仕	-11777
嚣	-11778
掷	-11779
搓	-11780
旷	-11781
竿	-11782
俏	-11783
啉	-11784
晌	-11785
柑	-11786
甄	-11787
脐	-11788
苇	-11789
茵	-11790
拯	-11791
揪	-11792
涝	-11793
豁	-11794
邱	-11795
垩	-11796
宸	-11797
铀	-11798
厄	-11799
啮	-11800
坳	-11801
汲	-11802
珀	-11803
绷	-11804
邑	-11805
钮	-11806
阎	-11807
骼	-11808
」	-11809
唾	-11810
拭	-11811
斋	-11812
杞	-11813
滔	-11814
稽	-11815
糜	-11816
鸽	-11817
龚	-11818
乒	-11819
咙	-11820
斧	-11821
沦	-11822
碟	-11823
秤	-11824
诧	-11825
捣	-11826
汹	-11827
瞳	-11828
禾	-11829
腑	-11830
襄	-11831
侏	-11832
崭	-11833
拎	-11834
挚	-11835
撸	-11836
炕	-11837
蝴	-11838
襟	-11839
龋	-11840
】	-11841
嘶	-11842
壹	-11843
犁	-11844
痹	-11845
脲	-11846
苛	-11847
荫	-11848
贱	-11849
雍	-11850
伶	-11851
梓	-11852
樊	-11853
眶	-11854
蜘	-11855
妾	-11856
杖	-11857
沛	-11858
淇	-11859
疱	-11860
扳	-11861
晗	-11862
曰	-11863
虞	-11864
屎	-11865
幢	-11866
沁	-11867
褪	-11868
驯	-11869
勿	-11870
厥	-11871
哧	-11872
汞	-11873
漓	-11874
翩	-11875
茹	-11876
逾	-11877
亢	-11878
俘	-11879
僻	-11880
冉	-11881
嗣	-11882
噩	-11883
柚	-11884
淌	-11885
琦	-11886
赣	-11887
枸	-11888
柿	-11889
榆	-11890
窍	-11891
茜	-11892
侄	-11893
孜	-11894
抒	-11895
芪	-11896
莽	-11897
咀	-11898
揍	-11899
棠	-11900
淬	-11901
苟	-11902
裔	-11903
豚	-11904
鞘	-11905
颞	-11906
骇	-11907
俭	-11908
咚	-11909
噜	-11910
庐	-11911
扦	-11912
钞	-11913
雯	-11914
佟	-11915
奕	-11916
慑	-11917
朽	-11918
桁	-11919
磅	-11920
翡	-11921
倪	-11922
勺	-11923
彪	-11924
樟	-11925
肴	-11926
脯	-11927
嘘	-11928
玺	-11929
芹	-11930
哆	-11931
嗡	-11932
噶	-11933
懵	-11934
戳	-11935
暮	-11936
淳	-11937
澈	-11938
眷	-11939
荔	-11940
觅	-11941
譬	-11942
辙	-11943
馅	-11944
昼	-11945
榻	-11946
瞩	-11947
丐	-11948
奎	-11949
屿	-11950
隋	-11951
霆	-11952
姗	-11953
怠	-11954
枉	-11955
芜	-11956
蝇	-11957
迄	-11958
邢	-11959
镉	-11960
靡	-11961
刨	-11962
厮	-11963
娥	-11964
曦	-11965
洱	-11966
狡	-11967
蘑	-11968
钒	-11969
庚	-11970
晾	-11971
疚	-11972
盔	-11973
砷	-11974
筱	-11975
聆	-11976
釉	-11977
馋	-11978
坯	-11979
崎	-11980
沂	-11981
绊	-11982
臀	-11983
裳	-11984
铰	-11985
乓	-11986
兢	-11987
堰	-11988
朦	-11989
炖	-11990
犀	-11991
靓	-11992
饪	-11993
嘤	-11994
巍	-11995
拣	-11996
捅	-11997
焉	-11998
睾	-11999
菠	-12000
袄	-12001
酌	-12002
陨	-12003
雏	-12004
霖	-12005
鞠	-12006
丞	-12007
侮	-12008
淆	-12009
窒	-12010
赎	-12011
趾	-12012
僚	-12013
怂	-12014
暨	-12015
猩	-12016
瑾	-12017
畔	-12018
苑	-12019
剃	-12020
睦	-12021
胧	-12022
麒	-12023
坞	-12024
嬉	-12025
孽	-12026
涕	-12027
珑	-12028
甾	-12029
稼	-12030
肛	-12031
蒿	-12032
蕊	-12033
黯	-12034
寥	-12035
庇	-12036
挟	-12037
暇	-12038
煅	-12039
竣	-12040
嘞	-12041
惚	-12042
桉	-12043
毙	-12044
汕	-12045
猕	-12046
蔑	-12047
蛾	-12048
鲫	-12049
喽	-12050
婢	-12051
愕	-12052
檐	-12053
琉	-12054
砰	-12055
蔚	-12056
邹	-12057
晦	-12058
汐	-12059
瀑	-12060
琅	-12061
绰	-12062
肇	-12063
驭	-12064
乍	-12065
叽	-12066
檀	-12067
汝	-12068
迦	-12069
钳	-12070
呛	-12071
嚎	-12072
弩	-12073
扼	-12074
晟	-12075
梵	-12076
皓	-12077
矣	-12078
粽	-12079
绚	-12080
翱	-12081
腌	-12082
萘	-12083
葩	-12084
鳖	-12085
侃	-12086
匣	-12087
匮	-12088
悖	-12089
拙	-12090
溺	-12091
魁	-12092
崽	-12093
毡	-12094
疙	-12095
禹	-12096
窘	-12097
锣	-12098
匈	-12099
啰	-12100
堕	-12101
墟	-12102
屉	-12103
慷	-12104
拇	-12105
栩	-12106
椰	-12107
瑕	-12108
瘩	-12109
诏	-12110
垛	-12111
楷	-12112
汶	-12113
烙	-12114
苞	-12115
蜕	-12116
嗪	-12117
妓	-12118
峭	-12119
憎	-12120
梧	-12121
炳	-12122
窖	-12123
芥	-12124
虏	-12125
觑	-12126
讳	-12127
來	-12128
娴	-12129
寇	-12130
彤	-12131
悸	-12132
淼	-12133
疵	-12134
稣	-12135
荞	-12136
诫	-12137
逍	-12138
遁	-12139
叩	-12140
恺	-12141
憨	-12142
拴	-12143
箔	-12144
轭	-12145
辕	-12146
骏	-12147
凛	-12148
啼	-12149
嘀	-12150
朔	-12151
渺	-12152
熠	-12153
猿	-12154
皖	-12155
糠	-12156
绢	-12157
踱	-12158
婿	-12159
峨	-12160
桦	-12161
漾	-12162
磋	-12163
祀	-12164
菁	-12165
藩	-12166
螃	-12167
诅	-12168
兀	-12169
姊	-12170
抉	-12171
抿	-12172
撮	-12173
斟	-12174
曙	-12175
濒	-12176
粕	-12177
蹿	-12178
峥	-12179
惮	-12180
抠	-12181
捍	-12182
晖	-12183
沮	-12184
漱	-12185
砧	-12186
祟	-12187
粱	-12188
羹	-12189
藉	-12190
诃	-12191
蹬	-12192
阜	-12193
骡	-12194
娩	-12195
惭	-12196
珂	-12197
迸	-12198
馀	-12199
驿	-12200
咆	-12201
嬷	-12202
峙	-12203
悯	-12204
挛	-12205
搐	-12206
攥	-12207
狞	-12208
缪	-12209
羌	-12210
芭	-12211
茸	-12212
颚	-12213
馍	-12214
鸢	-12215
咦	-12216
坍	-12217
妍	-12218
婪	-12219
惰	-12220
瀚	-12221
瑚	-12222
痊	-12223
筐	-12224
蕨	-12225
螯	-12226
谬	-12227
鳍	-12228
炯	-12229
牟	-12230
荀	-12231
蚓	-12232
衅	-12233
顷	-12234
剿	-12235
岐	-12236
瞟	-12237
袱	-12238
裘	-12239
髦	-12240
嵩	-12241
帷	-12242
徘	-12243
恕	-12244
恪	-12245
惬	-12246
煲	-12247
穹	-12248
缭	-12249
羁	-12250
腭	-12251
苄	-12252
虔	-12253
釜	-12254
颓	-12255
鳗	-12256
呸	-12257
徊	-12258
戮	-12259
狈	-12260
痣	-12261
篱	-12262
萱	-12263
谴	-12264
邃	-12265
铠	-12266
雹	-12267
唠	-12268
嗒	-12269
忏	-12270
怅	-12271
昕	-12272
榈	-12273
炽	-12274
苓	-12275
茧	-12276
诲	-12277
踝	-12278
踹	-12279
吭	-12280
嫔	-12281
懦	-12282
曳	-12283
獒	-12284
粑	-12285
缎	-12286
韭	-12287
咏	-12288
彝	-12289
拮	-12290
擒	-12291
暧	-12292
氓	-12293
眺	-12294
笙	-12295
讪	-12296
铣	-12297
韶	-12298
呻	-12299
晏	-12300
沓	-12301
玥	-12302
疣	-12303
痉	-12304
祠	-12305
舜	-12306
讥	-12307
鲸	-12308
庵	-12309
懊	-12310
泸	-12311
漉	-12312
炙	-12313
炬	-12314
煽	-12315
狩	-12316
秽	-12317
酐	-12318
鲈	-12319
鳄	-12320
侥	-12321
徙	-12322
捻	-12323
楞	-12324
淄	-12325
渭	-12326
玮	-12327
箍	-12328
篡	-12329
荟	-12330
藜	-12331
蘸	-12332
蜷	-12333
锑	-12334
镰	-12335
佼	-12336
唬	-12337
喹	-12338
圃	-12339
拷	-12340
撬	-12341
毗	-12342
烨	-12343
玖	-12344
睬	-12345
蝉	-12346
褂	-12347
冕	-12348
岑	-12349
栀	-12350
酋	-12351
鹃	-12352
叼	-12353
埠	-12354
屹	-12355
庶	-12356
搀	-12357
毋	-12358
渲	-12359
潍	-12360
璧	-12361
笃	-12362
荚	-12363
蛤	-12364
褥	-12365
讷	-12366
跄	-12367
踉	-12368
鄱	-12369
麓	-12370
倔	-12371
哌	-12372
悚	-12373
捎	-12374
槟	-12375
猥	-12376
琥	-12377
粟	-12378
纂	-12379
肟	-12380
肮	-12381
藕	-12382
蛟	-12383
袅	-12384
忡	-12385
恤	-12386
惦	-12387
戟	-12388
斐	-12389
澎	-12390
熨	-12391
羔	-12392
邸	-12393
黝	-12394
匕	-12395
垣	-12396
娣	-12397
忐	-12398
忑	-12399
戾	-12400
桓	-12401
炊	-12402
狰	-12403
瓢	-12404
砺	-12405
腋	-12406
萤	-12407
螨	-12408
诛	-12409
赘	-12410
邯	-12411
骸	-12412
鹊	-12413
倭	-12414
剁	-12415
喳	-12416
囤	-12417
娄	-12418
嫡	-12419
殆	-12420
沽	-12421
涎	-12422
潢	-12423
琛	-12424
甭	-12425
瘸	-12426
簿	-12427
肼	-12428
茉	-12429
蕙	-12430
蚌	-12431
逞	-12432
钡	-12433
铮	-12434
锭	-12435
呋	-12436
怼	-12437
戎	-12438
捶	-12439
漳	-12440
璐	-12441
癖	-12442
蓦	-12443
诩	-12444
跺	-12445
驹	-12446
亥	-12447
嗤	-12448
拗	-12449
撂	-12450
攘	-12451
泓	-12452
漩	-12453
矽	-12454
荼	-12455
赂	-12456
铆	-12457
隘	-12458
壕	-12459
摒	-12460
楔	-12461
殴	-12462
湃	-12463
犊	-12464
瘙	-12465
簸	-12466
蓿	-12467
闵	-12468
飙	-12469
鬓	-12470
鹦	-12471
吆	-12472
呤	-12473
囱	-12474
坨	-12475
宦	-12476
悴	-12477
搪	-12478
晤	-12479
榕	-12480
狙	-12481
璀	-12482
瘘	-12483
眈	-12484
砚	-12485
祉	-12486
苜	-12487
赦	-12488
钵	-12489
镑	-12490
镯	-12491
靳	-12492
唆	-12493
嚓	-12494
圭	-12495
夭	-12496
峪	-12497
掰	-12498
槲	-12499
璨	-12500
矶	-12501
绮	-12502
芩	-12503
藓	-12504
谍	-12505
貂	-12506
鳃	-12507
鳝	-12508
吝	-12509
坂	-12510
埔	-12511
憔	-12512
擂	-12513
歼	-12514
璇	-12515
筏	-12516
羯	-12517
臻	-12518
谟	-12519
跤	-12520
陇	-12521
骷	-12522
髅	-12523
鲨	-12524
妩	-12525
忖	-12526
恬	-12527
憩	-12528
炁	-12529
痢	-12530
祯	-12531
羲	-12532
芷	-12533
蚯	-12534
赃	-12535
嘧	-12536
憬	-12537
椿	-12538
滕	-12539
焖	-12540
煜	-12541
蝗	-12542
蟒	-12543
骁	-12544
匝	-12545
妳	-12546
憧	-12547
摹	-12548
撵	-12549
桅	-12550
沒	-12551
牦	-12552
甙	-12553
盎	-12554
礴	-12555
绯	-12556
缉	-12557
缤	-12558
羰	-12559
舷	-12560
茯	-12561
藿	-12562
蛀	-12563
霎	-12564
颐	-12565
倏	-12566
刁	-12567
噔	-12568
弼	-12569
斛	-12570
昀	-12571
楂	-12572
潺	-12573
璋	-12574
皙	-12575
翎	-12576
蹙	-12577
鹉	-12578
俨	-12579
坷	-12580
奄	-12581
惋	-12582
渎	-12583
潼	-12584
痔	-12585
矸	-12586
萜	-12587
螂	-12588
踊	-12589
辗	-12590
鸥	-12591
侗	-12592
哉	-12593
哝	-12594
哽	-12595
忱	-12596
懿	-12597
暄	-12598
栎	-12599
涟	-12600
痪	-12601
禧	-12602
耘	-12603
貅	-12604
貔	-12605
钯	-12606
阙	-12607
驮	-12608
鲶	-12609
鸾	-12610
壑	-12611
宕	-12612
惺	-12613
焓	-12614
猾	-12615
蛊	-12616
迥	-12617
醺	-12618
霓	-12619
卟	-12620
彷	-12621
抡	-12622
痞	-12623
砥	-12624
窿	-12625
缰	-12626
荤	-12627
莺	-12628
葆	-12629
蔷	-12630
蔼	-12631
薰	-12632
蚤	-12633
蝠	-12634
谛	-12635
遐	-12636
偎	-12637
呱	-12638
啾	-12639
嘈	-12640
幡	-12641
掖	-12642
柬	-12643
氩	-12644
涧	-12645
炔	-12646
烊	-12647
祺	-12648
禛	-12649
蛎	-12650
郸	-12651
酝	-12652
铛	-12653
巯	-12654
怦	-12655
掂	-12656
敝	-12657
泗	-12658
燎	-12659
矜	-12660
罡	-12661
耙	-12662
胄	-12663
蔻	-12664
蝙	-12665
迂	-12666
遴	-12667
酣	-12668
鲢	-12669
麾	-12670
匡	-12671
吒	-12672
咂	-12673
咎	-12674
嘌	-12675
噼	-12676
囔	-12677
囧	-12678
圩	-12679
寰	-12680
惆	-12681
昵	-12682
烬	-12683
烽	-12684
皿	-12685
睑	-12686
箓	-12687
绡	-12688
腱	-12689
蓟	-12690
诬	-12691
谙	-12692
钎	-12693
镧	-12694
阑	-12695
韬	-12696
鲆	-12697
鳌	-12698
咲	-12699
啵	-12700
嘚	-12701
堑	-12702
奚	-12703
拈	-12704
氡	-12705
泞	-12706
浚	-12707
瘠	-12708
癣	-12709
砜	-12710
窸	-12711
绥	-12712
翊	-12713
芍	-12714
诣	-12715
贻	-12716
遛	-12717
阪	-12718
颡	-12719
饨	-12720
馄	-12721
偌	-12722
傀	-12723
匍	-12724
嗔	-12725
悻	-12726
慵	-12727
楸	-12728
榔	-12729
涣	-12730
漪	-12731
珞	-12732
甥	-12733
瞰	-12734
矗	-12735
磐	-12736
箩	-12737
粳	-12738
胍	-12739
膦	-12740
芎	-12741
蜒	-12742
蟑	-12743
辄	-12744
铋	-12745
铎	-12746
铟	-12747
锄	-12748
鳅	-12749
黍	-12750
冢	-12751
捋	-12752
斓	-12753
涮	-12754
湮	-12755
瘪	-12756
瞌	-12757
窣	-12758
茁	-12759
蛭	-12760
谕	-12761
鬟	-12762
鸠	-12763
鸯	-12764
鸳	-12765
儡	-12766
唔	-12767
姝	-12768
寅	-12769
岖	-12770
岱	-12771
挎	-12772
殉	-12773
殡	-12774
汾	-12775
沱	-12776
淅	-12777
瀛	-12778
痂	-12779
箕	-12780
绫	-12781
钰	-12782
伎	-12783
劾	-12784
卯	-12785
啬	-12786
嗖	-12787
姣	-12788
孚	-12789
忿	-12790
恙	-12791
熹	-12792
猖	-12793
笺	-12794
翟	-12795
苣	-12796
觞	-12797
谧	-12798
跷	-12799
铐	-12800
骰	-12801
髋	-12802
俐	-12803
傣	-12804
叁	-12805
奂	-12806
寐	-12807
忒	-12808
摞	-12809
撅	-12810
氚	-12811
濮	-12812
炜	-12813
珅	-12814
琰	-12815
瞭	-12816
篓	-12817
茗	-12818
蜿	-12819
袒	-12820
跻	-12821
钗	-12822
铈	-12823
铿	-12824
隽	-12825
鳜	-12826
仄	-12827
俑	-12828
匾	-12829
娼	-12830
孰	-12831
岷	-12832
峦	-12833
忻	-12834
敖	-12835
枇	-12836
粼	-12837
胥	-12838
萦	-12839
蔫	-12840
赈	-12841
邬	-12842
锵	-12843
闫	-12844
隅	-12845
颧	-12846
髁	-12847
鱿	-12848
冽	-12849
叱	-12850
吠	-12851
壬	-12852
抨	-12853
搡	-12854
攸	-12855
旳	-12856
杷	-12857
毓	-12858
沅	-12859
碲	-12860
缨	-12861
翌	-12862
胯	-12863
蟾	-12864
躇	-12865
钣	-12866
铌	-12867
飒	-12868
饷	-12869
匐	-12870
咄	-12871
婧	-12872
媲	-12873
崴	-12874
幺	-12875
扈	-12876
栾	-12877
桡	-12878
榷	-12879
浔	-12880
琶	-12881
甬	-12882
癸	-12883
睽	-12884
矾	-12885
稷	-12886
笠	-12887
羚	-12888
芊	-12889
茴	-12890
莆	-12891
褚	-12892
谏	-12893
谑	-12894
豌	-12895
贰	-12896
酉	-12897
髻	-12898
俸	-12899
吮	-12900
啕	-12901
娆	-12902
孪	-12903
帚	-12904
徨	-12905
拄	-12906
掇	-12907
浒	-12908
皑	-12909
瞿	-12910
苋	-12911
莅	-12912
蒽	-12913
踌	-12914
锗	-12915
锢	-12916
龇	-12917
丕	-12918
倌	-12919
倜	-12920
啄	-12921
喋	-12922
嗝	-12923
堇	-12924
惴	-12925
搔	-12926
昱	-12927
札	-12928
枳	-12929
桢	-12930
榉	-12931
灏	-12932
璞	-12933
瓯	-12934
箫	-12935
篝	-12936
纫	-12937
腩	-12938
莘	-12939
诋	-12940
跆	-12941
踞	-12942
蹋	-12943
蹑	-12944
逅	-12945
邂	-12946
邋	-12947
飑	-12948
鳙	-12949
亵	-12950
吲	-12951
咣	-12952
哚	-12953
噁	-12954
塾	-12955
婊	-12956
婕	-12957
恃	-12958
悼	-12959
扉	-12960
掣	-12961
枷	-12962
梆	-12963
榫	-12964
毂	-12965
獠	-12966
疟	-12967
碉	-12968
竺	-12969
簌	-12970
簪	-12971
籼	-12972
膘	-12973
茱	-12974
荠	-12975
蚝	-12976
衢	-12977
褒	-12978
踮	-12979
钊	-12980
鳢	-12981
傩	-12982
剐	-12983
唰	-12984
嗑	-12985
噎	-12986
夙	-12987
娓	-12988
嬗	-12989
挞	-12990
揖	-12991
揩	-12992
摁	-12993
於	-12994
殃	-12995
氦	-12996
泾	-12997
涓	-12998
濡	-12999
焱	-13000
煦	-13001
犷	-13002
珏	-13003
瓮	-13004
畦	-13005
皋	-13006
臃	-13007
荩	-13008
莴	-13009
萼	-13010
蛹	-13011
讹	-13012
蹊	-13013
辍	-13014
辘	-13015
铕	-13016
镂	-13017
雉	-13018
鹭	-13019
偻	-13020
啜	-13021
埂	-13022
婺	-13023
恿	-13024
桀	-13025
涸	-13026
漕	-13027
玷	-13028
琨	-13029
瑙	-13030
篆	-13031
胫	-13032
莠	-13033
萸	-13034
蘖	-13035
蜓	-13036
蜻	-13037
袂	-13038
裱	-13039
谆	-13040
谩	-13041
酞	-13042
钏	-13043
锉	-13044
骋	-13045
鲟	-13046
佘	-13047
佰	-13048
偕	-13049
厩	-13050
咿	-13051
哔	-13052
啷	-13053
峒	-13054
恣	-13055
愫	-13056
挝	-13057
汩	-13058
湄	-13059
澹	-13060
琵	-13061
纭	-13062
缈	-13063
缥	-13064
臊	-13065
蓓	-13066
虬	-13067
蚱	-13068
蛰	-13069
衩	-13070
跚	-13071
蹒	-13072
霰	-13073
鞅	-13074
鞑	-13075
髯	-13076
魇	-13077
鳎	-13078
麝	-13079
佝	-13080
俪	-13081
勐	-13082
徇	-13083
惘	-13084
掸	-13085
擞	-13086
斡	-13087
泠	-13088
牒	-13089
疸	-13090
痿	-13091
缜	-13092
肱	-13093
胭	-13094
菏	-13095
虱	-13096
裨	-13097
诽	-13098
跖	-13099
蹴	-13100
迢	-13101
遢	-13102
镓	-13103
鬃	-13104
咫	-13105
喏	-13106
娑	-13107
嫦	-13108
弋	-13109
枭	-13110
泷	-13111
烩	-13112
瘢	-13113
盅	-13114
碴	-13115
笆	-13116
筠	-13117
绛	-13118
翳	-13119
臼	-13120
舀	-13121
芮	-13122
蕃	-13123
蚜	-13124
蚩	-13125
蛏	-13126
谤	-13127
赝	-13128
赡	-13129
铍	-13130
鞣	-13131
飓	-13132
飕	-13133
鹞	-13134
鼾	-13135
嘭	-13136
嚏	-13137
嫖	-13138
幌	-13139
戛	-13140
攫	-13141
棣	-13142
榛	-13143
泯	-13144
淖	-13145
溞	-13146
潦	-13147
瑀	-13148
瞠	-13149
祂	-13150
籁	-13151
绺	-13152
耷	-13153
腆	-13154
荨	-13155
蜇	-13156
蜈	-13157
袤	-13158
迩	-13159
镗	-13160
闩	-13161
阂	-13162
阖	-13163
雎	-13164
伫	-13165
刈	-13166
嘹	-13167
圪	-13168
嵴	-13169
挲	-13170
晔	-13171
曜	-13172
渥	-13173
溥	-13174
濯	-13175
町	-13176
疽	-13177
痤	-13178
礽	-13179
罂	-13180
罔	-13181
膈	-13182
蛐	-13183
裆	-13184
踵	-13185
郯	-13186
鄞	-13187
霏	-13188
饯	-13189
驸	-13190
鲕	-13191
鲷	-13192
亘	-13193
仨	-13194
偃	-13195
卞	-13196
噤	-13197
埕	-13198
嬴	-13199
孺	-13200
巳	-13201
帼	-13202
捺	-13203
掳	-13204
擀	-13205
敕	-13206
栉	-13207
橇	-13208
滦	-13209
潴	-13210
瑛	-13211
硐	-13212
禩	-13213
纣	-13214
纨	-13215
绉	-13216
缮	-13217
苎	-13218
莼	-13219
菖	-13220
蛆	-13221
跛	-13222
锹	-13223
镐	-13224
颔	-13225
馁	-13226
麸	-13227
黉	-13228
〉	-13229
仃	-13230
叟	-13231
哐	-13232
唏	-13233
垠	-13234
妲	-13235
娲	-13236
嵘	-13237
帛	-13238
懑	-13239
戬	-13240
柒	-13241
潞	-13242
濠	-13243
猗	-13244
獗	-13245
珈	-13246
禺	-13247
糅	-13248
腼	-13249
茭	-13250
菀	-13251
蒡	-13252
蔺	-13253
蚣	-13254
蜚	-13255
褛	-13256
覃	-13257
诘	-13258
赭	-13259
酊	-13260
醌	-13261
钕	-13262
锨	-13263
锶	-13264
霹	-13265
颏	-13266
骅	-13267
鹄	-13268
麽	-13269
亳	-13270
佯	-13271
刍	-13272
呲	-13273
喆	-13274
噘	-13275
囿	-13276
墉	-13277
墒	-13278
彧	-13279
怏	-13280
戌	-13281
杈	-13282
梏	-13283
沏	-13284
洵	-13285
猬	-13286
獭	-13287
璜	-13288
瘴	-13289
皎	-13290
缇	-13291
腓	-13292
芡	-13293
葚	-13294
褴	-13295
诟	-13296
谚	-13297
豺	-13298
邺	-13299
雳	-13300
靛	-13301
鲌	-13302
黠	-13303
兖	-13304
啐	-13305
噌	-13306
坩	-13307
埚	-13308
塬	-13309
崂	-13310
掬	-13311
槌	-13312
槭	-13313
浣	-13314
滁	-13315
狒	-13316
玑	-13317
琊	-13318
癞	-13319
盂	-13320
筵	-13321
篦	-13322
绔	-13323
胨	-13324
胴	-13325
膺	-13326
觊	-13327
觎	-13328
讴	-13329
贲	-13330
趔	-13331
轶	-13332
锲	-13333
阉	-13334
骜	-13335
鲵	-13336
龊	-13337
龌	-13338
侬	-13339
刽	-13340
剌	-13341
剜	-13342
呷	-13343
喙	-13344
垭	-13345
弭	-13346
戍	-13347
旌	-13348
曩	-13349
杵	-13350
桎	-13351
棂	-13352
楣	-13353
榧	-13354
榭	-13355
槿	-13356
檗	-13357
殇	-13358
氅	-13359
濑	-13360
珩	-13361
琬	-13362
稔	-13363
箴	-13364
臧	-13365
臾	-13366
艜	-13367
苕	-13368
苻	-13369
蚪	-13370
蚶	-13371
蝌	-13372
螟	-13373
蟠	-13374
裟	-13375
褓	-13376
襁	-13377
谄	-13378
谲	-13379
赊	-13380
趄	-13381
轲	-13382
郴	-13383
钇	-13384
镣	-13385
隍	-13386
霁	-13387
颙	-13388
骶	-13389
魈	-13390
鲑	-13391
鲛	-13392
鼐	-13393
〈	-13394
咝	-13395
喱	-13396
嗥	-13397
嗬	-13398
嗳	-13399
垸	-13400
壅	-13401
奘	-13402
婀	-13403
婵	-13404
孬	-13405
徕	-13406
昙	-13407
枞	-13408
汊	-13409
沣	-13410
渚	-13411
溧	-13412
焯	-13413
犟	-13414
瓴	-13415
痨	-13416
皈	-13417
睨	-13418
砒	-13419
碚	-13420
秭	-13421
窈	-13422
纾	-13423
绦	-13424
罹	-13425
耆	-13426
臆	-13427
舢	-13428
艏	-13429
艮	-13430
芘	-13431
荃	-13432
莪	-13433
蜥	-13434
蝼	-13435
诌	-13436
谪	-13437
踅	-13438
辎	-13439
铤	-13440
鬈	-13441
鲚	-13442
鹜	-13443
佚	-13444
勖	-13445
咩	-13446
唢	-13447
喟	-13448
嚯	-13449
妘	-13450
孑	-13451
彗	-13452
揄	-13453
旎	-13454
暹	-13455
杳	-13456
柞	-13457
槃	-13458
樵	-13459
汴	-13460
浃	-13461
淦	-13462
漯	-13463
牍	-13464
犄	-13465
獐	-13466
珌	-13467
璟	-13468
畲	-13469
疝	-13470
盹	-13471
篙	-13472
篾	-13473
缬	-13474
芴	-13475
荻	-13476
蓐	-13477
藐	-13478
蜱	-13479
衮	-13480
袈	-13481
蹶	-13482
逵	-13483
钽	-13484
镫	-13485
阡	-13486
饽	-13487
馥	-13488
髂	-13489
鸨	-13490
龛	-13491
嗵	-13492
嘣	-13493
孀	-13494
宓	-13495
尕	-13496
嵋	-13497
廿	-13498
忪	-13499
恁	-13500
揶	-13501
柘	-13502
樽	-13503
橼	-13504
滓	-13505
炷	-13506
珪	-13507
畿	-13508
窕	-13509
纰	-13510
绾	-13511
胛	-13512
腴	-13513
苫	-13514
蒌	-13515
蒺	-13516
蓖	-13517
蓼	-13518
薏	-13519
薹	-13520
蜃	-13521
蜍	-13522
螳	-13523
蟆	-13524
觐	-13525
貉	-13526
赓	-13527
赳	-13528
轫	-13529
遨	-13530
酗	-13531
銮	-13532
铉	-13533
锏	-13534
饕	-13535
骛	-13536
鲂	-13537
鳕	-13538
鳟	-13539
鸩	-13540
嗲	-13541
噱	-13542
妪	-13543
宥	-13544
岀	-13545
幄	-13546
恹	-13547
搽	-13548
旖	-13549
栲	-13550
楝	-13551
氙	-13552
泱	-13553
濂	-13554
烺	-13555
爻	-13556
犒	-13557
狍	-13558
玢	-13559
珐	-13560
痈	-13561
痧	-13562
眦	-13563
砼	-13564
祇	-13565
禵	-13566
笈	-13567
粲	-13568
糍	-13569
羸	-13570
聒	-13571
苁	-13572
葶	-13573
蓑	-13574
蚬	-13575
蜴	-13576
诙	-13577
诿	-13578
豢	-13579
蹂	-13580
辚	-13581
逦	-13582
郜	-13583
钆	-13584
陂	-13585
陲	-13586
颍	-13587
饬	-13588
鲡	-13589
鸵	-13590
鹗	-13591
麼	-13592
丶	-13593
仟	-13594
佃	-13595
個	-13596
傥	-13597
刎	-13598
咻	-13599
啁	-13600
喰	-13601
噙	-13602
嚒	-13603
囡	-13604
孳	-13605
岌	-13606
弁	-13607
弑	-13608
怆	-13609
擢	-13610
晁	-13611
柩	-13612
柰	-13613
桧	-13614
槁	-13615
欸	-13616
氲	-13617
洙	-13618
浜	-13619
涪	-13620
疥	-13621
瘁	-13622
瘿	-13623
砣	-13624
祐	-13625
缄	-13626
缙	-13627
缢	-13628
羿	-13629
脍	-13630
臬	-13631
舐	-13632
荪	-13633
薅	-13634
薙	-13635
誊	-13636
豇	-13637
跶	-13638
躏	-13639
轼	-13640
钪	-13641
铼	-13642
镳	-13643
阚	-13644
隼	-13645
餮	-13646
骞	-13647
魍	-13648
鲲	-13649
鹑	-13650
鹫	-13651
鼬	-13652
仞	-13653
仡	-13654
伉	-13655
佗	-13656
咤	-13657
噫	-13658
嚅	-13659
娉	-13660
婳	-13661
孱	-13662
岫	-13663
崮	-13664
嶙	-13665
徜	-13666
恻	-13667
愠	-13668
抻	-13669
拚	-13670
摈	-13671
昇	-13672
會	-13673
柽	-13674
槊	-13675
氤	-13676
沤	-13677
沭	-13678
涠	-13679
淞	-13680
焘	-13681
燧	-13682
牠	-13683
犸	-13684
痼	-13685
瘆	-13686
眙	-13687
睢	-13688
砟	-13689
碇	-13690
磙	-13691
祚	-13692
箸	-13693
篁	-13694
胝	-13695
舫	-13696
芈	-13697
荸	-13698
葭	-13699
葳	-13700
蓣	-13701
蚴	-13702
诨	-13703
谀	-13704
谌	-13705
谡	-13706
踽	-13707
蹇	-13708
迤	-13709
遽	-13710
邝	-13711
酩	-13712
钜	-13713
镊	-13714
镌	-13715
颉	-13716
飨	-13717
馊	-13718
骈	-13719
鲀	-13720
鲽	-13721
黜	-13722
侉	-13723
俾	-13724
剽	-13725
厝	-13726
呓	-13727
啻	-13728
嗫	-13729
囫	-13730
囵	-13731
堀	-13732
嬛	-13733
徉	-13734
揿	-13735
昶	-13736
楹	-13737
橐	-13738
涔	-13739
淙	-13740
灞	-13741
煊	-13742
瓤	-13743
盱	-13744
砝	-13745
砦	-13746
祜	-13747
禳	-13748
稗	-13749
糗	-13750
胂	-13751
脒	-13752
腙	-13753
荥	-13754
菟	-13755
菹	-13756
蒎	-13757
衲	-13758
讣	-13759
讦	-13760
趿	-13761
蹚	-13762
蹩	-13763
醮	-13764
钌	-13765
钺	-13766
铧	-13767
铪	-13768
铽	-13769
阄	-13770
骠	-13771
鬣	-13772
鹌	-13773
亰	-13774
佻	-13775
侪	-13776
倨	-13777
冼	-13778
卅	-13779
咛	-13780
嘅	-13781
堃	-13782
寮	-13783
屐	-13784
岬	-13785
峋	-13786
忤	-13787
怵	-13788
恸	-13789
惇	-13790
懋	-13791
掮	-13792
撷	-13793
擘	-13794
斲	-13795
旮	-13796
旯	-13797
椽	-13798
槠	-13799
槻	-13800
檄	-13801
殒	-13802
氘	-13803
氪	-13804
泮	-13805
淝	-13806
溱	-13807
燮	-13808
牯	-13809
猷	-13810
玠	-13811
琏	-13812
琯	-13813
盥	-13814
碜	-13815
磬	-13816
祎	-13817
翕	-13818
胼	-13819
臌	-13820
茏	-13821
莜	-13822
薷	-13823
藨	-13824
蛔	-13825
蛳	-13826
螅	-13827
蟋	-13828
蠹	-13829
說	-13830
谒	-13831
赉	-13832
辔	-13833
這	-13834
還	-13835
邳	-13836
鎏	-13837
钐	-13838
铒	-13839
铳	-13840
锃	-13841
锍	-13842
镭	-13843
闾	-13844
饴	-13845
髭	-13846
鮰	-13847
鲅	-13848
鲇	-13849
鲳	-13850
鸷	-13851
黧	-13852
佞	-13853
佤	-13854
僮	-13855
儋	-13856
哂	-13857
哏	-13858
唳	-13859
唷	-13860
啖	-13861
喁	-13862
喑	-13863
奁	-13864
妤	-13865
姮	-13866
屙	-13867
岙	-13868
崆	-13869
嶂	-13870
庖	-13871
愎	-13872
扪	-13873
掼	-13874
旻	-13875
杲	-13876
柢	-13877
桕	-13878
椁	-13879
椪	-13880
椹	-13881
榍	-13882
樾	-13883
毽	-13884
泅	-13885
洄	-13886
洮	-13887
滂	-13888
滟	-13889
甏	-13890
癎	-13891
眬	-13892
睥	-13893
瞑	-13894
硌	-13895
祢	-13896
窠	-13897
糨	-13898
绂	-13899
脘	-13900
腚	-13901
苒	-13902
苡	-13903
莨	-13904
葺	-13905
蒹	-13906
薤	-13907
蛸	-13908
蜢	-13909
蝈	-13910
蟀	-13911
蠡	-13912
觥	-13913
诂	-13914
诰	-13915
踟	-13916
邈	-13917
邕	-13918
郧	-13919
醪	-13920
铄	-13921
铯	-13922
铱	-13923
镕	-13924
闰	-13925
霭	-13926
颢	-13927
飚	-13928
馔	-13929
驽	-13930
骥	-13931
鲹	-13932
鸪	-13933
鹈	-13934
鹕	-13935
麋	-13936
䄉	-13937
丨	-13938
仉	-13939
仝	-13940
仫	-13941
伢	-13942
偈	-13943
儆	-13944
叵	-13945
哞	-13946
啫	-13947
囹	-13948
埼	-13949
夔	-13950
媾	-13951
愛	-13952
捌	-13953
捩	-13954
捱	-13955
摺	-13956
杌	-13957
栝	-13958
桠	-13959
桤	-13960
橹	-13961
檩	-13962
檫	-13963
欹	-13964
歆	-13965
毬	-13966
氖	-13967
泫	-13968
潟	-13969
潲	-13970
澍	-13971
澧	-13972
焐	-13973
牾	-13974
狲	-13975
獾	-13976
玹	-13977
珣	-13978
琚	-13979
睇	-13980
稞	-13981
篪	-13982
缛	-13983
聿	-13984
肓	-13985
胪	-13986
舸	-13987
艉	-13988
艚	-13989
荏	-13990
蒴	-13991
褡	-13992
訇	-13993
讫	-13994
诮	-13995
赑	-13996
趸	-13997
蹉	-13998
轱	-13999
辇	-14000
遒	-14001
酢	-14002
釆	-14003
鋆	-14004
鎓	-14005
铑	-14006
铢	-14007
镟	-14008
镢	-14009
阆	-14010
靼	-14011
韪	-14012
顼	-14013
颀	-14014
馑	-14015
骐	-14016
骢	-14017
鲩	-14018
鲻	-14019
鸮	-14020
鸶	-14021
鹧	-14022
鹬	-14023
鹳	-14024
點	-14025
黟	-14026
黢	-14027
齑	-14028
龅	-14029
俟	-14030
僭	-14031
冴	-14032
凇	-14033
凫	-14034
唁	-14035
嗄	-14036
嗎	-14037
嗟	-14038
嘬	-14039
圄	-14040
垅	-14041
堞	-14042
姒	-14043
姘	-14044
姹	-14045
嫒	-14046
嫚	-14047
尻	-14048
屃	-14049
岘	-14050
岿	-14051
嵇	-14052
嵊	-14053
巽	-14054
廪	-14055
忸	-14056
怄	-14057
怩	-14058
戕	-14059
挈	-14060
掴	-14061
撺	-14062
昉	-14063
曌	-14064
朐	-14065
柁	-14066
楯	-14067
殓	-14068
洺	-14069
湟	-14070
溟	-14071
滆	-14072
潋	-14073
潸	-14074
炅	-14075
煨	-14076
燚	-14077
爿	-14078
狎	-14079
狺	-14080
玟	-14081
琇	-14082
琍	-14083
瑁	-14084
璘	-14085
痍	-14086
瘌	-14087
瘰	-14088
癯	-14089
睚	-14090
砀	-14091
砭	-14092
禟	-14093
秕	-14094
秣	-14095
竽	-14096
篌	-14097
篑	-14098
綦	-14099
绶	-14100
缦	-14101
罄	-14102
翦	-14103
耒	-14104
聩	-14105
膻	-14106
舭	-14107
芫	-14108
茛	-14109
茼	-14110
莳	-14111
菅	-14112
蓁	-14113
薨	-14114
虢	-14115
蚧	-14116
蜉	-14117
蝽	-14118
衿	-14119
裢	-14120
襞	-14121
覺	-14122
诳	-14123
谥	-14124
谰	-14125
豉	-14126
赅	-14127
蹰	-14128
逶	-14129
遑	-14130
邙	-14131
郫	-14132
鏖	-14133
钚	-14134
铊	-14135
铖	-14136
铨	-14137
锕	-14138
閒	-14139
阗	-14140
骊	-14141
骧	-14142
髌	-14143
髡	-14144
魑	-14145
鲃	-14146
鲠	-14147
鳊	-14148
麂	-14149
齁	-14150
仵	-14151
伛	-14152
佶	-14153
侑	-14154
俎	-14155
傧	-14156
僳	-14157
劭	-14158
劼	-14159
咴	-14160
問	-14161
囟	-14162
塄	-14163
姀	-14164
姕	-14165
嬢	-14166
孃	-14167
帔	-14168
悫	-14169
捯	-14170
揆	-14171
擤	-14172
斫	-14173
旸	-14174
時	-14175
暝	-14176
杓	-14177
枋	-14178
枌	-14179
柃	-14180
椤	-14181
楫	-14182
榀	-14183
樨	-14184
橛	-14185
歙	-14186
歡	-14187
殁	-14188
汜	-14189
汨	-14190
沄	-14191
沆	-14192
沚	-14193
洇	-14194
涞	-14195
湫	-14196
滢	-14197
滹	-14198
炀	-14199
煸	-14200
燊	-14201
爰	-14202
犍	-14203
犼	-14204
猁	-14205
猞	-14206
珙	-14207
珲	-14208
現	-14209
璎	-14210
畈	-14211
疬	-14212
疴	-14213
皴	-14214
磴	-14215
祗	-14216
笞	-14217
箅	-14218
篼	-14219
粝	-14220
缡	-14221
耧	-14222
舛	-14223
苈	-14224
荽	-14225
莒	-14226
蓊	-14227
蓠	-14228
蕈	-14229
蕹	-14230
蜊	-14231
蝣	-14232
螈	-14233
蠲	-14234
谯	-14235
贽	-14236
蹼	-14237
蹾	-14238
辯	-14239
過	-14240
邛	-14241
郗	-14242
郦	-14243
鄢	-14244
钍	-14245
钤	-14246
锇	-14247
锴	-14248
镔	-14249
镚	-14250
镨	-14251
闱	-14252
闼	-14253
阕	-14254
題	-14255
馗	-14256
魃	-14257
魉	-14258
鲱	-14259
鲴	-14260
鸫	-14261
鸹	-14262
鹘	-14263
鼋	-14264
鼹	-14265
龃	-14266
龉	-14267
乩	-14268
亓	-14269
仳	-14270
伕	-14271
侔	-14272
侩	-14273
俅	-14274
俚	-14275
傈	-14276
劁	-14277
劵	-14278
勠	-14279
勣	-14280
吋	-14281
吜	-14282
咗	-14283
嗞	-14284
嘁	-14285
圮	-14286
坜	-14287
坶	-14288
垟	-14289
夥	-14290
婈	-14291
媞	-14292
媺	-14293
孥	-14294
宄	-14295
實	-14296
崧	-14297
帑	-14298
庹	-14299
廨	-14300
彘	-14301
徵	-14302
忄	-14303
忝	-14304
忾	-14305
怙	-14306
悌	-14307
悭	-14308
拃	-14309
挹	-14310
掾	-14311
揎	-14312
昴	-14313
朊	-14314
枓	-14315
枹	-14316
桫	-14317
椴	-14318
楤	-14319
樑	-14320
樣	-14321
樯	-14322
殄	-14323
殚	-14324
汏	-14325
泔	-14326
洦	-14327
潾	-14328
為	-14329
烱	-14330
焗	-14331
熱	-14332
燠	-14333
牝	-14334
狯	-14335
猊	-14336
猢	-14337
猰	-14338
玳	-14339
珺	-14340
瑭	-14341
瓒	-14342
瓘	-14343
瓠	-14344
瓿	-14345
畚	-14346
畛	-14347
畹	-14348
痦	-14349
痱	-14350
發	-14351
矬	-14352
碡	-14353
碣	-14354
秫	-14355
穰	-14356
窨	-14357
笸	-14358
箐	-14359
箜	-14360
箝	-14361
箬	-14362
篊	-14363
糌	-14364
結	-14365
縻	-14366
绀	-14367
绻	-14368
缁	-14369
缱	-14370
罅	-14371
膑	-14372
舂	-14373
艹	-14374
荇	-14375
荭	-14376
菡	-14377
菪	-14378
菰	-14379
萩	-14380
葸	-14381
蒗	-14382
蕖	-14383
蕤	-14384
藁	-14385
蘅	-14386
虻	-14387
蛴	-14388
蝮	-14389
蝰	-14390
螫	-14391
螬	-14392
螭	-14393
蟥	-14394
誰	-14395
讧	-14396
诤	-14397
谔	-14398
谗	-14399
貐	-14400
趵	-14401
踯	-14402
躅	-14403
辻	-14404
逑	-14405
郃	-14406
郏	-14407
郓	-14408
酆	-14409
酽	-14410
醴	-14411
鉄	-14412
钬	-14413
铷	-14414
锒	-14415
锺	-14416
镞	-14417
镡	-14418
镦	-14419
雒	-14420
霈	-14421
靥	-14422
靺	-14423
鞨	-14424
韫	-14425
馐	-14426
驷	-14427
髫	-14428
鲐	-14429
鲥	-14430
鲭	-14431
鳇	-14432
鸻	-14433
黾	-14434
丌	-14435
丏	-14436
乜	-14437
佥	-14438
俶	-14439
倬	-14440
偐	-14441
內	-14442
凼	-14443
別	-14444
劬	-14445
哓	-14446
哕	-14447
啯	-14448
國	-14449
圬	-14450
圻	-14451
垌	-14452
垓	-14453
垚	-14454
埗	-14455
埙	-14456
塍	-14457
墀	-14458
増	-14459
妯	-14460
娌	-14461
孖	-14462
孛	-14463
對	-14464
屣	-14465
岍	-14466
峁	-14467
峣	-14468
峤	-14469
崃	-14470
崤	-14471
嵛	-14472
巿	-14473
帏	-14474
幵	-14475
幷	-14476
幾	-14477
庑	-14478
庾	-14479
廛	-14480
徭	-14481
徳	-14482
怍	-14483
恫	-14484
愓	-14485
愔	-14486
戗	-14487
戢	-14488
抜	-14489
拊	-14490
拤	-14491
掞	-14492
揸	-14493
搦	-14494
摽	-14495
攮	-14496
旃	-14497
晩	-14498
枧	-14499
査	-14500
栌	-14501
梃	-14502
樗	-14503
毖	-14504
毳	-14505
泖	-14506
浈	-14507
浐	-14508
浥	-14509
浼	-14510
涫	-14511
涴	-14512
渌	-14513
湎	-14514
溆	-14515
澪	-14516
濬	-14517
瀣	-14518
灢	-14519
炘	-14520
煳	-14521
犇	-14522
玎	-14523
珉	-14524
珥	-14525
珧	-14526
珮	-14527
瑄	-14528
瑠	-14529
瓚	-14530
甑	-14531
瘕	-14532
癥	-14533
皤	-14534
瞋	-14535
瞫	-14536
矍	-14537
砬	-14538
硇	-14539
硚	-14540
硪	-14541
碓	-14542
禔	-14543
穑	-14544
笏	-14545
笳	-14546
筸	-14547
節	-14548
籴	-14549
糾	-14550
纛	-14551
纡	-14552
纥	-14553
缂	-14554
缗	-14555
缵	-14556
羨	-14557
羼	-14558
耄	-14559
耜	-14560
胗	-14561
脔	-14562
脬	-14563
腘	-14564
腧	-14565
膂	-14566
臜	-14567
與	-14568
艄	-14569
芾	-14570
茌	-14571
茚	-14572
荬	-14573
蒯	-14574
蓥	-14575
蔸	-14576
薮	-14577
蝾	-14578
螓	-14579
蠛	-14580
衄	-14581
衾	-14582
袢	-14583
褫	-14584
詈	-14585
诓	-14586
谵	-14587
谶	-14588
豕	-14589
貊	-14590
赀	-14591
赍	-14592
跎	-14593
跸	-14594
躹	-14595
轳	-14596
迳	-14597
迴	-14598
邗	-14599
邨	-14600
郢	-14601
郤	-14602
醍	-14603
醐	-14604
醢	-14605
醭	-14606
錯	-14607
錾	-14608
鏊	-14609
铡	-14610
锟	-14611
锱	-14612
锷	-14613
镆	-14614
镈	-14615
镏	-14616
開	-14617
闳	-14618
阃	-14619
阍	-14620
阏	-14621
陉	-14622
陟	-14623
隗	-14624
霑	-14625
鞴	-14626
颛	-14627
颦	-14628
飏	-14629
餍	-14630
骒	-14631
骘	-14632
骝	-14633
骟	-14634
鲮	-14635
鳀	-14636
鳉	-14637
鳠	-14638
鹂	-14639
鹚	-14640
鹮	-14641
麴	-14642
鼍	-14643
㞎	-14644
仏	-14645
佔	-14646
佢	-14647
俍	-14648
俣	-14649
俦	-14650
倮	-14651
傕	-14652
冇	-14653
冏	-14654
剛	-14655
卍	-14656
卬	-14657
叡	-14658
叻	-14659
吔	-14660
吣	-14661
呡	-14662
咥	-14663
咭	-14664
唦	-14665
唿	-14666
啍	-14667
喯	-14668
嗾	-14669
嘏	-14670
嘡	-14671
嘢	-14672
噹	-14673
嚈	-14674
嚟	-14675
囉	-14676
囍	-14677
囗	-14678
囘	-14679
囝	-14680
圜	-14681
坭	-14682
垆	-14683
垡	-14684
垱	-14685
垵	-14686
埘	-14687
埝	-14688
埭	-14689
堋	-14690
堍	-14691
塚	-14692
塨	-14693
塽	-14694
墦	-14695
壂	-14696
奓	-14697
妁	-14698
妗	-14699
妣	-14700
姈	-14701
娿	-14702
婠	-14703
婦	-14704
嫄	-14705
嫪	-14706
嬅	-14707
學	-14708
宬	-14709
寯	-14710
尥	-14711
屄	-14712
岺	-14713
峄	-14714
峇	-14715
幛	-14716
庠	-14717
弢	-14718
弶	-14719
彀	-14720
徯	-14721
恂	-14722
恓	-14723
恚	-14724
悝	-14725
悧	-14726
愆	-14727
愍	-14728
憷	-14729
應	-14730
戡	-14731
戲	-14732
戽	-14733
捜	-14734
揺	-14735
搧	-14736
撄	-14737
撙	-14738
擔	-14739
旒	-14740
晄	-14741
晞	-14742
暌	-14743
曈	-14744
曬	-14745
曷	-14746
書	-14747
枥	-14748
枰	-14749
栒	-14750
桴	-14751
梼	-14752
棹	-14753
業	-14754
楽	-14755
榅	-14756
榣	-14757
槙	-14758
樘	-14759
橖	-14760
橥	-14761
檞	-14762
歩	-14763
毘	-14764
氆	-14765
氇	-14766
氐	-14767
氫	-14768
氽	-14769
汆	-14770
沔	-14771
洎	-14772
洑	-14773
洩	-14774
洰	-14775
洹	-14776
浯	-14777
淩	-14778
減	-14779
湉	-14780
溏	-14781
溻	-14782
滘	-14783
漶	-14784
漷	-14785
澌	-14786
澶	-14787
濛	-14788
濞	-14789
瀓	-14790
烀	-14791
熘	-14792
熳	-14793
爨	-14794
牤	-14795
犰	-14796
犴	-14797
犽	-14798
狳	-14799
狴	-14800
狷	-14801
狻	-14802
獏	-14803
獕	-14804
瑆	-14805
瑢	-14806
瑱	-14807
璆	-14808
璝	-14809
璠	-14810
産	-14811
當	-14812
疔	-14813
疖	-14814
痩	-14815
瘥	-14816
皲	-14817
眇	-14818
眍	-14819
睎	-14820
瞽	-14821
矟	-14822
硎	-14823
硖	-14824
硷	-14825
碛	-14826
磡	-14827
礐	-14828
稙	-14829
窳	-14830
笕	-14831
笤	-14832
笹	-14833
筇	-14834
筚	-14835
筜	-14836
筢	-14837
筴	-14838
筼	-14839
篠	-14840
粿	-14841
糸	-14842
紙	-14843
給	-14844
績	-14845
繸	-14846
绗	-14847
缋	-14848
缍	-14849
缯	-14850
缳	-14851
罒	-14852
罟	-14853
翃	-14854
翚	-14855
翮	-14856
耱	-14857
聃	-14858
肄	-14859
肏	-14860
腠	-14861
臵	-14862
舯	-14863
艋	-14864
芃	-14865
芤	-14866
芨	-14867
苘	-14868
苴	-14869
茇	-14870
茑	-14871
茔	-14872
茕	-14873
荜	-14874
荦	-14875
莰	-14876
菔	-14877
萁	-14878
萆	-14879
萋	-14880
蒈	-14881
蕞	-14882
薢	-14883
藠	-14884
蘧	-14885
處	-14886
虺	-14887
蚨	-14888
蚰	-14889
蚺	-14890
蛄	-14891
蛞	-14892
蜣	-14893
蜮	-14894
蝓	-14895
蝻	-14896
螠	-14897
蟊	-14898
蟌	-14899
蠔	-14900
蠖	-14901
袪	-14902
裉	-14903
褊	-14904
規	-14905
訢	-14906
試	-14907
話	-14908
該	-14909
認	-14910
誴	-14911
調	-14912
謝	-14913
诔	-14914
谂	-14915
谘	-14916
谝	-14917
豸	-14918
費	-14919
赜	-14920
赟	-14921
赧	-14922
跗	-14923
跫	-14924
轸	-14925
辋	-14926
辏	-14927
迨	-14928
逋	-14929
逡	-14930
連	-14931
遊	-14932
邡	-14933
邰	-14934
郅	-14935
鄜	-14936
醅	-14937
釐	-14938
銶	-14939
鏻	-14940
铗	-14941
铻	-14942
锛	-14943
锝	-14944
锞	-14945
锫	-14946
镬	-14947
镲	-14948
镴	-14949
閃	-14950
闿	-14951
阇	-14952
隈	-14953
隰	-14954
雖	-14955
雫	-14956
鞯	-14957
頔	-14958
頫	-14959
頵	-14960
颃	-14961
颣	-14962
風	-14963
飯	-14964
馃	-14965
骺	-14966
髙	-14967
髹	-14968
鬘	-14969
鬲	-14970
鬻	-14971
鮍	-14972
鱤	-14973
鲣	-14974
鲧	-14975
鲿	-14976
鳏	-14977
鳡	-14978
鸬	-14979
麇	-14980
黒	-14981
黕	-14982
黩	-14983
鼢	-14984
鼩	-14985
齉	-14986
龢	-14987
㞗	-14988
䦆	-14989
丟	-14990
丬	-14991
丼	-14992
亂	-14993
亞	-14994
亶	-14995
仈	-14996
仩	-14997
伣	-14998
伥	-14999
伧	-15000
伱	-15001
伲	-15002
佉	-15003
佷	-15004
佺	-15005
佾	-15006
侷	-15007
俆	-15008
俢	-15009
俳	-15010
俵	-15011
們	-15012
倖	-15013
偁	-15014
偪	-15015
偾	-15016
僇	-15017
僖	-15018
僦	-15019
僰	-15020
價	-15021
儁	-15022
優	-15023
兟	-15024
兩	-15025
冑	-15026
冚	-15027
凃	-15028
凍	-15029
刖	-15030
刭	-15031
刿	-15032
剋	-15033
剡	-15034
劑	-15035
劢	-15036
勊	-15037
勍	-15038
勞	-15039
匏	-15040
卄	-15041
卣	-15042
卺	-15043
卾	-15044
厍	-15045
厭	-15046
厽	-15047
叆	-15048
叇	-15049
叒	-15050
叕	-15051
吿	-15052
呔	-15053
呚	-15054
呠	-15055
呣	-15056
呫	-15057
呶	-15058
咍	-15059
哙	-15060
員	-15061
哯	-15062
哱	-15063
哿	-15064
唚	-15065
唛	-15066
唵	-15067
唼	-15068
啭	-15069
啲	-15070
喺	-15071
喾	-15072
嗉	-15073
嗍	-15074
嗐	-15075
嗰	-15076
嚄	-15077
嚇	-15078
嚧	-15079
嚭	-15080
嚰	-15081
囏	-15082
圉	-15083
圓	-15084
圕	-15085
團	-15086
圧	-15087
坌	-15088
坰	-15089
坻	-15090
垕	-15091
垯	-15092
垴	-15093
埀	-15094
埯	-15095
埸	-15096
堅	-15097
堠	-15098
場	-15099
堺	-15100
塁	-15101
塃	-15102
塅	-15103
塆	-15104
塊	-15105
墺	-15106
夠	-15107
夢	-15108
夤	-15109
夼	-15110
奧	-15111
奭	-15112
妫	-15113
妺	-15114
姫	-15115
娈	-15116
娢	-15117
婹	-15118
媁	-15119
嫘	-15120
嫜	-15121
嫫	-15122
嫱	-15123
寤	-15124
寫	-15125
寳	-15126
尓	-15127
屌	-15128
屛	-15129
屺	-15130
屾	-15131
岒	-15132
岜	-15133
峏	-15134
崄	-15135
崋	-15136
崐	-15137
崙	-15138
嵝	-15139
嵠	-15140
嵬	-15141
嵯	-15142
嵾	-15143
嶝	-15144
嶰	-15145
巇	-15146
巉	-15147
巘	-15148
巭	-15149
帄	-15150
帙	-15151
帰	-15152
帻	-15153
幙	-15154
幪	-15155
廁	-15156
廆	-15157
廋	-15158
廮	-15159
廼	-15160
強	-15161
彚	-15162
彳	-15163
彿	-15164
徂	-15165
後	-15166
徬	-15167
徴	-15168
忚	-15169
忭	-15170
忲	-15171
怛	-15172
怫	-15173
恥	-15174
恽	-15175
悒	-15176
惡	-15177
態	-15178
慓	-15179
慜	-15180
慥	-15181
慬	-15182
慱	-15183
慲	-15184
戣	-15185
扥	-15186
扽	-15187
抔	-15188
挒	-15189
挓	-15190
挼	-15191
捨	-15192
捭	-15193
掊	-15194
掎	-15195
掤	-15196
揻	-15197
搛	-15198
搠	-15199
搴	-15200
搶	-15201
摅	-15202
撃	-15203
擇	-15204
攵	-15205
敭	-15206
旑	-15207
旰	-15208
旿	-15209
昚	-15210
昝	-15211
昮	-15212
昰	-15213
晅	-15214
晥	-15215
晸	-15216
暐	-15217
暕	-15218
暠	-15219
暫	-15220
朁	-15221
朒	-15222
朓	-15223
朮	-15224
杋	-15225
杧	-15226
杪	-15227
杺	-15228
枒	-15229
枘	-15230
枡	-15231
枨	-15232
枱	-15233
柙	-15234
柝	-15235
柵	-15236
栊	-15237
栘	-15238
栱	-15239
栳	-15240
桲	-15241
梣	-15242
棄	-15243
棐	-15244
棓	-15245
棰	-15246
椇	-15247
椐	-15248
楗	-15249
楦	-15250
楮	-15251
楱	-15252
榘	-15253
榱	-15254
槎	-15255
槖	-15256
様	-15257
槡	-15258
樋	-15259
樫	-15260
樹	-15261
橓	-15262
機	-15263
橷	-15264
檵	-15265
櫈	-15266
欝	-15267
欤	-15268
歃	-15269
歔	-15270
歘	-15271
殂	-15272
殛	-15273
毐	-15274
氁	-15275
氵	-15276
氹	-15277
氾	-15278
氿	-15279
汋	-15280
汎	-15281
汙	-15282
沑	-15283
沷	-15284
沺	-15285
泇	-15286
泏	-15287
泩	-15288
泹	-15289
洌	-15290
洬	-15291
浍	-15292
浞	-15293
浠	-15294
浤	-15295
涑	-15296
涿	-15297
淠	-15298
淸	-15299
渖	-15300
渟	-15301
湅	-15302
湜	-15303
湳	-15304
溘	-15305
溽	-15306
滏	-15307
滮	-15308
滱	-15309
滿	-15310
漿	-15311
澫	-15312
濉	-15313
濊	-15314
瀬	-15315
灬	-15316
炝	-15317
炤	-15318
炪	-15319
炱	-15320
烜	-15321
烠	-15322
焜	-15323
煐	-15324
煣	-15325
熥	-15326
燈	-15327
燏	-15328
燐	-15329
燒	-15330
燔	-15331
爇	-15332
牆	-15333
牉	-15334
牚	-15335
牸	-15336
犏	-15337
犜	-15338
犨	-15339
狃	-15340
狆	-15341
狚	-15342
狛	-15343
狾	-15344
猄	-15345
猇	-15346
猓	-15347
獴	-15348
玍	-15349
玏	-15350
玧	-15351
珰	-15352
琮	-15353
瑇	-15354
瑨	-15355
瑸	-15356
璁	-15357
璂	-15358
璕	-15359
瓖	-15360
瓟	-15361
甓	-15362
甡	-15363
畑	-15364
異	-15365
疃	-15366
疐	-15367
疳	-15368
痄	-15369
痋	-15370
瘊	-15371
瘖	-15372
癀	-15373
癔	-15374
皛	-15375
盉	-15376
盝	-15377
眊	-15378
眚	-15379
眮	-15380
眵	-15381
瞀	-15382
矇	-15383
矱	-15384
砗	-15385
砲	-15386
硏	-15387
碁	-15388
碕	-15389
碥	-15390
碹	-15391
磲	-15392
礅	-15393
礓	-15394
祊	-15395
祓	-15396
祔	-15397
祤	-15398
祧	-15399
禇	-15400
禋	-15401
禘	-15402
禚	-15403
禢	-15404
稂	-15405
稃	-15406
稧	-15407
稹	-15408
稾	-15409
穈	-15410
竑	-15411
竦	-15412
笄	-15413
笪	-15414
笫	-15415
笮	-15416
筎	-15417
筘	-15418
筮	-15419
筯	-15420
筲	-15421
箢	-15422
箤	-15423
箦	-15424
箧	-15425
箨	-15426
箪	-15427
篥	-15428
簃	-15429
簋	-15430
簟	-15431
簠	-15432
簰	-15433
簽	-15434
籓	-15435
粄	-15436
粅	-15437
粢	-15438
粵	-15439
糁	-15440
紎	-15441
細	-15442
組	-15443
絅	-15444
網	-15445
緑	-15446
縡	-15447
縼	-15448
總	-15449
繇	-15450
纐	-15451
纻	-15452
绌	-15453
绨	-15454
绱	-15455
缃	-15456
缊	-15457
缑	-15458
缟	-15459
缣	-15460
缫	-15461
罍	-15462
罘	-15463
罴	-15464
罽	-15465
羝	-15466
翀	-15467
翯	-15468
耋	-15469
耑	-15470
耖	-15471
耤	-15472
職	-15473
聽	-15474
肜	-15475
肫	-15476
胙	-15477
脇	-15478
脞	-15479
脩	-15480
腍	-15481
臁	-15482
臉	-15483
舉	-15484
舎	-15485
舓	-15486
舳	-15487
舴	-15488
舺	-15489
舻	-15490
舾	-15491
艽	-15492
芏	-15493
芑	-15494
芗	-15495
芣	-15496
苊	-15497
苝	-15498
苠	-15499
苺	-15500
茞	-15501
茤	-15502
茳	-15503
荑	-15504
莸	-15505
菈	-15506
菉	-15507
菓	-15508
菝	-15509
菸	-15510
萏	-15511
葉	-15512
葎	-15513
葖	-15514
葙	-15515
葜	-15516
蒐	-15517
蒾	-15518
蓇	-15519
蓧	-15520
蕌	-15521
蕗	-15522
蕲	-15523
蕺	-15524
蕻	-15525
薗	-15526
薜	-15527
藟	-15528
蘩	-15529
蘼	-15530
虉	-15531
虮	-15532
虼	-15533
蚋	-15534
蚍	-15535
蛘	-15536
蛱	-15537
蜞	-15538
蝀	-15539
蟛	-15540
蟜	-15541
蟳	-15542
蠓	-15543
術	-15544
衖	-15545
衽	-15546
袓	-15547
袴	-15548
袼	-15549
裎	-15550
補	-15551
裝	-15552
裡	-15553
裥	-15554
裰	-15555
裾	-15556
褀	-15557
褙	-15558
褞	-15559
褲	-15560
襕	-15561
襦	-15562
襻	-15563
覅	-15564
見	-15565
覚	-15566
親	-15567
觇	-15568
觋	-15569
觌	-15570
觍	-15571
觚	-15572
觧	-15573
觫	-15574
觯	-15575
觳	-15576
討	-15577
記	-15578
訾	-15579
詝	-15580
説	-15581
請	-15582
論	-15583
諲	-15584
諴	-15585
謇	-15586
謹	-15587
識	-15588
譜	-15589
譾	-15590
讀	-15591
變	-15592
讓	-15593
讬	-15594
讵	-15595
诒	-15596
诹	-15597
谇	-15598
谖	-15599
谳	-15600
谿	-15601
貎	-15602
貨	-15603
買	-15604
貼	-15605
質	-15606
贶	-15607
赒	-15608
赕	-15609
趑	-15610
跂	-15611
跐	-15612
跬	-15613
跹	-15614
跽	-15615
蹍	-15616
蹓	-15617
躜	-15618
躶	-15619
辀	-15620
辁	-15621
迓	-15622
逯	-15623
遄	-15624
選	-15625
邠	-15626
邴	-15627
邶	-15628
郵	-15629
郿	-15630
鄯	-15631
酹	-15632
醑	-15633
醣	-15634
醯	-15635
釭	-15636
鈊	-15637
鈦	-15638
鈶	-15639
鋐	-15640
錢	-15641
錤	-15642
鍪	-15643
鎁	-15644
鏡	-15645
钫	-15646
钿	-15647
铓	-15648
铘	-15649
铙	-15650
铥	-15651
铩	-15652
锜	-15653
锪	-15654
锳	-15655
锿	-15656
镅	-15657
镒	-15658
镛	-15659
镝	-15660
镠	-15661
镪	-15662
镱	-15663
閤	-15664
關	-15665
阋	-15666
阌	-15667
阒	-15668
阓	-15669
阛	-15670
陔	-15671
陧	-15672
陰	-15673
険	-15674
陽	-15675
隳	-15676
霪	-15677
霳	-15678
靚	-15679
靰	-15680
鞒	-15681
鞡	-15682
鞥	-15683
鞫	-15684
須	-15685
顏	-15686
飛	-15687
餚	-15688
饸	-15689
饹	-15690
馕	-15691
馬	-15692
馭	-15693
騵	-15694
骀	-15695
骍	-15696
骓	-15697
骕	-15698
體	-15699
鬐	-15700
鬹	-15701
鮈	-15702
鮠	-15703
鮨	-15704
鯮	-15705
鰕	-15706
鱓	-15707
鱥	-15708
鲉	-15709
鲊	-15710
鲋	-15711
鲔	-15712
鲗	-15713
鲘	-15714
鲞	-15715
鲯	-15716
鲼	-15717
鳈	-15718
鳋	-15719
鳐	-15720
鳔	-15721
鳚	-15722
鳤	-15723
鴈	-15724
鴵	-15725
鵎	-15726
鸱	-15727
鸸	-15728
鹁	-15729
鹆	-15730
鹋	-15731
鹍	-15732
鹖	-15733
鹩	-15734
鹾	-15735
鼯	-15736
鼽	-15737
齰	-15738
龍	-15739
